{
  "version": "1.0",
  "truncation": null,
  "padding": null,
  "added_tokens": [
    {
      "id": 0,
      "content": "<SOS>",
      "single_word": false,
      "lstrip": false,
      "rstrip": false,
      "normalized": false,
      "special": true
    },
    {
      "id": 1,
      "content": "<EOS>",
      "single_word": false,
      "lstrip": false,
      "rstrip": false,
      "normalized": false,
      "special": true
    },
    {
      "id": 2,
      "content": "<PAD>",
      "single_word": false,
      "lstrip": false,
      "rstrip": false,
      "normalized": false,
      "special": true
    },
    {
      "id": 3,
      "content": "<UNK>",
      "single_word": false,
      "lstrip": false,
      "rstrip": false,
      "normalized": false,
      "special": true
    },
    {
      "id": 4,
      "content": "<MASK>",
      "single_word": false,
      "lstrip": false,
      "rstrip": false,
      "normalized": false,
      "special": true
    }
  ],
  "normalizer": null,
  "pre_tokenizer": {
    "type": "ByteLevel",
    "add_prefix_space": false,
    "trim_offsets": true,
    "use_regex": true
  },
  "post_processor": {
    "type": "ByteLevel",
    "add_prefix_space": true,
    "trim_offsets": false,
    "use_regex": true
  },
  "decoder": {
    "type": "ByteLevel",
    "add_prefix_space": true,
    "trim_offsets": true,
    "use_regex": true
  },
  "model": {
    "type": "BPE",
    "dropout": null,
    "unk_token": null,
    "continuing_subword_prefix": null,
    "end_of_word_suffix": null,
    "fuse_unk": false,
    "byte_fallback": false,
    "ignore_merges": false,
    "vocab": {
      "<SOS>": 0,
      "<EOS>": 1,
      "<PAD>": 2,
      "<UNK>": 3,
      "<MASK>": 4,
      "!": 5,
      "\"": 6,
      "#": 7,
      "$": 8,
      "%": 9,
      "&": 10,
      "'": 11,
      "(": 12,
      ")": 13,
      "*": 14,
      "+": 15,
      ",": 16,
      "-": 17,
      ".": 18,
      "/": 19,
      "0": 20,
      "1": 21,
      "2": 22,
      "3": 23,
      "4": 24,
      "5": 25,
      "6": 26,
      "7": 27,
      "8": 28,
      "9": 29,
      ":": 30,
      ";": 31,
      "<": 32,
      "=": 33,
      ">": 34,
      "?": 35,
      "@": 36,
      "A": 37,
      "B": 38,
      "C": 39,
      "D": 40,
      "E": 41,
      "F": 42,
      "G": 43,
      "H": 44,
      "I": 45,
      "J": 46,
      "K": 47,
      "L": 48,
      "M": 49,
      "N": 50,
      "O": 51,
      "P": 52,
      "Q": 53,
      "R": 54,
      "S": 55,
      "T": 56,
      "U": 57,
      "V": 58,
      "W": 59,
      "X": 60,
      "Y": 61,
      "Z": 62,
      "[": 63,
      "\\": 64,
      "]": 65,
      "^": 66,
      "_": 67,
      "`": 68,
      "a": 69,
      "b": 70,
      "c": 71,
      "d": 72,
      "e": 73,
      "f": 74,
      "g": 75,
      "h": 76,
      "i": 77,
      "j": 78,
      "k": 79,
      "l": 80,
      "m": 81,
      "n": 82,
      "o": 83,
      "p": 84,
      "q": 85,
      "r": 86,
      "s": 87,
      "t": 88,
      "u": 89,
      "v": 90,
      "w": 91,
      "x": 92,
      "y": 93,
      "z": 94,
      "{": 95,
      "|": 96,
      "}": 97,
      "~": 98,
      "¡": 99,
      "¢": 100,
      "£": 101,
      "¤": 102,
      "¥": 103,
      "¦": 104,
      "§": 105,
      "¨": 106,
      "©": 107,
      "ª": 108,
      "«": 109,
      "¬": 110,
      "®": 111,
      "¯": 112,
      "°": 113,
      "±": 114,
      "²": 115,
      "³": 116,
      "´": 117,
      "µ": 118,
      "¶": 119,
      "·": 120,
      "¸": 121,
      "¹": 122,
      "º": 123,
      "»": 124,
      "¼": 125,
      "½": 126,
      "¾": 127,
      "¿": 128,
      "À": 129,
      "Á": 130,
      "Â": 131,
      "Ã": 132,
      "Ä": 133,
      "Å": 134,
      "Æ": 135,
      "Ç": 136,
      "È": 137,
      "É": 138,
      "Ê": 139,
      "Ë": 140,
      "Ì": 141,
      "Í": 142,
      "Î": 143,
      "Ï": 144,
      "Ð": 145,
      "Ñ": 146,
      "Ò": 147,
      "Ó": 148,
      "Ô": 149,
      "Õ": 150,
      "Ö": 151,
      "×": 152,
      "Ø": 153,
      "Ù": 154,
      "Ú": 155,
      "Û": 156,
      "Ü": 157,
      "Ý": 158,
      "Þ": 159,
      "ß": 160,
      "à": 161,
      "á": 162,
      "â": 163,
      "ã": 164,
      "ä": 165,
      "å": 166,
      "æ": 167,
      "ç": 168,
      "è": 169,
      "é": 170,
      "ê": 171,
      "ë": 172,
      "ì": 173,
      "í": 174,
      "î": 175,
      "ï": 176,
      "ð": 177,
      "ñ": 178,
      "ò": 179,
      "ó": 180,
      "ô": 181,
      "õ": 182,
      "ö": 183,
      "÷": 184,
      "ø": 185,
      "ù": 186,
      "ú": 187,
      "û": 188,
      "ü": 189,
      "ý": 190,
      "þ": 191,
      "ÿ": 192,
      "Ā": 193,
      "ā": 194,
      "Ă": 195,
      "ă": 196,
      "Ą": 197,
      "ą": 198,
      "Ć": 199,
      "ć": 200,
      "Ĉ": 201,
      "ĉ": 202,
      "Ċ": 203,
      "ċ": 204,
      "Č": 205,
      "č": 206,
      "Ď": 207,
      "ď": 208,
      "Đ": 209,
      "đ": 210,
      "Ē": 211,
      "ē": 212,
      "Ĕ": 213,
      "ĕ": 214,
      "Ė": 215,
      "ė": 216,
      "Ę": 217,
      "ę": 218,
      "Ě": 219,
      "ě": 220,
      "Ĝ": 221,
      "ĝ": 222,
      "Ğ": 223,
      "ğ": 224,
      "Ġ": 225,
      "ġ": 226,
      "Ģ": 227,
      "ģ": 228,
      "Ĥ": 229,
      "ĥ": 230,
      "Ħ": 231,
      "ħ": 232,
      "Ĩ": 233,
      "ĩ": 234,
      "Ī": 235,
      "ī": 236,
      "Ĭ": 237,
      "ĭ": 238,
      "Į": 239,
      "į": 240,
      "İ": 241,
      "ı": 242,
      "Ĳ": 243,
      "ĳ": 244,
      "Ĵ": 245,
      "ĵ": 246,
      "Ķ": 247,
      "ķ": 248,
      "ĸ": 249,
      "Ĺ": 250,
      "ĺ": 251,
      "Ļ": 252,
      "ļ": 253,
      "Ľ": 254,
      "ľ": 255,
      "Ŀ": 256,
      "ŀ": 257,
      "Ł": 258,
      "ł": 259,
      "Ń": 260,
      "Ġt": 261,
      "čĊ": 262,
      "Ġa": 263,
      "he": 264,
      "in": 265,
      "Ġw": 266,
      "ou": 267,
      "re": 268,
      "Ġs": 269,
      "ha": 270,
      "on": 271,
      "Ġi": 272,
      "ĠI": 273,
      "Ġb": 274,
      "Ġthe": 275,
      "ll": 276,
      "an": 277,
      "Ġy": 278,
      "Ġm": 279,
      "Ġto": 280,
      "er": 281,
      "or": 282,
      "ing": 283,
      "Ġc": 284,
      "Ġf": 285,
      "Ġyou": 286,
      "nd": 287,
      "Ġd": 288,
      "ar": 289,
      "Ġg": 290,
      "es": 291,
      "Ġp": 292,
      "Ġl": 293,
      "Ġn": 294,
      "en": 295,
      "om": 296,
      "at": 297,
      "is": 298,
      "et": 299,
      "it": 300,
      "ay": 301,
      "ot": 302,
      "ve": 303,
      "Ġit": 304,
      "hat": 305,
      "ow": 306,
      "ed": 307,
      "ic": 308,
      "Ġand": 309,
      "Ġo": 310,
      "Ġha": 311,
      "as": 312,
      "le": 313,
      "'s": 314,
      "Ġh": 315,
      "Ġhe": 316,
      "Ġin": 317,
      "us": 318,
      "ill": 319,
      "ke": 320,
      "Ġbe": 321,
      "oo": 322,
      "Ġis": 323,
      "Ġfor": 324,
      "Ġth": 325,
      "Ġwe": 326,
      "Ġon": 327,
      "ĠT": 328,
      "ut": 329,
      "ac": 330,
      "ĠS": 331,
      "id": 332,
      "'t": 333,
      "ie": 334,
      "..": 335,
      "Ġe": 336,
      "Ġof": 337,
      "Ġme": 338,
      "im": 339,
      "ĠW": 340,
      "ĠH": 341,
      "ld": 342,
      "am": 343,
      "Ġre": 344,
      "gh": 345,
      "Ġthat": 346,
      "ome": 347,
      "ĠA": 348,
      "ly": 349,
      "al": 350,
      "Ġwill": 351,
      "out": 352,
      "Ġdo": 353,
      "Ġ:": 354,
      "ad": 355,
      "Ġk": 356,
      "Ġne": 357,
      "el": 358,
      "Ġst": 359,
      "Ġso": 360,
      "all": 361,
      "Ġhave": 362,
      "os": 363,
      "ĠY": 364,
      "Ġat": 365,
      "Ġu": 366,
      "ĠM": 367,
      "ith": 368,
      "ght": 369,
      "ver": 370,
      "Ġgo": 371,
      "Ġare": 372,
      "ry": 373,
      "ri": 374,
      "Ġwith": 375,
      "Ġan": 376,
      "Ġbut": 377,
      "ould": 378,
      "Ġj": 379,
      "Ġse": 380,
      "Ġcan": 381,
      "ia": 382,
      "Ġnot": 383,
      "ĠčĊ": 384,
      "ust": 385,
      "ir": 386,
      "ro": 387,
      "Ġkn": 388,
      "han": 389,
      "ter": 390,
      "ea": 391,
      "ch": 392,
      "ĠO": 393,
      "Ġli": 394,
      "Ġknow": 395,
      "ent": 396,
      "ĠB": 397,
      "ant": 398,
      "ĠC": 399,
      "'m": 400,
      "ion": 401,
      "Ġwas": 402,
      "Ġmy": 403,
      "Ġab": 404,
      "her": 405,
      "Ġsu": 406,
      "op": 407,
      "ĠN": 408,
      "ĠD": 409,
      "Ġas": 410,
      "ks": 411,
      "ally": 412,
      "Ġdon": 413,
      "il": 414,
      "Ġabout": 415,
      "ul": 416,
      "Ġwhat": 417,
      "art": 418,
      "'ll": 419,
      "ell": 420,
      "ĠJ": 421,
      "ĠL": 422,
      "Ġher": 423,
      "âĢ": 424,
      "ra": 425,
      "Ġsh": 426,
      "ink": 427,
      "ood": 428,
      "Ġwor": 429,
      "na": 430,
      "day": 431,
      "Ġthis": 432,
      "ake": 433,
      "ol": 434,
      "ate": 435,
      "th": 436,
      "Ġfr": 437,
      "ick": 438,
      "...": 439,
      "Ġjust": 440,
      "Ġsome": 441,
      "Ġshe": 442,
      "Ġlike": 443,
      "st": 444,
      "ine": 445,
      "ec": 446,
      "ack": 447,
      "Ġthere": 448,
      "Ġwant": 449,
      "Ġyour": 450,
      "and": 451,
      "Ġal": 452,
      "ess": 453,
      "!!": 454,
      "Ġwh": 455,
      "our": 456,
      "pp": 457,
      "âĢĻ": 458,
      "ore": 459,
      "ĠThe": 460,
      "ĠG": 461,
      "Ġpl": 462,
      "ile": 463,
      "ĠP": 464,
      "ur": 465,
      "Ġget": 466,
      "ab": 467,
      "Ġthink": 468,
      "ight": 469,
      "ice": 470,
      "ob": 471,
      "ind": 472,
      "ime": 473,
      "Mar": 474,
      "Ġsee": 475,
      "Ġup": 476,
      "ce": 477,
      "Ġthey": 478,
      "un": 479,
      "se": 480,
      "Ġ<": 481,
      "Ġgoing": 482,
      "Ġany": 483,
      "ook": 484,
      "ge": 485,
      "Ġtime": 486,
      "ĠIt": 487,
      "Ġdid": 488,
      "one": 489,
      "eah": 490,
      "ðŁ": 491,
      "ast": 492,
      "very": 493,
      "Ġwhe": 494,
      "Ġtoo": 495,
      "Ġneed": 496,
      "ĠHe": 497,
      "are": 498,
      "Ġok": 499,
      "ck": 500,
      "Ġone": 501,
      "ĠYou": 502,
      "ff": 503,
      "Ġno": 504,
      "Ġ:)": 505,
      "ris": 506,
      "est": 507,
      "An": 508,
      "Ġhas": 509,
      "Ġor": 510,
      "Ġall": 511,
      "ĠF": 512,
      "Jo": 513,
      "Ġfrom": 514,
      "Ġpro": 515,
      "Ġgood": 516,
      "Ġout": 517,
      "'re": 518,
      "te": 519,
      "file": 520,
      "uy": 521,
      "other": 522,
      "Ġif": 523,
      "Ġex": 524,
      "ĠR": 525,
      "row": 526,
      "Ġwork": 527,
      "ĠE": 528,
      "nt": 529,
      "hing": 530,
      "Ġhim": 531,
      "Ġcom": 532,
      "ĠWhat": 533,
      "um": 534,
      "ound": 535,
      "ven": 536,
      "Ġreally": 537,
      "Ġhis": 538,
      "ma": 539,
      "Ġ1": 540,
      "ure": 541,
      "ep": 542,
      "Ġnow": 543,
      "ny": 544,
      "Ġwould": 545,
      "Ġthan": 546,
      "Ġwee": 547,
      "Ġus": 548,
      "ays": 549,
      "Ġmeet": 550,
      "li": 551,
      "Ġcome": 552,
      "Ġthem": 553,
      "ace": 554,
      "ain": 555,
      "Ġhow": 556,
      "Ġnew": 557,
      "ation": 558,
      "orrow": 559,
      "ber": 560,
      "reat": 561,
      "ard": 562,
      "ara": 563,
      "Ġgot": 564,
      "ove": 565,
      "Ġcon": 566,
      "be": 567,
      "ive": 568,
      "ear": 569,
      "ee": 570,
      "Ġsure": 571,
      "qu": 572,
      "res": 573,
      "ite": 574,
      "ina": 575,
      "ian": 576,
      "ran": 577,
      "ðŁĺ": 578,
      "Ġv": 579,
      "if": 580,
      "right": 581,
      "Ġ2": 582,
      "Ġthen": 583,
      "ud": 584,
      "Ġshould": 585,
      "Ġwhen": 586,
      "Ġag": 587,
      "ble": 588,
      "alk": 589,
      "ig": 590,
      "Ġfe": 591,
      "ect": 592,
      "ct": 593,
      "Ġtom": 594,
      "Ġsp": 595,
      "xt": 596,
      "omet": 597,
      "ak": 598,
      "Ġyes": 599,
      "hn": 600,
      "Ġr": 601,
      "'ve": 602,
      "Ġaf": 603,
      "ĠK": 604,
      "use": 605,
      "Ġtomorrow": 606,
      "ĠAnd": 607,
      "ong": 608,
      "ost": 609,
      "ĠNo": 610,
      "ame": 611,
      "Ġback": 612,
      "hris": 613,
      "ers": 614,
      "uch": 615,
      "ph": 616,
      "ĠWe": 617,
      "red": 618,
      "Ġsomet": 619,
      "ca": 620,
      "Ġright": 621,
      "Ġhome": 622,
      "em": 623,
      "ort": 624,
      "Ġmuch": 625,
      "Ġar": 626,
      "la": 627,
      "thing": 628,
      "ue": 629,
      "aybe": 630,
      "ool": 631,
      "ne": 632,
      "Ġ;": 633,
      "od": 634,
      "Ġam": 635,
      "ĠShe": 636,
      "Tom": 637,
      "ĠThan": 638,
      "har": 639,
      "Ġdoes": 640,
      "aul": 641,
      "ĠBut": 642,
      "Ġoff": 643,
      "ous": 644,
      "Ġlook": 645,
      "ĠOk": 646,
      "Ġlet": 647,
      "Ġbeen": 648,
      "Ġhad": 649,
      "ait": 650,
      "ĠYes": 651,
      "Ġcould": 652,
      "Ġafter": 653,
      "Ġtake": 654,
      "Ġtoday": 655,
      "ĠYeah": 656,
      "ĠHa": 657,
      "Ġwell": 658,
      "ike": 659,
      "Ġsomething": 660,
      "oto": 661,
      "Ġsa": 662,
      "ough": 663,
      "ady": 664,
      "Ġtalk": 665,
      "Ġevery": 666,
      "Ġmore": 667,
      "ily": 668,
      "ty": 669,
      "Ġhapp": 670,
      "anna": 671,
      "Ġcl": 672,
      "Lu": 673,
      "ĠHow": 674,
      "Ġche": 675,
      "Ġman": 676,
      "Ġpart": 677,
      "end": 678,
      "Ġby": 679,
      "ĠSo": 680,
      "ica": 681,
      "Car": 682,
      "av": 683,
      "ĠThat": 684,
      "orry": 685,
      "ose": 686,
      "ass": 687,
      "Ġgreat": 688,
      "Ġyeah": 689,
      "??": 690,
      "Ġwait": 691,
      "ving": 692,
      "Ġpre": 693,
      "Ġwon": 694,
      "Ġlove": 695,
      "ag": 696,
      "ĠThey": 697,
      "Ġask": 698,
      "ĠOh": 699,
      "Al": 700,
      "Ġbr": 701,
      "Ġnext": 702,
      "John": 703,
      "Ġlast": 704,
      "eter": 705,
      "Ġcall": 706,
      "ist": 707,
      "ning": 708,
      "Ġeven": 709,
      "Ġqu": 710,
      "ought": 711,
      "Ġbet": 712,
      "Ġbuy": 713,
      "Ġstill": 714,
      "ase": 715,
      "Ġmake": 716,
      "my": 717,
      "act": 718,
      "Ġwhy": 719,
      "iend": 720,
      "Ġhel": 721,
      "ĠHi": 722,
      "Ġdidn": 723,
      "Ġvery": 724,
      "Ġhelp": 725,
      "photo": 726,
      "Ġwat": 727,
      "ish": 728,
      "hy": 729,
      "ies": 730,
      "ide": 731,
      "per": 732,
      "uck": 733,
      "cause": 734,
      "Ġwho": 735,
      "Ġch": 736,
      "cy": 737,
      "ary": 738,
      "Ġbecause": 739,
      "iz": 740,
      "Ġid": 741,
      "ope": 742,
      "Ġguy": 743,
      "Ġhere": 744,
      "Ġweek": 745,
      "oin": 746,
      "Em": 747,
      "Paul": 748,
      "Ġthing": 749,
      "Ġ;)": 750,
      "lex": 751,
      "Dan": 752,
      "Ġco": 753,
      "Ġhaha": 754,
      "Ġle": 755,
      "Ġplace": 756,
      "ane": 757,
      "oy": 758,
      "Ġyear": 759,
      "Ġthanks": 760,
      "iss": 761,
      "Ġpe": 762,
      "ĠðŁĺ": 763,
      "Ġtry": 764,
      "Ġtell": 765,
      "Ġ3": 766,
      "ree": 767,
      "Kate": 768,
      "Ġover": 769,
      "Ġx": 770,
      "Sam": 771,
      "Ġwere": 772,
      "ict": 773,
      "Ġother": 774,
      "Ġfeel": 775,
      "own": 776,
      "ople": 777,
      "Ġway": 778,
      "ress": 779,
      "ere": 780,
      "Ġde": 781,
      "lie": 782,
      "Ġsay": 783,
      "Ġday": 784,
      "Ġwants": 785,
      "ting": 786,
      "Ġour": 787,
      "Ġpr": 788,
      "way": 789,
      "get": 790,
      "Ġdoesn": 791,
      "ert": 792,
      "Ġnice": 793,
      "ĠHey": 794,
      "Ġpeople": 795,
      "Ġen": 796,
      "ub": 797,
      "Ġmaybe": 798,
      "ail": 799,
      "arry": 800,
      "Ġte": 801,
      "blem": 802,
      "ways": 803,
      "Ġsorry": 804,
      "ment": 805,
      "And": 806,
      "ich": 807,
      "Ġonly": 808,
      "so": 809,
      "Ġfind": 810,
      "Ġproblem": 811,
      "ĠThanks": 812,
      "Ġton": 813,
      "Ġmin": 814,
      "Ġ5": 815,
      "ĠWell": 816,
      "ity": 817,
      "ip": 818,
      "Ġcoming": 819,
      "Ġbetter": 820,
      "gan": 821,
      "ĠDo": 822,
      "Ġlot": 823,
      "Mart": 824,
      "Ġad": 825,
      "ready": 826,
      "Ġdi": 827,
      "oss": 828,
      "Mary": 829,
      "Chris": 830,
      "Jen": 831,
      "Peter": 832,
      "here": 833,
      "Pat": 834,
      "Ġmean": 835,
      "ap": 836,
      "Ġalready": 837,
      "Ad": 838,
      "au": 839,
      "Ġgu": 840,
      "Ġwhere": 841,
      "Ġsend": 842,
      "Ġagain": 843,
      "att": 844,
      "Alex": 845,
      "Ġrec": 846,
      "Ġparty": 847,
      "Ġtonight": 848,
      "Ġplan": 849,
      "Anna": 850,
      "ater": 851,
      "Ġfriend": 852,
      "lo": 853,
      "Ġstart": 854,
      "Rob": 855,
      "Ġbit": 856,
      "Jack": 857,
      "mm": 858,
      "irst": 859,
      "ames": 860,
      "Ġrem": 861,
      "Ġph": 862,
      "Ġnight": 863,
      "ason": 864,
      "lease": 865,
      "ĠTh": 866,
      "Mike": 867,
      "ach": 868,
      "irl": 869,
      "Ġanything": 870,
      "Ġcomp": 871,
      "ĠU": 872,
      "Fran": 873,
      "ark": 874,
      "Ġalways": 875,
      "Ġbus": 876,
      "Ġwatch": 877,
      "onna": 878,
      "Ġcar": 879,
      "'d": 880,
      "Sara": 881,
      "Ġidea": 882,
      "lly": 883,
      "ather": 884,
      "Ġgive": 885,
      "Ġtr": 886,
      "Ġlong": 887,
      "ĠCan": 888,
      "ĠNot": 889,
      "fore": 890,
      "ise": 891,
      "Jul": 892,
      "ĠSure": 893,
      "Ġ-": 894,
      "age": 895,
      "Ġtheir": 896,
      "ah": 897,
      "Ġcheck": 898,
      "Ġdr": 899,
      "Ġalso": 900,
      "Ġguys": 901,
      "inn": 902,
      "ious": 903,
      "Br": 904,
      "Ġtw": 905,
      "Ġke": 906,
      "Ġhappen": 907,
      "Ġplay": 908,
      "gg": 909,
      "Ġwr": 910,
      "iel": 911,
      "Ġbefore": 912,
      "Ġfun": 913,
      "Ġgr": 914,
      "itt": 915,
      "!!!": 916,
      "isa": 917,
      "ually": 918,
      "Ġfine": 919,
      "Ġcour": 920,
      "Ġoh": 921,
      "ley": 922,
      "che": 923,
      "Ġapp": 924,
      "Ġ10": 925,
      "Jos": 926,
      "Ġlea": 927,
      "Ġstay": 928,
      "Ġim": 929,
      "Ġhour": 930,
      "Ġaround": 931,
      "Ġun": 932,
      "Ġbring": 933,
      "Ġsoon": 934,
      "ric": 935,
      "Ġgirl": 936,
      "Ġtra": 937,
      "sel": 938,
      "ĠV": 939,
      "Ġfirst": 940,
      "Ġ4": 941,
      "Ġthought": 942,
      "ember": 943,
      "ĠAre": 944,
      "Ġchan": 945,
      "Am": 946,
      "Ġyet": 947,
      "Ġexp": 948,
      "able": 949,
      "Ġlate": 950,
      "Mark": 951,
      "oney": 952,
      "Ġfin": 953,
      "Ġcourse": 954,
      "ĠIs": 955,
      "ov": 956,
      "ounds": 957,
      "cc": 958,
      "Ġper": 959,
      "Ann": 960,
      "onica": 961,
      "Ġbad": 962,
      "Ġmeeting": 963,
      "ax": 964,
      "iday": 965,
      "kend": 966,
      "Ġguess": 967,
      "Ġmon": 968,
      "ĠJo": 969,
      "Ġweekend": 970,
      "sh": 971,
      "Ġro": 972,
      "pt": 973,
      "Ġfl": 974,
      "Ġlater": 975,
      "Ste": 976,
      "Jane": 977,
      "Ġact": 978,
      "via": 979,
      "ĠJust": 980,
      "Ġdoing": 981,
      "Ġpick": 982,
      "Oli": 983,
      "Ġlol": 984,
      "Ġ:(": 985,
      "les": 986,
      "Ġjob": 987,
      "ĠChris": 988,
      "der": 989,
      "erry": 990,
      "Ben": 991,
      "Tim": 992,
      "eor": 993,
      "vin": 994,
      "Ġ\"": 995,
      "Ġ7": 996,
      "Ġser": 997,
      "inda": 998,
      "ĠHave": 999,
      "ooks": 1000,
      "Ġminut": 1001,
      "ean": 1002,
      "Ġtri": 1003,
      "Ġhope": 1004,
      "oup": 1005,
      "ount": 1006,
      "Ġstu": 1007,
      "Ġbook": 1008,
      "Jim": 1009,
      "ft": 1010,
      "self": 1011,
      "Matt": 1012,
      "ĠGood": 1013,
      "Char": 1014,
      "Ġdec": 1015,
      "Ġ6": 1016,
      "Ġbl": 1017,
      "Ġplease": 1018,
      "va": 1019,
      "ĠAn": 1020,
      "ĠWhy": 1021,
      "eth": 1022,
      "ĠĊ": 1023,
      "Mic": 1024,
      "Ġnever": 1025,
      "Ġtwo": 1026,
      "Nat": 1027,
      "Ġbest": 1028,
      "Jess": 1029,
      "ond": 1030,
      "ĠðŁ": 1031,
      "Ġvis": 1032,
      "ĠSt": 1033,
      "Ġmonth": 1034,
      "Ġinv": 1035,
      "Ġseen": 1036,
      "ave": 1037,
      "rew": 1038,
      "reg": 1039,
      "fe": 1040,
      "we": 1041,
      "ord": 1042,
      "Ġremember": 1043,
      "Le": 1044,
      "rest": 1045,
      "Ġtold": 1046,
      "Ġdown": 1047,
      "og": 1048,
      "ĠFr": 1049,
      "ĠOK": 1050,
      "Ġcare": 1051,
      "anda": 1052,
      "aking": 1053,
      "avid": 1054,
      "Ġkid": 1055,
      "ade": 1056,
      "Ġjoin": 1057,
      "Ġvisit": 1058,
      "Ġcool": 1059,
      "chool": 1060,
      "iam": 1061,
      "Ġsc": 1062,
      "Ġmight": 1063,
      "ory": 1064,
      "yl": 1065,
      "Ġ8": 1066,
      "Ġdays": 1067,
      "Ġmor": 1068,
      "ably": 1069,
      "Ġclass": 1070,
      "Ġgonna": 1071,
      "Ġdis": 1072,
      "ĠMaybe": 1073,
      "Ġlooking": 1074,
      "ĠAl": 1075,
      "Ġhi": 1076,
      "gif": 1077,
      "ona": 1078,
      "ĠThank": 1079,
      "Ġeverything": 1080,
      "ild": 1081,
      "Adam": 1082,
      "ody": 1083,
      "eb": 1084,
      "Ġread": 1085,
      "lle": 1086,
      "Ġshow": 1087,
      "Ġsame": 1088,
      "Ġschool": 1089,
      "ony": 1090,
      "atur": 1091,
      "Ġwent": 1092,
      "ittle": 1093,
      "mas": 1094,
      "terday": 1095,
      "nder": 1096,
      "Ġwhich": 1097,
      "gether": 1098,
      "Ġhappy": 1099,
      "to": 1100,
      "ictor": 1101,
      "Ġdiff": 1102,
      "ire": 1103,
      "Ġprob": 1104,
      "eorge": 1105,
      "hael": 1106,
      "Ġsaid": 1107,
      "orm": 1108,
      "Ġbir": 1109,
      "ĠDid": 1110,
      "Ġminutes": 1111,
      "ouse": 1112,
      "ets": 1113,
      "ĠDon": 1114,
      "Ġshop": 1115,
      "ng": 1116,
      "Ġold": 1117,
      "Ġinte": 1118,
      "Ġlittle": 1119,
      "hen": 1120,
      "Ġthough": 1121,
      "Ġres": 1122,
      "Ġmorning": 1123,
      "Ġhey": 1124,
      "Ġtogether": 1125,
      "Sarah": 1126,
      "ions": 1127,
      "ĠX": 1128,
      "arent": 1129,
      "aura": 1130,
      "Ġfew": 1131,
      "Ġmiss": 1132,
      "ĠAny": 1133,
      "ĠMar": 1134,
      "oph": 1135,
      "inner": 1136,
      "Ġyesterday": 1137,
      "Ell": 1138,
      "port": 1139,
      "Will": 1140,
      "Ġthings": 1141,
      "The": 1142,
      "Ġ:-": 1143,
      "Ġneeds": 1144,
      "olly": 1145,
      "elly": 1146,
      "Ġeat": 1147,
      "Ġbot": 1148,
      "arb": 1149,
      "ial": 1150,
      "Ġacc": 1151,
      "ĠTom": 1152,
      "Ġwanted": 1153,
      "fect": 1154,
      "Josh": 1155,
      "....": 1156,
      "Ġunder": 1157,
      "Ġsupp": 1158,
      "Ġmoney": 1159,
      "ĠFriday": 1160,
      "ache": 1161,
      "Ġinterest": 1162,
      "Is": 1163,
      "ĠIf": 1164,
      "aturday": 1165,
      "ens": 1166,
      "Ġleft": 1167,
      "00": 1168,
      "Ġbirth": 1169,
      "Ġfree": 1170,
      "ella": 1171,
      "ves": 1172,
      "Ġbig": 1173,
      "Ġwaiting": 1174,
      "?!": 1175,
      "Ġgetting": 1176,
      "Greg": 1177,
      "Ġmom": 1178,
      "Frank": 1179,
      "James": 1180,
      "Ġsm": 1181,
      "Ġkeep": 1182,
      "ren": 1183,
      "Ġits": 1184,
      "ĠThere": 1185,
      "ĠChrist": 1186,
      "ĠMe": 1187,
      "oint": 1188,
      "Ġbro": 1189,
      "nes": 1190,
      "rian": 1191,
      "Jake": 1192,
      "ĠSee": 1193,
      "Ġdone": 1194,
      "Jac": 1195,
      "Ġdinner": 1196,
      "Emma": 1197,
      "ĠNe": 1198,
      "elen": 1199,
      "eff": 1200,
      "urn": 1201,
      "Ġbirthday": 1202,
      "Ġheard": 1203,
      "Ġear": 1204,
      "ĠMy": 1205,
      "Ġquite": 1206,
      "ful": 1207,
      "ĠIn": 1208,
      "Mel": 1209,
      "Kim": 1210,
      "ĠHaha": 1211,
      "any": 1212,
      "Ġthinking": 1213,
      "Ke": 1214,
      "zy": 1215,
      "Ġworking": 1216,
      "Ġmov": 1217,
      "Ġlik": 1218,
      "ward": 1219,
      "omm": 1220,
      "no": 1221,
      "Ġactually": 1222,
      "ms": 1223,
      "actly": 1224,
      "Ġstuff": 1225,
      "by": 1226,
      "leep": 1227,
      "Ġhappened": 1228,
      "Ġhouse": 1229,
      "Ġmany": 1230,
      "up": 1231,
      "Ġend": 1232,
      "got": 1233,
      "Ġsounds": 1234,
      "ier": 1235,
      "rive": 1236,
      "acy": 1237,
      "Ġel": 1238,
      "Ġrest": 1239,
      "Ġprobably": 1240,
      "30": 1241,
      "ora": 1242,
      "ancy": 1243,
      "Monica": 1244,
      "Victor": 1245,
      "Ġtick": 1246,
      "David": 1247,
      "enry": 1248,
      "Ġhaven": 1249,
      "ĠSaturday": 1250,
      "ĠWh": 1251,
      "Carol": 1252,
      "St": 1253,
      "tty": 1254,
      "Ġhar": 1255,
      "Ġnothing": 1256,
      "Alice": 1257,
      "Ġstud": 1258,
      "George": 1259,
      "Ġsha": 1260,
      "ete": 1261,
      "Me": 1262,
      "Ġcont": 1263,
      "Martha": 1264,
      "Ġpay": 1265,
      "âĢ¦": 1266,
      "Emily": 1267,
      "Nick": 1268,
      "Ġaw": 1269,
      "Joe": 1270,
      "Daniel": 1271,
      "Ġfound": 1272,
      "usan": 1273,
      "ult": 1274,
      "Ġbre": 1275,
      "Ġfood": 1276,
      "Laura": 1277,
      "ĠWhere": 1278,
      "Ġleave": 1279,
      "iana": 1280,
      "ĠWhen": 1281,
      "nie": 1282,
      "oe": 1283,
      "Ġfam": 1284,
      "Ġhear": 1285,
      "Ġelse": 1286,
      "Ġfriends": 1287,
      "Ġcat": 1288,
      "Jenny": 1289,
      "oc": 1290,
      "ĠLet": 1291,
      "annah": 1292,
      "Ġbusy": 1293,
      "Ar": 1294,
      "rick": 1295,
      "za": 1296,
      "ĠWill": 1297,
      "Ġsur": 1298,
      "ath": 1299,
      "illy": 1300,
      "Mia": 1301,
      "Harry": 1302,
      "unch": 1303,
      "Ġmay": 1304,
      "Andy": 1305,
      "ĠJohn": 1306,
      "Max": 1307,
      "inks": 1308,
      "Fred": 1309,
      "car": 1310,
      "Ġkind": 1311,
      "air": 1312,
      "imes": 1313,
      "Maria": 1314,
      "Ġoffice": 1315,
      "ĠChristmas": 1316,
      "Ġworry": 1317,
      "aren": 1318,
      "ik": 1319,
      "io": 1320,
      "ude": 1321,
      "Olivia": 1322,
      "Linda": 1323,
      "ated": 1324,
      "Ph": 1325,
      "Ġfuck": 1326,
      "Ġbelie": 1327,
      "Soph": 1328,
      "aw": 1329,
      "Ġsomeone": 1330,
      "Ġhahaha": 1331,
      "Ġpretty": 1332,
      "Ġsuch": 1333,
      "Lucy": 1334,
      "Ġstop": 1335,
      "Bob": 1336,
      "Ġpres": 1337,
      "Ġop": 1338,
      "Ġforgot": 1339,
      "Ġphone": 1340,
      "ject": 1341,
      "andy": 1342,
      "Lisa": 1343,
      "Ġbab": 1344,
      "Ġbought": 1345,
      "arents": 1346,
      "Ġpm": 1347,
      "andra": 1348,
      "son": 1349,
      "Ġhaving": 1350,
      "Ġthank": 1351,
      "Ġwanna": 1352,
      "Ġanother": 1353,
      "ding": 1354,
      "Ġlooks": 1355,
      "Ġevening": 1356,
      "ince": 1357,
      "ĠLO": 1358,
      "ĠGreat": 1359,
      "Ġokay": 1360,
      "Helen": 1361,
      "aa": 1362,
      "Ġmind": 1363,
      "Ġ(": 1364,
      "ĠSu": 1365,
      "maz": 1366,
      "line": 1367,
      "Luke": 1368,
      "ix": 1369,
      "umber": 1370,
      "Ġhat": 1371,
      "Ġ:/": 1372,
      "Robert": 1373,
      "Ġdiffere": 1374,
      "ta": 1375,
      "Ġyears": 1376,
      "pe": 1377,
      "Ġparents": 1378,
      "Ġ20": 1379,
      "Ġinto": 1380,
      "ien": 1381,
      "ping": 1382,
      "ela": 1383,
      "vers": 1384,
      "achel": 1385,
      "Henry": 1386,
      "ign": 1387,
      "Ġsleep": 1388,
      "Julia": 1389,
      "Michael": 1390,
      "dy": 1391,
      "ible": 1392,
      "rey": 1393,
      "Ġrecomm": 1394,
      "Ġmost": 1395,
      "Ġrecommend": 1396,
      "Ġaway": 1397,
      "Ġexc": 1398,
      "joy": 1399,
      "!!!!": 1400,
      "ance": 1401,
      "ute": 1402,
      "Ġroom": 1403,
      "Ġmade": 1404,
      "Ġsec": 1405,
      "Ġdont": 1406,
      "Jeff": 1407,
      "ĠHell": 1408,
      "Ġago": 1409,
      "ĠSh": 1410,
      "akes": 1411,
      "Ġuse": 1412,
      "Ġhard": 1413,
      "ched": 1414,
      "fr": 1415,
      "Ġput": 1416,
      "Ġdrink": 1417,
      "Jacob": 1418,
      "Ġsaw": 1419,
      "Ġperfect": 1420,
      "ger": 1421,
      "Ġtrip": 1422,
      "pm": 1423,
      "Ġlife": 1424,
      "ations": 1425,
      "Ġlist": 1426,
      "ĠBr": 1427,
      "Ġboth": 1428,
      "Ġsent": 1429,
      "Sue": 1430,
      "ating": 1431,
      "Ġdel": 1432,
      "Steve": 1433,
      "ited": 1434,
      "Ab": 1435,
      "ug": 1436,
      "Ġluck": 1437,
      "ĠThis": 1438,
      "Ġcook": 1439,
      "osed": 1440,
      "Ġbelieve": 1441,
      "Gr": 1442,
      "Susan": 1443,
      "Ang": 1444,
      "Ġtrain": 1445,
      "Ġunderst": 1446,
      "ues": 1447,
      "Ġthose": 1448,
      "Kelly": 1449,
      "ried": 1450,
      "Ġprep": 1451,
      "Ġenough": 1452,
      "ĠLOL": 1453,
      "Ġnumber": 1454,
      "Ġconf": 1455,
      "ney": 1456,
      "Ġgame": 1457,
      "Ġtext": 1458,
      "iv": 1459,
      "ĠSorry": 1460,
      "enny": 1461,
      "Ġeas": 1462,
      "Ġkids": 1463,
      "Ġgl": 1464,
      "Ġeach": 1465,
      "Ġserious": 1466,
      "Ġmust": 1467,
      "Ġready": 1468,
      "icture": 1469,
      "Ġmovie": 1470,
      "Ġfamily": 1471,
      "ither": 1472,
      "erson": 1473,
      "Jan": 1474,
      "ĠOkay": 1475,
      "Ġmess": 1476,
      "ĠLu": 1477,
      "Ġthese": 1478,
      "ĠHello": 1479,
      "Luc": 1480,
      "ib": 1481,
      "Ġpass": 1482,
      "ĠCar": 1483,
      "Ġleast": 1484,
      "ever": 1485,
      "Ġwhile": 1486,
      "Ġdisc": 1487,
      "Ġswe": 1488,
      "mazing": 1489,
      "ky": 1490,
      "Andrew": 1491,
      "Ġhours": 1492,
      "Ġ9": 1493,
      "Ġdress": 1494,
      "Hannah": 1495,
      "hes": 1496,
      "Ġtickets": 1497,
      "Amy": 1498,
      "Barb": 1499,
      "etty": 1500,
      "ents": 1501,
      "Ġexam": 1502,
      "Ġmum": 1503,
      "Gab": 1504,
      "Ġpost": 1505,
      "ĠxD": 1506,
      "ĠXD": 1507,
      "El": 1508,
      "Ġfar": 1509,
      "ison": 1510,
      "uss": 1511,
      "Ed": 1512,
      "side": 1513,
      "Ġcompl": 1514,
      "Ġunderstand": 1515,
      "Ġsick": 1516,
      "Cl": 1517,
      "Ġdad": 1518,
      "ena": 1519,
      "ics": 1520,
      "Ġ:*": 1521,
      "ffee": 1522,
      "Ġeveryone": 1523,
      "Ġdifferent": 1524,
      "Ġmove": 1525,
      "ĠMon": 1526,
      "ole": 1527,
      "rie": 1528,
      "where": 1529,
      "Ġinst": 1530,
      "Ġshit": 1531,
      "Ġadv": 1532,
      "ired": 1533,
      "Karen": 1534,
      "ton": 1535,
      "Ġlunch": 1536,
      "Ġexactly": 1537,
      "ĠRe": 1538,
      "Ġthr": 1539,
      "Ġchange": 1540,
      "Ġcr": 1541,
      "die": 1542,
      "Ġcle": 1543,
      "omas": 1544,
      "ash": 1545,
      "ause": 1546,
      "Ġanyway": 1547,
      "Cla": 1548,
      "ork": 1549,
      "Ash": 1550,
      "ideo": 1551,
      "br": 1552,
      "Ġinf": 1553,
      "Ġwatching": 1554,
      "Ġenjoy": 1555,
      "ricia": 1556,
      "Ġweeks": 1557,
      "Ġmat": 1558,
      "Ġdes": 1559,
      "Kevin": 1560,
      "Ġinter": 1561,
      "uth": 1562,
      "ola": 1563,
      "friend": 1564,
      "ons": 1565,
      "Ġboy": 1566,
      "Ġbeing": 1567,
      "Ġtrue": 1568,
      "scar": 1569,
      "Kat": 1570,
      "Ġdate": 1571,
      "Zoe": 1572,
      "ift": 1573,
      "Ġquest": 1574,
      "aur": 1575,
      "Ġcoffee": 1576,
      "Martin": 1577,
      "Eli": 1578,
      "No": 1579,
      "Jessica": 1580,
      "Ag": 1581,
      "nce": 1582,
      "old": 1583,
      "ual": 1584,
      "Ġhot": 1585,
      "ird": 1586,
      "ling": 1587,
      "Ġless": 1588,
      "bs": 1589,
      "hh": 1590,
      "Ġamazing": 1591,
      "elia": 1592,
      "ank": 1593,
      "mail": 1594,
      "lor": 1595,
      "Ġperson": 1596,
      "Ġ15": 1597,
      "ggest": 1598,
      "Ġown": 1599,
      "ars": 1600,
      "Ġsuggest": 1601,
      "Ian": 1602,
      "Ġpicture": 1603,
      "Jason": 1604,
      "iona": 1605,
      "Ġwhole": 1606,
      "Amanda": 1607,
      "Ġname": 1608,
      "ition": 1609,
      "Ġplans": 1610,
      "fin": 1611,
      "Ġap": 1612,
      "Ġcra": 1613,
      "oooo": 1614,
      "Ġsis": 1615,
      "Ġxx": 1616,
      "Ġshopping": 1617,
      "ical": 1618,
      "Bill": 1619,
      "Rachel": 1620,
      "ette": 1621,
      "icky": 1622,
      "Ġtalking": 1623,
      "wn": 1624,
      "esome": 1625,
      "Nancy": 1626,
      "ret": 1627,
      "Ġbreak": 1628,
      "me": 1629,
      "Tina": 1630,
      "Th": 1631,
      "Ġisn": 1632,
      "fer": 1633,
      "Ġadd": 1634,
      "ĠSp": 1635,
      "Ġused": 1636,
      "Ġconc": 1637,
      "Ġproject": 1638,
      "Eva": 1639,
      "hlo": 1640,
      "most": 1641,
      "oot": 1642,
      "ila": 1643,
      "pris": 1644,
      "Ġcoup": 1645,
      "Ġseems": 1646,
      "May": 1647,
      "Ġreal": 1648,
      "Ġtook": 1649,
      "mer": 1650,
      "Ġmet": 1651,
      "Ġhead": 1652,
      "Anne": 1653,
      "izza": 1654,
      "hed": 1655,
      "Ġgroup": 1656,
      "Liz": 1657,
      "Sim": 1658,
      "ery": 1659,
      "Ġrun": 1660,
      "Ġcalled": 1661,
      "hloe": 1662,
      "Ġsth": 1663,
      "Ġorder": 1664,
      "Jay": 1665,
      "yle": 1666,
      "Ġdep": 1667,
      "Har": 1668,
      "Ġsit": 1669,
      "Ġsince": 1670,
      "ntil": 1671,
      "othy": 1672,
      "ries": 1673,
      "Tony": 1674,
      "Ġnews": 1675,
      "Ġprom": 1676,
      "Ġ:-)": 1677,
      "Eve": 1678,
      "ale": 1679,
      "ox": 1680,
      "Dave": 1681,
      "Ġhol": 1682,
      "Ġonce": 1683,
      "ĠDan": 1684,
      "enn": 1685,
      "Ġwalk": 1686,
      "Ġpoint": 1687,
      "ĠTr": 1688,
      "Ġra": 1689,
      "nday": 1690,
      "Ġpa": 1691,
      "Ġav": 1692,
      "ĠSam": 1693,
      "Ġspend": 1694,
      "Patrick": 1695,
      "Sophie": 1696,
      "Ġopen": 1697,
      "Ġable": 1698,
      "body": 1699,
      "lf": 1700,
      "Ġever": 1701,
      "Ġasked": 1702,
      "Ġmar": 1703,
      "ensive": 1704,
      "Phil": 1705,
      "Ġpresent": 1706,
      "Diana": 1707,
      "Ġass": 1708,
      "ten": 1709,
      "Ġcount": 1710,
      "eph": 1711,
      "Ġthrough": 1712,
      "Ġset": 1713,
      "Ġdog": 1714,
      "Paula": 1715,
      "Ġsurpris": 1716,
      "rs": 1717,
      "Ġhell": 1718,
      "???": 1719,
      "Ġhate": 1720,
      "Ġsw": 1721,
      "lyn": 1722,
      "Ġuntil": 1723,
      "Ġtrying": 1724,
      "Ġtest": 1725,
      "Ġwear": 1726,
      "itely": 1727,
      "Ġwasn": 1728,
      "Ġhand": 1729,
      "Ġwithout": 1730,
      "Gina": 1731,
      "ita": 1732,
      "ĠOf": 1733,
      "Ġfeeling": 1734,
      "Ġmonths": 1735,
      "Ġcouple": 1736,
      "than": 1737,
      "urs": 1738,
      "finitely": 1739,
      "aut": 1740,
      "co": 1741,
      "ull": 1742,
      "Ġalmost": 1743,
      "ĠFran": 1744,
      "ĠEm": 1745,
      "Ġwonder": 1746,
      "Victoria": 1747,
      "Ġprepare": 1748,
      "Sally": 1749,
      "vie": 1750,
      "ye": 1751,
      "Mag": 1752,
      "uel": 1753,
      "vel": 1754,
      "oll": 1755,
      "Ġfav": 1756,
      "Lucas": 1757,
      "de": 1758,
      "ana": 1759,
      "Ġcons": 1760,
      "Patricia": 1761,
      "ok": 1762,
      "Ġter": 1763,
      "Ġspec": 1764,
      "ctor": 1765,
      "Rose": 1766,
      "Ġtaking": 1767,
      "hew": 1768,
      "ĠPaul": 1769,
      "ces": 1770,
      "Ġbed": 1771,
      "Ġlikes": 1772,
      "Ġworks": 1773,
      "Ġanyone": 1774,
      "Ġsupposed": 1775,
      "pl": 1776,
      "Ġflight": 1777,
      "Dor": 1778,
      "Oscar": 1779,
      "gie": 1780,
      "Ġturn": 1781,
      "Ġbeaut": 1782,
      "man": 1783,
      "not": 1784,
      "Ġpizza": 1785,
      "iting": 1786,
      "helle": 1787,
      "Ġexpensive": 1788,
      "Ġwrong": 1789,
      "Tr": 1790,
      "Ġsk": 1791,
      "ĠCool": 1792,
      "Mom": 1793,
      "ott": 1794,
      "Ġimp": 1795,
      "ĠSunday": 1796,
      "ream": 1797,
      "ĠMike": 1798,
      "Ġagree": 1799,
      "Christ": 1800,
      "rat": 1801,
      "Ġwish": 1802,
      "Ġthinks": 1803,
      "Ġgirls": 1804,
      "Liam": 1805,
      "ock": 1806,
      "Ġsays": 1807,
      "Ġorgan": 1808,
      "Ġbaby": 1809,
      "Ġlive": 1810,
      "Terry": 1811,
      "Ġfunny": 1812,
      "Natal": 1813,
      "Isab": 1814,
      "Ġpol": 1815,
      "rible": 1816,
      "Noah": 1817,
      "ĠJack": 1818,
      "Ġcity": 1819,
      "ĠPeter": 1820,
      "Ġwrite": 1821,
      "Sandra": 1822,
      "more": 1823,
      "wen": 1824,
      "yn": 1825,
      "Ġposs": 1826,
      "Joan": 1827,
      "Ġsweet": 1828,
      "ĠMonday": 1829,
      "Lou": 1830,
      "yan": 1831,
      "Ġwine": 1832,
      "ang": 1833,
      "uring": 1834,
      "Ġstarted": 1835,
      "igh": 1836,
      "ifer": 1837,
      "Ġleaving": 1838,
      "Leo": 1839,
      "Ġinteresting": 1840,
      "Ġred": 1841,
      "Brian": 1842,
      "Ġsister": 1843,
      "ps": 1844,
      "iley": 1845,
      "une": 1846,
      "rans": 1847,
      "Fiona": 1848,
      "ene": 1849,
      "Ġ30": 1850,
      "key": 1851,
      "Ġsuper": 1852,
      "den": 1853,
      "Ġur": 1854,
      "ustin": 1855,
      "artment": 1856,
      "hard": 1857,
      "Ġchild": 1858,
      "Thomas": 1859,
      "Betty": 1860,
      "Ġwed": 1861,
      "Ġchar": 1862,
      "ĠMary": 1863,
      "come": 1864,
      "cept": 1865,
      "Charlie": 1866,
      "onald": 1867,
      "ĠAs": 1868,
      "Ġ12": 1869,
      "Ġarrive": 1870,
      "Ġplanning": 1871,
      "Ġfinis": 1872,
      "Ġbeer": 1873,
      "raid": 1874,
      "Ġexpect": 1875,
      "Ġreg": 1876,
      "Ġmyself": 1877,
      "Jon": 1878,
      "Ġtown": 1879,
      "antha": 1880,
      "cks": 1881,
      "Ġmus": 1882,
      "Ġhalf": 1883,
      "ĠAll": 1884,
      "ais": 1885,
      "Ġtired": 1886,
      "Ġgift": 1887,
      "Eric": 1888,
      "uct": 1889,
      "ĠKate": 1890,
      "Rick": 1891,
      "ont": 1892,
      "Ġlost": 1893,
      "indy": 1894,
      "Grace": 1895,
      "Ġstudy": 1896,
      "gry": 1897,
      "Dar": 1898,
      "lot": 1899,
      "Ġya": 1900,
      "ĠEx": 1901,
      "Ġdeal": 1902,
      "Ġcame": 1903,
      "ĠLike": 1904,
      "Ġanymore": 1905,
      "Mad": 1906,
      "Ron": 1907,
      "lin": 1908,
      "Ġcannot": 1909,
      "Ġchang": 1910,
      "Ashley": 1911,
      "Re": 1912,
      "Ġhor": 1913,
      "ĠRob": 1914,
      "uz": 1915,
      "Ġcase": 1916,
      "Ġwouldn": 1917,
      "Ġplaying": 1918,
      "ĠNew": 1919,
      "Ġem": 1920,
      "aret": 1921,
      "Ġafraid": 1922,
      "Ġearly": 1923,
      "Con": 1924,
      "ize": 1925,
      "Chloe": 1926,
      "eak": 1927,
      "iful": 1928,
      "Ġphoto": 1929,
      "Ġdecid": 1930,
      "Cam": 1931,
      "ai": 1932,
      "Ġtrans": 1933,
      "haha": 1934,
      "Ġduring": 1935,
      "Ġinterested": 1936,
      "vent": 1937,
      "Ġwin": 1938,
      "Ric": 1939,
      "ew": 1940,
      "issa": 1941,
      "Ġwedding": 1942,
      "Ġawesome": 1943,
      "aurant": 1944,
      "Ġcouldn": 1945,
      "ĠSte": 1946,
      "Ġemail": 1947,
      "Ġclean": 1948,
      "-)": 1949,
      "Nina": 1950,
      "Ġcost": 1951,
      "ates": 1952,
      "Joseph": 1953,
      "Ġtimes": 1954,
      "Ġonline": 1955,
      "ĠOn": 1956,
      "Jenn": 1957,
      "Ġwar": 1958,
      "Ġtried": 1959,
      "Simon": 1960,
      "ident": 1961,
      "Agnes": 1962,
      "Ġhon": 1963,
      "ĠMart": 1964,
      "Charles": 1965,
      "abeth": 1966,
      "Ġafterno": 1967,
      "Alan": 1968,
      "Ġcold": 1969,
      "ails": 1970,
      "Ġcompany": 1971,
      "William": 1972,
      "urt": 1973,
      "Ġasking": 1974,
      "Ġeasy": 1975,
      "Ġ?": 1976,
      "Ġdri": 1977,
      "ĠSounds": 1978,
      "ĠMark": 1979,
      "Kar": 1980,
      "ead": 1981,
      "Ġtot": 1982,
      "Brad": 1983,
      "Lily": 1984,
      "ently": 1985,
      "ĠPat": 1986,
      "Ġrestaurant": 1987,
      "aisy": 1988,
      "ogan": 1989,
      "Ġdrive": 1990,
      "ote": 1991,
      "Ġdoctor": 1992,
      "igail": 1993,
      "ital": 1994,
      "Ġdefinitely": 1995,
      "Megan": 1996,
      "Barbara": 1997,
      "oor": 1998,
      "orn": 1999,
      "Ġpub": 2000,
      "osp": 2001,
      "Ġafternoon": 2002,
      "az": 2003,
      "Ġmother": 2004,
      "ider": 2005,
      "Ted": 2006,
      "Ġsong": 2007,
      "oose": 2008,
      "van": 2009,
      "Ġbeautiful": 2010,
      "Claire": 2011,
      "ursday": 2012,
      "ins": 2013,
      "Ġwow": 2014,
      "Ġmed": 2015,
      "Ġgi": 2016,
      "ĠWow": 2017,
      "Marg": 2018,
      "Ġclasses": 2019,
      "Ġbroke": 2020,
      "fort": 2021,
      "Ġsmall": 2022,
      "ĠWho": 2023,
      "Ġconcert": 2024,
      "Ġyourself": 2025,
      "ĠPlease": 2026,
      "ĠFor": 2027,
      "Ġforget": 2028,
      "ump": 2029,
      "Wend": 2030,
      "land": 2031,
      "Ġsn": 2032,
      "Caroline": 2033,
      "Pam": 2034,
      "Ġair": 2035,
      "Carl": 2036,
      "oke": 2037,
      "rend": 2038,
      "ĠAd": 2039,
      "osh": 2040,
      "ĠMay": 2041,
      "Ġliked": 2042,
      "Meg": 2043,
      "He": 2044,
      "ple": 2045,
      "vor": 2046,
      "Ġbas": 2047,
      "Ġhair": 2048,
      "ĠBe": 2049,
      "Ġbrother": 2050,
      "Ġcontact": 2051,
      "ĠReally": 2052,
      "Ġent": 2053,
      "Ġboss": 2054,
      "Ġmaking": 2055,
      "Ġfil": 2056,
      "Ġfinish": 2057,
      "Ġlisten": 2058,
      "oice": 2059,
      "Ġmine": 2060,
      "Ġlear": 2061,
      "rop": 2062,
      "ĠOM": 2063,
      "ĠCh": 2064,
      "Ġkey": 2065,
      "Ġimport": 2066,
      "Ġsecond": 2067,
      "Er": 2068,
      "Ġteac": 2069,
      "Ġ...": 2070,
      "Ġbu": 2071,
      "Ġpain": 2072,
      "ĠNow": 2073,
      "Ġalone": 2074,
      "ym": 2075,
      "Ġac": 2076,
      "Ġsl": 2077,
      "ese": 2078,
      "ailable": 2079,
      "Ġcrazy": 2080,
      "Mat": 2081,
      "Sean": 2082,
      "iness": 2083,
      "Ġhigh": 2084,
      "Stan": 2085,
      "ĠOMG": 2086,
      "ĠOr": 2087,
      "ĠCould": 2088,
      "Pete": 2089,
      "Ġtill": 2090,
      "Ġquestion": 2091,
      "Ġimportant": 2092,
      "med": 2093,
      "sw": 2094,
      "ĠWed": 2095,
      "Wendy": 2096,
      "Ġcha": 2097,
      "Ġdet": 2098,
      "inema": 2099,
      "Ġweather": 2100,
      "rab": 2101,
      "Samantha": 2102,
      "Ġfinally": 2103,
      "Ryan": 2104,
      "ĠAt": 2105,
      "als": 2106,
      "Ġret": 2107,
      "Ġatt": 2108,
      "Ġann": 2109,
      "ately": 2110,
      "rist": 2111,
      "Ġflat": 2112,
      "Ġinform": 2113,
      "Donna": 2114,
      "Jerry": 2115,
      "Nic": 2116,
      "ced": 2117,
      "ĠAlex": 2118,
      "olog": 2119,
      "ored": 2120,
      "Ġteam": 2121,
      "ci": 2122,
      "aron": 2123,
      "Ġeither": 2124,
      "amie": 2125,
      "Ġext": 2126,
      "Ġcoll": 2127,
      "Abigail": 2128,
      "Natalie": 2129,
      "lotte": 2130,
      "range": 2131,
      "oes": 2132,
      "Ġve": 2133,
      "reen": 2134,
      "ved": 2135,
      "ĠYep": 2136,
      "Ġhasn": 2137,
      "ĠðŁĺĤ": 2138,
      "Amelia": 2139,
      "ele": 2140,
      "Ġborrow": 2141,
      "ors": 2142,
      "ett": 2143,
      "its": 2144,
      "Ġins": 2145,
      "ĠSara": 2146,
      "ular": 2147,
      "ĠJul": 2148,
      "nesday": 2149,
      "Jill": 2150,
      "Ġcard": 2151,
      "resa": 2152,
      "Julie": 2153,
      "Maya": 2154,
      "Ġavailable": 2155,
      "Jennifer": 2156,
      "Ġ'": 2157,
      "ĠAm": 2158,
      "Ġoutside": 2159,
      "Tracy": 2160,
      "Ġdecided": 2161,
      "Ġsumm": 2162,
      "unk": 2163,
      "Ġglad": 2164,
      "Ava": 2165,
      "ouch": 2166,
      "Ġmate": 2167,
      "ern": 2168,
      "Ġones": 2169,
      "Ruth": 2170,
      "uri": 2171,
      "Ġdiscuss": 2172,
      "Ġsim": 2173,
      "Ġgave": 2174,
      "ence": 2175,
      "ĠBen": 2176,
      "Ġsub": 2177,
      "Ġworries": 2178,
      "ĠGr": 2179,
      "Ġspecial": 2180,
      "Ethan": 2181,
      "ans": 2182,
      "Ġsomewhere": 2183,
      "Ġmoment": 2184,
      "view": 2185,
      "Ġmusic": 2186,
      "gn": 2187,
      "pid": 2188,
      "oring": 2189,
      "Ġcol": 2190,
      "Ġdear": 2191,
      "Ġhu": 2192,
      "ention": 2193,
      "Ġproblems": 2194,
      "work": 2195,
      "reet": 2196,
      "Ver": 2197,
      "ings": 2198,
      "Ġcinema": 2199,
      "ooo": 2200,
      "tend": 2201,
      "Ġtalked": 2202,
      "ĠThursday": 2203,
      "ĠAnna": 2204,
      "Nathan": 2205,
      "Ġpossible": 2206,
      "cel": 2207,
      "min": 2208,
      "leas": 2209,
      "Ġnear": 2210,
      "Ġseason": 2211,
      "mag": 2212,
      "Oliver": 2213,
      "eas": 2214,
      "Ġopt": 2215,
      "amn": 2216,
      "Michelle": 2217,
      "Ġthats": 2218,
      "Dorothy": 2219,
      "Don": 2220,
      "ayla": 2221,
      "ĠKe": 2222,
      "Ġstupid": 2223,
      "HA": 2224,
      "lish": 2225,
      "Ġrep": 2226,
      "Ġfront": 2227,
      "uesday": 2228,
      "Ġpack": 2229,
      "ared": 2230,
      "ife": 2231,
      "Ġlovely": 2232,
      "ĠWednesday": 2233,
      "Logan": 2234,
      "ially": 2235,
      "yd": 2236,
      "Ġansw": 2237,
      "ĠBl": 2238,
      "elle": 2239,
      "ðŁĺĤ": 2240,
      "Ġhotel": 2241,
      "ĠHope": 2242,
      "ĠMic": 2243,
      "ĠEng": 2244,
      "vious": 2245,
      "ĠIm": 2246,
      "Ġoffer": 2247,
      "Ġprefer": 2248,
      "ages": 2249,
      "aure": 2250,
      "Ġcute": 2251,
      "Ġinc": 2252,
      "ush": 2253,
      "Ġworld": 2254,
      "Ġart": 2255,
      "ĠAr": 2256,
      "Ella": 2257,
      "ience": 2258,
      "Margaret": 2259,
      "Beth": 2260,
      "ka": 2261,
      "ming": 2262,
      "Ġwom": 2263,
      "Ġuni": 2264,
      "Ġinstead": 2265,
      "Lilly": 2266,
      "Ġbooks": 2267,
      "ense": 2268,
      "Ġknows": 2269,
      "bert": 2270,
      "Ġphot": 2271,
      "Ġgrand": 2272,
      "uce": 2273,
      "Ġpop": 2274,
      "Ġpark": 2275,
      "Ġstation": 2276,
      "ĠThen": 2277,
      "Richard": 2278,
      "Kyle": 2279,
      "ĠTo": 2280,
      "ira": 2281,
      "uby": 2282,
      "Andre": 2283,
      "Angela": 2284,
      "Maggie": 2285,
      "Jud": 2286,
      "Ġbo": 2287,
      "ĠHmm": 2288,
      "ĠPol": 2289,
      "Ġ11": 2290,
      "ĠShould": 2291,
      "ised": 2292,
      "Ġagre": 2293,
      "Ġclose": 2294,
      "ĠWhich": 2295,
      "Ġsing": 2296,
      "Ġmakes": 2297,
      "Ġkill": 2298,
      "ecky": 2299,
      "yler": 2300,
      "Ġcause": 2301,
      "ĠTuesday": 2302,
      "Ġrather": 2303,
      "eremy": 2304,
      "Ġstand": 2305,
      "ĠPer": 2306,
      "Ġspeak": 2307,
      "Ġrecently": 2308,
      "Ġphotos": 2309,
      "asha": 2310,
      "ĠWould": 2311,
      "ters": 2312,
      "lier": 2313,
      "Ġvideo": 2314,
      "Ġaccount": 2315,
      "Ġapartment": 2316,
      "Molly": 2317,
      "Ġstr": 2318,
      "ĠBye": 2319,
      "Ġgets": 2320,
      "ĠEvery": 2321,
      "ode": 2322,
      "Ġchoose": 2323,
      "Ġfinished": 2324,
      "Ġill": 2325,
      "Ġdude": 2326,
      "uu": 2327,
      "llie": 2328,
      "aylor": 2329,
      "Marie": 2330,
      "Ġwater": 2331,
      "Ġdead": 2332,
      "aught": 2333,
      "ĠZ": 2334,
      "Ġmid": 2335,
      "ically": 2336,
      "Ġcheap": 2337,
      "Ġtotally": 2338,
      "Ġsummer": 2339,
      "ga": 2340,
      "Ġsort": 2341,
      "go": 2342,
      "Ġsal": 2343,
      "Ġimag": 2344,
      "Ġgames": 2345,
      "icult": 2346,
      "Ġreason": 2347,
      "Ġbuying": 2348,
      "ww": 2349,
      "Ġmo": 2350,
      "Ġweird": 2351,
      "Ġworried": 2352,
      "Ġxd": 2353,
      "Ros": 2354,
      "Suz": 2355,
      "Ġexpl": 2356,
      "ĠðŁĻ": 2357,
      "Ġteacher": 2358,
      "Daisy": 2359,
      "Larry": 2360,
      "cis": 2361,
      "ices": 2362,
      "Ġhun": 2363,
      "Jackie": 2364,
      "Ġhonest": 2365,
      "ied": 2366,
      "Ġâ": 2367,
      "Ġbar": 2368,
      "athan": 2369,
      "Charlotte": 2370,
      "Ġinvited": 2371,
      "Ġdetails": 2372,
      "DD": 2373,
      "lling": 2374,
      "Ġshort": 2375,
      "inds": 2376,
      "Caron": 2377,
      "Ġideas": 2378,
      "ressed": 2379,
      "Jimmy": 2380,
      "renda": 2381,
      "fu": 2382,
      "rect": 2383,
      "erv": 2384,
      "Ġhosp": 2385,
      "Ġexper": 2386,
      "Ġcomm": 2387,
      "Ġblack": 2388,
      "Ġearlier": 2389,
      "Ġfix": 2390,
      "room": 2391,
      "Ġsaying": 2392,
      "She": 2393,
      "gr": 2394,
      "Ġdifficult": 2395,
      "Ġstore": 2396,
      "Ġalright": 2397,
      "Ġgotta": 2398,
      "Ġlonger": 2399,
      "ylan": 2400,
      "ighb": 2401,
      "book": 2402,
      "amp": 2403,
      "Ġdrunk": 2404,
      "Ġcatch": 2405,
      "Ġwel": 2406,
      "Ġrequ": 2407,
      "ĠJan": 2408,
      "ĠLook": 2409,
      "Ġclub": 2410,
      "Ġpictures": 2411,
      "int": 2412,
      "Ġgym": 2413,
      "Ġmanag": 2414,
      "less": 2415,
      "Ġneighb": 2416,
      "Marc": 2417,
      "apt": 2418,
      "irt": 2419,
      "ĠRight": 2420,
      "Ġwatched": 2421,
      "atherine": 2422,
      "Ellie": 2423,
      "iot": 2424,
      "ĠChar": 2425,
      "Joanna": 2426,
      "ĠðŁ¤": 2427,
      "net": 2428,
      "revor": 2429,
      "Ġgen": 2430,
      "omin": 2431,
      "Ġbusiness": 2432,
      "Ġhospital": 2433,
      "Aaron": 2434,
      "Ken": 2435,
      "iff": 2436,
      "itche": 2437,
      "Ġclot": 2438,
      "ween": 2439,
      "Jas": 2440,
      "Ġet": 2441,
      "anc": 2442,
      "Ġhoney": 2443,
      "ĠUn": 2444,
      "Ġresp": 2445,
      "Ġsuggests": 2446,
      "Ġfavour": 2447,
      "ĠNice": 2448,
      "ĠPro": 2449,
      "Patty": 2450,
      "ondon": 2451,
      "ĠEnglish": 2452,
      "video": 2453,
      "Ġhang": 2454,
      "Ġrece": 2455,
      "ĠExactly": 2456,
      "Ġanswer": 2457,
      "ner": 2458,
      "Ġsad": 2459,
      "Ġtop": 2460,
      "Ġfact": 2461,
      "itch": 2462,
      "Ġgoes": 2463,
      "Ġboyfriend": 2464,
      "Jeremy": 2465,
      "Ġes": 2466,
      "ĠOli": 2467,
      "Ġsafe": 2468,
      "ebec": 2469,
      "Ġexcited": 2470,
      "Jean": 2471,
      "mber": 2472,
      "uro": 2473,
      "ĠLe": 2474,
      "ĠLondon": 2475,
      "oby": 2476,
      "astic": 2477,
      "Ġprof": 2478,
      "Ġcele": 2479,
      "erek": 2480,
      "Ġlau": 2481,
      "Ruby": 2482,
      "cott": 2483,
      "ori": 2484,
      "Ġpast": 2485,
      "Ġthree": 2486,
      "ĠMatt": 2487,
      "udrey": 2488,
      "airs": 2489,
      "Ġholiday": 2490,
      "Ġlearn": 2491,
      "Ġwelcome": 2492,
      "iet": 2493,
      "Ġmain": 2494,
      "ĠTim": 2495,
      "iles": 2496,
      "ĠJim": 2497,
      "Ġcomes": 2498,
      "lix": 2499,
      "Ġsometimes": 2500,
      "Ġstaying": 2501,
      "Ġgirlfriend": 2502,
      "Ġmissed": 2503,
      "ika": 2504,
      "Ġangry": 2505,
      "pec": 2506,
      "ss": 2507,
      "ĠQ": 2508,
      "Ġthx": 2509,
      "ĠWanna": 2510,
      "alph": 2511,
      "ĠChe": 2512,
      "ĠLove": 2513,
      "erence": 2514,
      "Ġdecide": 2515,
      "Bart": 2516,
      "Jamie": 2517,
      "Ġhmm": 2518,
      "Ġchance": 2519,
      "Annie": 2520,
      "Ġseries": 2521,
      "Ġchildren": 2522,
      "Dam": 2523,
      "Gary": 2524,
      "onia": 2525,
      "Ġfly": 2526,
      "Ġcant": 2527,
      "ĠNope": 2528,
      "ppy": 2529,
      "ĠGod": 2530,
      "Ġusual": 2531,
      "Ġetc": 2532,
      "Ġcelebr": 2533,
      "ball": 2534,
      "jam": 2535,
      "ule": 2536,
      "rent": 2537,
      "Ġland": 2538,
      "Ġforward": 2539,
      "ĠJane": 2540,
      "Ġbetween": 2541,
      "ĠðŁĳ": 2542,
      "Ġinvit": 2543,
      "Ġxxx": 2544,
      "ĠFrank": 2545,
      "oud": 2546,
      "Ġsign": 2547,
      "Ġknew": 2548,
      "ĠGot": 2549,
      "Ġseeing": 2550,
      "Ġfeels": 2551,
      "Ġprice": 2552,
      "Melissa": 2553,
      "Ġcomplete": 2554,
      "pecially": 2555,
      "Cha": 2556,
      "Ġcop": 2557,
      "aris": 2558,
      "Ġrent": 2559,
      "Ġdoor": 2560,
      "ĠMr": 2561,
      "Syl": 2562,
      "sy": 2563,
      "ï¼": 2564,
      "ower": 2565,
      "Ġref": 2566,
      "Ġrel": 2567,
      "ĠDavid": 2568,
      "Becky": 2569,
      "Ġty": 2570,
      "Ġep": 2571,
      "ĠJess": 2572,
      "olute": 2573,
      "ĠAnyway": 2574,
      "Ġbott": 2575,
      "Holly": 2576,
      "Ġsound": 2577,
      "ĠCome": 2578,
      "Ġmessage": 2579,
      "Ġconsider": 2580,
      "lic": 2581,
      "yy": 2582,
      "Ġele": 2583,
      "ĠJames": 2584,
      "Ġmanage": 2585,
      "ĠðŁĺĬ": 2586,
      "ĠHahaha": 2587,
      "Vicky": 2588,
      "men": 2589,
      "erg": 2590,
      "Ġdrinks": 2591,
      "Ġseriously": 2592,
      "Nicole": 2593,
      "uation": 2594,
      "ze": 2595,
      "Ġboring": 2596,
      "Ġcent": 2597,
      "idays": 2598,
      "roy": 2599,
      "Ġabs": 2600,
      "Ġquick": 2601,
      "Ġinvite": 2602,
      "ointment": 2603,
      "Ġpaid": 2604,
      "ugh": 2605,
      "Ġbored": 2606,
      "Ġcake": 2607,
      "ities": 2608,
      "aces": 2609,
      "alth": 2610,
      "ffic": 2611,
      "Ġimagine": 2612,
      "Ġhop": 2613,
      "acebook": 2614,
      "Ġshare": 2615,
      "duct": 2616,
      "ship": 2617,
      "Brenda": 2618,
      "Taylor": 2619,
      "aly": 2620,
      "ï¸": 2621,
      "Ġcur": 2622,
      "Ġevent": 2623,
      "Ġreading": 2624,
      "Veronica": 2625,
      "Val": 2626,
      "ones": 2627,
      "Ġpleas": 2628,
      "Ġnotes": 2629,
      "Ġworth": 2630,
      "fully": 2631,
      "Dad": 2632,
      "flix": 2633,
      "Ġaff": 2634,
      "ĠAf": 2635,
      "Ġwhatever": 2636,
      "ĠAnn": 2637,
      "Ġrunning": 2638,
      "Ġclothes": 2639,
      "ebecca": 2640,
      "Cindy": 2641,
      "Ġtouch": 2642,
      "etflix": 2643,
      "Ġworse": 2644,
      "Amber": 2645,
      "Ġkidding": 2646,
      "Deb": 2647,
      "Lee": 2648,
      "idge": 2649,
      "iranda": 2650,
      "Ġ;-)": 2651,
      "Ġchick": 2652,
      "Ġappointment": 2653,
      "Owen": 2654,
      "Ġmad": 2655,
      "Ġdou": 2656,
      "ĠDad": 2657,
      "essa": 2658,
      "ebast": 2659,
      "Ġaccident": 2660,
      "Ġmarried": 2661,
      "led": 2662,
      "ĠAb": 2663,
      "ĠYour": 2664,
      "ĠMom": 2665,
      "ilda": 2666,
      "com": 2667,
      "ya": 2668,
      "Ġob": 2669,
      "Matthew": 2670,
      "Ġblue": 2671,
      "Ġadvice": 2672,
      "ï¸ı": 2673,
      "Ġom": 2674,
      "Ġyep": 2675,
      "Ġfull": 2676,
      "ĠNothing": 2677,
      "cle": 2678,
      "Ġpoor": 2679,
      "Ġlink": 2680,
      "ĠSome": 2681,
      "wards": 2682,
      "Ġdriving": 2683,
      "Bl": 2684,
      "Ġtable": 2685,
      "ĠLol": 2686,
      "haron": 2687,
      "Danny": 2688,
      "ĠTrue": 2689,
      "Che": 2690,
      "Ra": 2691,
      "lla": 2692,
      "Ġyoung": 2693,
      "illa": 2694,
      "ĠAg": 2695,
      "ecture": 2696,
      "aken": 2697,
      "Ġothers": 2698,
      "Ġbooked": 2699,
      "Ġrecommends": 2700,
      "Ġcomplain": 2701,
      "ĠPerfect": 2702,
      "June": 2703,
      "Ġside": 2704,
      "ham": 2705,
      "anie": 2706,
      "ĠDe": 2707,
      "ches": 2708,
      "Ġsurprise": 2709,
      "Ray": 2710,
      "Ġgrab": 2711,
      "Ġint": 2712,
      "Step": 2713,
      "Sophia": 2714,
      "Andrea": 2715,
      "ii": 2716,
      "zabeth": 2717,
      "Ġpri": 2718,
      "ĠTV": 2719,
      "Ġasks": 2720,
      "ĠPh": 2721,
      "Ġusually": 2722,
      "Ġrid": 2723,
      "Ġfucking": 2724,
      "Ġcountry": 2725,
      "Ġchanged": 2726,
      "Ġexplain": 2727,
      "ebastian": 2728,
      "Ana": 2729,
      "Dylan": 2730,
      "gar": 2731,
      "Ġwife": 2732,
      "Ġmention": 2733,
      "Ġdrop": 2734,
      "Ġgone": 2735,
      "Ġiss": 2736,
      "ĠTell": 2737,
      "Tommy": 2738,
      "Ġchoice": 2739,
      "Kimber": 2740,
      "Ġmovies": 2741,
      "Ġconfir": 2742,
      "olutely": 2743,
      "Audrey": 2744,
      "Ġfather": 2745,
      "Ġloc": 2746,
      "Ġstuck": 2747,
      "ĠMor": 2748,
      "Ġsends": 2749,
      "Fel": 2750,
      "gin": 2751,
      "vis": 2752,
      "Ġbag": 2753,
      "ĠHarry": 2754,
      "ĠMel": 2755,
      "ĠJosh": 2756,
      "rown": 2757,
      "Ġlooked": 2758,
      "ĠVery": 2759,
      "oves": 2760,
      "Ġholidays": 2761,
      "Ġrain": 2762,
      "ĠAdam": 2763,
      "itchen": 2764,
      "Kris": 2765,
      "Ralph": 2766,
      "bie": 2767,
      "da": 2768,
      "ract": 2769,
      "aster": 2770,
      "Ġairport": 2771,
      "gle": 2772,
      "uly": 2773,
      "vy": 2774,
      "Ġshoes": 2775,
      "thony": 2776,
      "unately": 2777,
      "Ġappre": 2778,
      "........": 2779,
      "Ġdra": 2780,
      "udia": 2781,
      "Ġreceive": 2782,
      "ru": 2783,
      "Ġson": 2784,
      "ĠAct": 2785,
      "Ġkinda": 2786,
      "Ġattend": 2787,
      "ĠOne": 2788,
      "iane": 2789,
      "eorg": 2790,
      "Ġmoved": 2791,
      "Ġepis": 2792,
      "Ġcut": 2793,
      "Ġpie": 2794,
      "Ġkitchen": 2795,
      "Ġgod": 2796,
      "obody": 2797,
      "ĠEve": 2798,
      "ments": 2799,
      "Ġblood": 2800,
      "OO": 2801,
      "Trevor": 2802,
      "mith": 2803,
      "Ġlapt": 2804,
      "ises": 2805,
      "ĠTake": 2806,
      "alm": 2807,
      "ĠGo": 2808,
      "Ġleg": 2809,
      "Ġomg": 2810,
      "Ġlaptop": 2811,
      "Evan": 2812,
      "riel": 2813,
      "Ġloves": 2814,
      "ander": 2815,
      "ĠDoes": 2816,
      "Ġwriting": 2817,
      "Ġhorrible": 2818,
      "Ġsnow": 2819,
      "Bella": 2820,
      "fast": 2821,
      "ja": 2822,
      "mine": 2823,
      "time": 2824,
      "ril": 2825,
      "Ġ50": 2826,
      "isapp": 2827,
      "oger": 2828,
      "Clara": 2829,
      "Ġreturn": 2830,
      "Ġextra": 2831,
      "auren": 2832,
      "Ġrequest": 2833,
      "Ġappreci": 2834,
      ":)": 2835,
      "Justin": 2836,
      "ness": 2837,
      "rene": 2838,
      "Ġcli": 2839,
      "Ġdue": 2840,
      "Ġlo": 2841,
      "Ġnorm": 2842,
      "ilia": 2843,
      "Ġword": 2844,
      "uba": 2845,
      "Ġtraffic": 2846,
      "Ġmatter": 2847,
      "Ġmatch": 2848,
      "Mr": 2849,
      "Ne": 2850,
      "Ġfore": 2851,
      "arling": 2852,
      "ĠJake": 2853,
      "ĠEmma": 2854,
      "Ġterrible": 2855,
      "jamin": 2856,
      "Sylvia": 2857,
      "ua": 2858,
      "Ġca": 2859,
      "ille": 2860,
      "Ġreport": 2861,
      "acey": 2862,
      "eeee": 2863,
      "Bobby": 2864,
      "Louise": 2865,
      "Ġmoving": 2866,
      "Mandy": 2867,
      "Rebecca": 2868,
      "iol": 2869,
      "Ġsched": 2870,
      "Ġdisapp": 2871,
      "Ġpos": 2872,
      "Ġhealth": 2873,
      "Ġsex": 2874,
      "Ġwhite": 2875,
      "pped": 2876,
      "Ġbye": 2877,
      "Ġchecked": 2878,
      "Ġfavourite": 2879,
      "ES": 2880,
      "Ġfast": 2881,
      "icia": 2882,
      "ills": 2883,
      "ĠGer": 2884,
      "Ġwondering": 2885,
      "Ġwinter": 2886,
      "ĠSarah": 2887,
      "Scott": 2888,
      "Ġlit": 2889,
      "ads": 2890,
      "eline": 2891,
      "Ġaren": 2892,
      "Ġalong": 2893,
      "ĠPM": 2894,
      "Ġseem": 2895,
      "Ġminute": 2896,
      "Ġticket": 2897,
      "Ġcollect": 2898,
      "Derek": 2899,
      "Lena": 2900,
      "OU": 2901,
      "Wal": 2902,
      "Ġmil": 2903,
      "Ġstory": 2904,
      "Isabella": 2905,
      "cri": 2906,
      "Ġtaken": 2907,
      "Ġmark": 2908,
      "arch": 2909,
      "ĠYear": 2910,
      "Ġyours": 2911,
      "Ġvac": 2912,
      "Samuel": 2913,
      "Ġ100": 2914,
      "Steven": 2915,
      "arently": 2916,
      "Ġconference": 2917,
      "Ġaddress": 2918,
      "ydia": 2919,
      "ĠActually": 2920,
      "Ġlots": 2921,
      "Adrian": 2922,
      "Ġrecip": 2923,
      "ĠStill": 2924,
      "ordan": 2925,
      "Ġsupport": 2926,
      "Ġopin": 2927,
      "Ġquestions": 2928,
      "Ġsituation": 2929,
      "Ġhuge": 2930,
      "py": 2931,
      "Ġwall": 2932,
      "Ġwebs": 2933,
      "ĠWas": 2934,
      "Ellen": 2935,
      "ults": 2936,
      "Katie": 2937,
      "loria": 2938,
      "Ġpaper": 2939,
      "Ġpresentation": 2940,
      "Stanley": 2941,
      "Kimberly": 2942,
      "ata": 2943,
      "ĠMan": 2944,
      "ĠBec": 2945,
      "Ġshouldn": 2946,
      "Ġhomework": 2947,
      "ĠJoe": 2948,
      "Lola": 2949,
      "Toby": 2950,
      "inc": 2951,
      "ĠJeff": 2952,
      "urry": 2953,
      "ĠAndy": 2954,
      "avier": 2955,
      "Elizabeth": 2956,
      "Ġfilm": 2957,
      "Ġaccept": 2958,
      "Ġprofess": 2959,
      "Miranda": 2960,
      "Ġcor": 2961,
      "Ġchat": 2962,
      "alian": 2963,
      "Ġcanc": 2964,
      "Ġplaces": 2965,
      "ends": 2966,
      "Blake": 2967,
      "**": 2968,
      "Ari": 2969,
      "Leah": 2970,
      "Ġbath": 2971,
      "orge": 2972,
      "ĠWait": 2973,
      "Janet": 2974,
      "ollow": 2975,
      "Hugh": 2976,
      "Mason": 2977,
      "bt": 2978,
      "ls": 2979,
      "ooke": 2980,
      "ĠSha": 2981,
      "Ġsuit": 2982,
      "ĠDec": 2983,
      "thur": 2984,
      "ume": 2985,
      "que": 2986,
      "load": 2987,
      "Ġtrave": 2988,
      "Ġlately": 2989,
      "Ġinterview": 2990,
      "ther": 2991,
      "Ġfoot": 2992,
      "Ġdream": 2993,
      "uter": 2994,
      "els": 2995,
      "Ġproper": 2996,
      "Ġmeans": 2997,
      "versity": 2998,
      "ĠPoland": 2999,
      "Ali": 3000,
      "Lia": 3001,
      "Mum": 3002,
      "Shan": 3003,
      "wise": 3004,
      "Ġfan": 3005,
      "Ġlecture": 3006,
      "Ġspent": 3007,
      "Ġbabe": 3008,
      "Ġcross": 3009,
      "Ġbreakfast": 3010,
      "Fl": 3011,
      "IN": 3012,
      "Rory": 3013,
      "form": 3014,
      "ned": 3015,
      "omi": 3016,
      "stairs": 3017,
      "Ġups": 3018,
      "ific": 3019,
      "Ġhahah": 3020,
      "Ġsending": 3021,
      "Ġcooking": 3022,
      "Domin": 3023,
      "Ol": 3024,
      "Ola": 3025,
      "Sid": 3026,
      "ken": 3027,
      "tw": 3028,
      "ying": 3029,
      "Ġtreat": 3030,
      "ĠMonica": 3031,
      "antastic": 3032,
      "ĠHere": 3033,
      "ĠFred": 3034,
      "ĠEd": 3035,
      "ĠKim": 3036,
      "Ġpract": 3037,
      "lock": 3038,
      "Gabrie": 3039,
      "Ġhello": 3040,
      "fortunately": 3041,
      "Be": 3042,
      "Bry": 3043,
      "Finn": 3044,
      "ler": 3045,
      "nor": 3046,
      "Ġsense": 3047,
      "haps": 3048,
      "Ġbud": 3049,
      "ots": 3050,
      "Ġsun": 3051,
      "ĠJenny": 3052,
      "Pauline": 3053,
      "Jessie": 3054,
      "Ġbuild": 3055,
      "Ġgener": 3056,
      "Ġtast": 3057,
      "Ġhit": 3058,
      "Ġlibr": 3059,
      "Ġneeded": 3060,
      "lax": 3061,
      "Ġcomputer": 3062,
      "rench": 3063,
      "ĠLucy": 3064,
      "ĠAfter": 3065,
      "Rod": 3066,
      "Ġtakes": 3067,
      "Ġwind": 3068,
      "ories": 3069,
      "Ġfight": 3070,
      "owe": 3071,
      "used": 3072,
      "Ġthrow": 3073,
      "ĠWith": 3074,
      "ĠWars": 3075,
      "Ġrelax": 3076,
      "ĠAw": 3077,
      "ĠYea": 3078,
      "Ġconvin": 3079,
      "Isla": 3080,
      "rett": 3081,
      "Ġkeys": 3082,
      "alia": 3083,
      "Ġdoc": 3084,
      "ĠBill": 3085,
      "ĠJac": 3086,
      "unno": 3087,
      "ĠFine": 3088,
      "Ġusing": 3089,
      "Theo": 3090,
      "Ġswim": 3091,
      "Ġstudying": 3092,
      "indsay": 3093,
      "Sebastian": 3094,
      "rid": 3095,
      "Ġbank": 3096,
      "ĠSomet": 3097,
      "ĠNetflix": 3098,
      "Ġtrust": 3099,
      "Ġsurprised": 3100,
      "ratul": 3101,
      "Donald": 3102,
      "Sh": 3103,
      "Ġdarling": 3104,
      "Ġbeha": 3105,
      "Ġform": 3106,
      "ides": 3107,
      "ĠHer": 3108,
      "ĠNat": 3109,
      "ula": 3110,
      "Anthony": 3111,
      "emma": 3112,
      "Ġpartic": 3113,
      "ording": 3114,
      "nold": 3115,
      "Edward": 3116,
      "Ġarrived": 3117,
      "Nora": 3118,
      "ald": 3119,
      "ugg": 3120,
      "Ġmod": 3121,
      "Ġfollow": 3122,
      "Ġpics": 3123,
      "ĠMum": 3124,
      "Ġcong": 3125,
      "ips": 3126,
      "Ġhappens": 3127,
      "Ġwebsite": 3128,
      "Ġlibrary": 3129,
      "Aid": 3130,
      "Diane": 3131,
      "Ger": 3132,
      "Ġsy": 3133,
      "Ġmist": 3134,
      "Ġfre": 3135,
      "ĠAmy": 3136,
      "Ġneither": 3137,
      "ĠGeorge": 3138,
      "Ġarg": 3139,
      "Ġstarts": 3140,
      "Ġremind": 3141,
      "Ġneighbour": 3142,
      "Mor": 3143,
      "Mona": 3144,
      "Ross": 3145,
      "rad": 3146,
      "Ġhist": 3147,
      "Carrie": 3148,
      "Julian": 3149,
      "\".": 3150,
      "eal": 3151,
      "over": 3152,
      "ped": 3153,
      "Ġoften": 3154,
      "ists": 3155,
      "ertain": 3156,
      "Francis": 3157,
      "Ġtravel": 3158,
      "Ġpromise": 3159,
      "Dean": 3160,
      "Gloria": 3161,
      "Sha": 3162,
      "Tyler": 3163,
      "Ġflo": 3164,
      "ĠHis": 3165,
      "Ġstra": 3166,
      "ĠGreg": 3167,
      "Joy": 3168,
      "Ġfinds": 3169,
      "Benjamin": 3170,
      "ĠMartha": 3171,
      "Heather": 3172,
      "Ġmilk": 3173,
      "athy": 3174,
      "ĠGuy": 3175,
      "ĠParis": 3176,
      "Ġdrinking": 3177,
      "Ġdeli": 3178,
      "Ġcompletely": 3179,
      "ĠBecause": 3180,
      "Lauren": 3181,
      "Polly": 3182,
      "Roger": 3183,
      "Sandy": 3184,
      "Te": 3185,
      "pril": 3186,
      "ĠInd": 3187,
      "Ġpar": 3188,
      "Ġinside": 3189,
      "Ġinde": 3190,
      "ĠAh": 3191,
      "hanie": 3192,
      "ĠCl": 3193,
      "ĠGl": 3194,
      "Robin": 3195,
      "Leon": 3196,
      "dered": 3197,
      "Ġannoy": 3198,
      "Ġespecially": 3199,
      "Ġchicken": 3200,
      "Barry": 3201,
      "De": 3202,
      "ron": 3203,
      "Ġfig": 3204,
      "Ġdamn": 3205,
      "Ġpot": 3206,
      "ĠSoph": 3207,
      "Ġstreet": 3208,
      "ilar": 3209,
      "andon": 3210,
      "Ġproduct": 3211,
      "Ġ19": 3212,
      "Arthur": 3213,
      "Ġwoman": 3214,
      "Ġboard": 3215,
      "Ġelect": 3216,
      "Ġnormal": 3217,
      "Walter": 3218,
      "Zack": 3219,
      "Ġpat": 3220,
      "Ġla": 3221,
      "ants": 3222,
      "Ġserv": 3223,
      "Ġlucky": 3224,
      "Ġappreciate": 3225,
      "Ġindeed": 3226,
      "Den": 3227,
      "Tam": 3228,
      "Ġtea": 3229,
      "aring": 3230,
      "asia": 3231,
      "idi": 3232,
      "unt": 3233,
      "ĠItaly": 3234,
      "Ġsave": 3235,
      "Ġloved": 3236,
      "Ġmins": 3237,
      "ĠDaniel": 3238,
      "ennis": 3239,
      "Ġpolit": 3240,
      "Ġafford": 3241,
      "Georg": 3242,
      "Ġwis": 3243,
      "Ġband": 3244,
      "ann": 3245,
      "Ġfit": 3246,
      "Ġface": 3247,
      "ĠMax": 3248,
      "ĠFacebook": 3249,
      "rance": 3250,
      "ĠMaria": 3251,
      "oebe": 3252,
      "Erin": 3253,
      "ĠWarsaw": 3254,
      "Irene": 3255,
      "There": 3256,
      "ki": 3257,
      "pect": 3258,
      "uc": 3259,
      "Ã©": 3260,
      "ĠâĢ": 3261,
      "ĠMad": 3262,
      "ĠCong": 3263,
      "olas": 3264,
      "Ġtelling": 3265,
      "Ġdied": 3266,
      "Isa": 3267,
      "Ġinternet": 3268,
      "Judy": 3269,
      "Dora": 3270,
      "EA": 3271,
      "Lydia": 3272,
      "Rita": 3273,
      "ats": 3274,
      "Ġhurt": 3275,
      "ĠSim": 3276,
      "rik": 3277,
      "ĠLisa": 3278,
      "ĠPl": 3279,
      "Ġprop": 3280,
      "Ġstarting": 3281,
      "Ġwarm": 3282,
      "Ġcolour": 3283,
      "Ġmen": 3284,
      "vey": 3285,
      "Ġlight": 3286,
      "ĠPe": 3287,
      "Ġ25": 3288,
      "ĠAlice": 3289,
      "ĠCarol": 3290,
      "Gabriel": 3291,
      "aleb": 3292,
      "ĠMichael": 3293,
      "All": 3294,
      "ailey": 3295,
      "ient": 3296,
      "vi": 3297,
      "isabeth": 3298,
      "ĠHm": 3299,
      "ĠLaura": 3300,
      "Ġplane": 3301,
      "Ġoffers": 3302,
      "Ġclos": 3303,
      "Freddie": 3304,
      "carl": 3305,
      "Louis": 3306,
      "Pamela": 3307,
      "Ġopinion": 3308,
      "45": 3309,
      "bo": 3310,
      "mit": 3311,
      "ines": 3312,
      "Ġgreen": 3313,
      "oogle": 3314,
      "Ġstrange": 3315,
      "elled": 3316,
      "arden": 3317,
      "Danie": 3318,
      "ĠUS": 3319,
      "Ġvisiting": 3320,
      "Ġfavor": 3321,
      "ĠJulia": 3322,
      "Ġoption": 3323,
      "Ġupset": 3324,
      "ER": 3325,
      "Sharon": 3326,
      "ror": 3327,
      "Ġcream": 3328,
      "Ġhum": 3329,
      "Ġliving": 3330,
      "ĠKelly": 3331,
      "ĠVictor": 3332,
      "ĠLuke": 3333,
      "Philip": 3334,
      "ĠEmily": 3335,
      "oking": 3336,
      "Ġdeadline": 3337,
      "Suzie": 3338,
      "15": 3339,
      "How": 3340,
      "Ġopp": 3341,
      "ĠNO": 3342,
      "ĠGet": 3343,
      "Ġhimself": 3344,
      "Ġconvers": 3345,
      "ĠðŁĺī": 3346,
      "Ġdecis": 3347,
      "Ġbroken": 3348,
      "Ġposted": 3349,
      "Jonathan": 3350,
      "Lea": 3351,
      "Nate": 3352,
      "Ronald": 3353,
      "aper": 3354,
      "bably": 3355,
      "dle": 3356,
      "Ġtem": 3357,
      "oth": 3358,
      "Ġbeach": 3359,
      "Ġwhats": 3360,
      "????": 3361,
      "ĠNext": 3362,
      "Lenny": 3363,
      "oug": 3364,
      "Ġlend": 3365,
      "Ġsucks": 3366,
      "oppy": 3367,
      "ĠLinda": 3368,
      "Ġanybody": 3369,
      "Ġ:))": 3370,
      "ational": 3371,
      "Alf": 3372,
      "Alison": 3373,
      "ĠSteve": 3374,
      "Ġuniversity": 3375,
      "cial": 3376,
      "ered": 3377,
      "nect": 3378,
      "wis": 3379,
      "Ġfair": 3380,
      "Ġpic": 3381,
      "Ġey": 3382,
      "ada": 3383,
      "Ġsell": 3384,
      "ument": 3385,
      "Ġwrote": 3386,
      "rence": 3387,
      "Ġsleeping": 3388,
      "Ġentrance": 3389,
      "ĠProbably": 3390,
      "Les": 3391,
      "mon": 3392,
      "Ġfall": 3393,
      "Ġlaw": 3394,
      "Ġhus": 3395,
      "Ġtho": 3396,
      "ĠSame": 3397,
      "ĠHelen": 3398,
      "raph": 3399,
      "ianne": 3400,
      "avin": 3401,
      "Ġpregn": 3402,
      "Ġflow": 3403,
      "Melanie": 3404,
      "Stacy": 3405,
      "Madison": 3406,
      "Ġepisode": 3407,
      "Olga": 3408,
      "It": 3409,
      "band": 3410,
      "ias": 3411,
      "rina": 3412,
      "Ġtour": 3413,
      "Ġmall": 3414,
      "Ġeverybody": 3415,
      "Theresa": 3416,
      "Ġcopy": 3417,
      "Kit": 3418,
      "sha": 3419,
      "onnie": 3420,
      "Ġbur": 3421,
      "Ġyup": 3422,
      "ature": 3423,
      "ĠSmith": 3424,
      "ĠCla": 3425,
      "ĠEuro": 3426,
      "umb": 3427,
      "Carmen": 3428,
      "Brooke": 3429,
      "Ġeating": 3430,
      "Ġtraining": 3431,
      "Ġsitting": 3432,
      "Jasmine": 3433,
      "Ġlaugh": 3434,
      "Ġcentre": 3435,
      "Lindsay": 3436,
      "Na": 3437,
      "Sus": 3438,
      "Ġsize": 3439,
      "Ġice": 3440,
      "Ġfancy": 3441,
      "Ġdist": 3442,
      "Ġpur": 3443,
      "ama": 3444,
      "Ġdoll": 3445,
      "ryl": 3446,
      "Ġjack": 3447,
      "ĠNick": 3448,
      "ĠItalian": 3449,
      "Ġround": 3450,
      "ĠHappy": 3451,
      "Ġturned": 3452,
      "rats": 3453,
      "ĠRobert": 3454,
      "Ġexperience": 3455,
      "Ġbottle": 3456,
      "Ġabsolutely": 3457,
      "Ġreceived": 3458,
      "Ġfigure": 3459,
      "ged": 3460,
      "Ġheart": 3461,
      "ĠTina": 3462,
      "ĠAndrew": 3463,
      "Ġplayed": 3464,
      "Ġcontro": 3465,
      "Ġcurrent": 3466,
      "Ġpriv": 3467,
      "Ġfloor": 3468,
      "tt": 3469,
      "ãĥ": 3470,
      "Ġed": 3471,
      "ania": 3472,
      "anne": 3473,
      "Ġyea": 3474,
      "Ġcre": 3475,
      "Ġbegin": 3476,
      "Ġcalling": 3477,
      "Ġroad": 3478,
      "Ġsuppose": 3479,
      "Phoebe": 3480,
      "Ġeasier": 3481,
      "Evelyn": 3482,
      "Ġpolice": 3483,
      "Heidi": 3484,
      "Ġhungry": 3485,
      "Ġflying": 3486,
      "Ġcelebrate": 3487,
      "Ġdoubt": 3488,
      "Hank": 3489,
      "Jose": 3490,
      "ius": 3491,
      "night": 3492,
      "Ġbother": 3493,
      "Ġbox": 3494,
      "Ġcamp": 3495,
      "Ġfell": 3496,
      "ative": 3497,
      "Ġmem": 3498,
      "ĠYup": 3499,
      "thia": 3500,
      "sey": 3501,
      "odd": 3502,
      "Ġchill": 3503,
      "ggy": 3504,
      "Ġresults": 3505,
      "Ġ:-(": 3506,
      "Arnold": 3507,
      "aaaa": 3508,
      "Ġhusband": 3509,
      "Viv": 3510,
      "ylie": 3511,
      "Ġ$": 3512,
      "Ġfish": 3513,
      "Ġfail": 3514,
      "atha": 3515,
      "isha": 3516,
      "ield": 3517,
      "elt": 3518,
      "Ġsol": 3519,
      "ĠBer": 3520,
      "ĠFrench": 3521,
      "Ġarri": 3522,
      "ized": 3523,
      "Ġeng": 3524,
      "Ġtrou": 3525,
      "Ġscared": 3526,
      "Joshua": 3527,
      "Ġassign": 3528,
      "Ġhistory": 3529,
      "ĠGuys": 3530,
      "Cec": 3531,
      "Sonia": 3532,
      "cess": 3533,
      "ted": 3534,
      "zie": 3535,
      "Ŀ¤": 3536,
      "oun": 3537,
      "Ġbra": 3538,
      "Ġmath": 3539,
      "Ġnobody": 3540,
      "ism": 3541,
      "ayden": 3542,
      "outh": 3543,
      "Ġherself": 3544,
      "uno": 3545,
      "ðŁ¤": 3546,
      "useum": 3547,
      "Ġteach": 3548,
      "Bruce": 3549,
      "Ġappro": 3550,
      "Lewis": 3551,
      "llege": 3552,
      "Connor": 3553,
      "urious": 3554,
      "aughter": 3555,
      "iolet": 3556,
      "Austin": 3557,
      "Ġdest": 3558,
      "Ġnope": 3559,
      "Ġrese": 3560,
      "ĠApp": 3561,
      "ĠDave": 3562,
      "Ġchoc": 3563,
      "Ġguest": 3564,
      "ĠThomas": 3565,
      "ĠAnything": 3566,
      "Angel": 3567,
      "Ġslow": 3568,
      "Ġconfirm": 3569,
      "Ġschedule": 3570,
      "aith": 3571,
      "inny": 3572,
      "Ġmood": 3573,
      "Ġfut": 3574,
      "Ġhurry": 3575,
      "Ġlives": 3576,
      "ĠBob": 3577,
      "ĠJason": 3578,
      "Albert": 3579,
      "Paulina": 3580,
      "Gemma": 3581,
      "Pe": 3582,
      "Seth": 3583,
      "of": 3584,
      "Ġsat": 3585,
      "Ġfile": 3586,
      "ĠMag": 3587,
      "ĠNah": 3588,
      "ulous": 3589,
      "though": 3590,
      "ĠEn": 3591,
      "ĠKat": 3592,
      "Stella": 3593,
      "Ġglass": 3594,
      "Ġgiving": 3595,
      "Ġrecipe": 3596,
      "ĠJacob": 3597,
      "carlett": 3598,
      "Jude": 3599,
      "rr": 3600,
      "reta": 3601,
      "itive": 3602,
      "Ġstressed": 3603,
      "ilip": 3604,
      "Ġwont": 3605,
      "Ġ40": 3606,
      "Elisabeth": 3607,
      "ynn": 3608,
      "Ġartic": 3609,
      "Ġconsidering": 3610,
      "Stephanie": 3611,
      "Ġwindow": 3612,
      "Ġstraight": 3613,
      "Catherine": 3614,
      "Jordan": 3615,
      "Ma": 3616,
      "^^": 3617,
      "mar": 3618,
      "Ġri": 3619,
      "iny": 3620,
      "icious": 3621,
      "Ġev": 3622,
      "ĠYOU": 3623,
      "Ġworst": 3624,
      "ĠGu": 3625,
      "Anita": 3626,
      "Ġshower": 3627,
      "Ġagreed": 3628,
      "Damian": 3629,
      "Ġinvites": 3630,
      "Ġtravelling": 3631,
      "Ġservice": 3632,
      "Ġfuture": 3633,
      "Ġ&": 3634,
      "Ġess": 3635,
      "Ġdem": 3636,
      "roc": 3637,
      "ility": 3638,
      "ĠEthan": 3639,
      "eez": 3640,
      "Ġspace": 3641,
      "Ġtwice": 3642,
      "Ġmissing": 3643,
      "Ġinfo": 3644,
      "ology": 3645,
      "gina": 3646,
      "ino": 3647,
      "ĠId": 3648,
      "Ġcreat": 3649,
      "elie": 3650,
      "ĠMia": 3651,
      "ĠGive": 3652,
      "Ġproud": 3653,
      "Ġdownstairs": 3654,
      "Ġdelay": 3655,
      "ĠSpain": 3656,
      "Ġgrandma": 3657,
      "Ġliter": 3658,
      "Caleb": 3659,
      "Lara": 3660,
      "Ġcash": 3661,
      "acks": 3662,
      "ĠSusan": 3663,
      "ĠHenry": 3664,
      "ĠBarb": 3665,
      "kson": 3666,
      "stem": 3667,
      "ĠFuck": 3668,
      "ĠKaren": 3669,
      "Ġcheaper": 3670,
      "Ġagainst": 3671,
      "Ġgrad": 3672,
      "Ġenjoyed": 3673,
      "Ġlesson": 3674,
      "Ġprepared": 3675,
      "gram": 3676,
      "Ġmanaged": 3677,
      "Ġcorrect": 3678,
      "Penny": 3679,
      "the": 3680,
      "zo": 3681,
      "Ġfantastic": 3682,
      "Ġfelt": 3683,
      "Ġlose": 3684,
      "ask": 3685,
      "Ġanim": 3686,
      "opher": 3687,
      "Ġconnect": 3688,
      "Ġafterwards": 3689,
      "ĠNever": 3690,
      "Nicky": 3691,
      "Ġpassed": 3692,
      "angu": 3693,
      "Ġinformation": 3694,
      "ĠQu": 3695,
      "ratulations": 3696,
      "Ġconversation": 3697,
      "Ġpregnant": 3698,
      "ek": 3699,
      "mond": 3700,
      "Ġ*": 3701,
      "head": 3702,
      "anessa": 3703,
      "Ġpan": 3704,
      "Ġind": 3705,
      "amil": 3706,
      "ĠAmer": 3707,
      "ional": 3708,
      "ĠDamn": 3709,
      "Ġcover": 3710,
      "Harper": 3711,
      "Ġwomen": 3712,
      "Ġpleasure": 3713,
      "ĠDecember": 3714,
      "Beat": 3715,
      "ĠAwesome": 3716,
      "ĠEurope": 3717,
      "Roy": 3718,
      "hind": 3719,
      "Ġbtw": 3720,
      "ingers": 3721,
      "Ġhold": 3722,
      "ĠSue": 3723,
      "ĠBre": 3724,
      "Carter": 3725,
      "Marta": 3726,
      "ggie": 3727,
      "Ġbread": 3728,
      "Ġdepends": 3729,
      "ĠKevin": 3730,
      "Ġsystem": 3731,
      "Naomi": 3732,
      "Ġchocol": 3733,
      "Es": 3734,
      "Riley": 3735,
      "uary": 3736,
      "Ġcertain": 3737,
      "Ġdro": 3738,
      "Ġdaughter": 3739,
      "iced": 3740,
      "ĠPete": 3741,
      "Ġplanned": 3742,
      "Ġsmart": 3743,
      "Ġ201": 3744,
      "Ġvegan": 3745,
      "ĠðŁĻĤ": 3746,
      "Ġbeginning": 3747,
      "Cle": 3748,
      "Kai": 3749,
      "cha": 3750,
      "king": 3751,
      "Ġage": 3752,
      "Ġbehind": 3753,
      "ĠCam": 3754,
      "ston": 3755,
      "Ġdidnt": 3756,
      "ards": 3757,
      "ĠðŁĺį": 3758,
      "Ġdiet": 3759,
      "Alexis": 3760,
      "Alexander": 3761,
      "ĠAnne": 3762,
      "Ronnie": 3763,
      "Ġtransl": 3764,
      "ĠPatrick": 3765,
      "Ġincl": 3766,
      "ĠOlivia": 3767,
      "Ġobvious": 3768,
      "Ġbathroom": 3769,
      "Ġdecision": 3770,
      "Ġeyes": 3771,
      "tney": 3772,
      "Ġdark": 3773,
      "Ġmeat": 3774,
      "Ġstar": 3775,
      "ustr": 3776,
      "ourtney": 3777,
      "Ġupd": 3778,
      "Ġworked": 3779,
      "ault": 3780,
      "Ġenter": 3781,
      "Ġdiscount": 3782,
      "rsula": 3783,
      "ĠðŁĳį": 3784,
      "Ġfootball": 3785,
      "Aly": 3786,
      "Randy": 3787,
      "Ġz": 3788,
      "Ġris": 3789,
      "Ġtv": 3790,
      "ency": 3791,
      "oof": 3792,
      "ĠToo": 3793,
      "ĠSer": 3794,
      "tern": 3795,
      "ĠJune": 3796,
      "ðŁĺį": 3797,
      "Ġring": 3798,
      "Ġcheese": 3799,
      "Ġpref": 3800,
      "Ġwonderful": 3801,
      "Isabel": 3802,
      "Ġswimming": 3803,
      "how": 3804,
      "iri": 3805,
      "iant": 3806,
      "Ġtough": 3807,
      "Ġtax": 3808,
      "Ġgarden": 3809,
      "Ġlangu": 3810,
      "illie": 3811,
      "Ġegg": 3812,
      "ĠHar": 3813,
      "ality": 3814,
      "Ġprogram": 3815,
      "Ġages": 3816,
      "Caro": 3817,
      "Dana": 3818,
      "Ġstudents": 3819,
      "Ġwearing": 3820,
      "Ġhands": 3821,
      "Ġmarket": 3822,
      "Ġwishes": 3823,
      "Ġtrouble": 3824,
      "20": 3825,
      "Ren": 3826,
      "_-": 3827,
      "gent": 3828,
      "oid": 3829,
      "anish": 3830,
      "Ġpress": 3831,
      "ising": 3832,
      "ĠTha": 3833,
      "Ġmeant": 3834,
      "ĠYork": 3835,
      "ĠLou": 3836,
      "ĠEric": 3837,
      "Ġ18": 3838,
      "Ġflu": 3839,
      "Angie": 3840,
      "ĠLuc": 3841,
      "Ġtransfer": 3842,
      "ðŁĺĤðŁĺĤ": 3843,
      "Col": 3844,
      "Doug": 3845,
      "Tara": 3846,
      "aff": 3847,
      "rice": 3848,
      "xx": 3849,
      "ĠTH": 3850,
      "elf": 3851,
      "ĠBy": 3852,
      "unter": 3853,
      "ĠFl": 3854,
      "ĠRachel": 3855,
      "Ġcond": 3856,
      "ĠðŁĺĺ": 3857,
      "Frances": 3858,
      "Ġunfortunately": 3859,
      "Ġperform": 3860,
      "Clark": 3861,
      "Ġski": 3862,
      "Christine": 3863,
      "ĠBlack": 3864,
      "ĠSophie": 3865,
      "Greta": 3866,
      "Lynn": 3867,
      "Nor": 3868,
      "Violet": 3869,
      "Xavier": 3870,
      "oj": 3871,
      "win": 3872,
      "Ġ,": 3873,
      "Ġdent": 3874,
      "Ġline": 3875,
      "iew": 3876,
      "Ġeff": 3877,
      "ĠBrian": 3878,
      "ĠLiz": 3879,
      "Ġplus": 3880,
      "abrina": 3881,
      "ĠRem": 3882,
      "udy": 3883,
      "Ġcats": 3884,
      "Ġclear": 3885,
      "Ġissues": 3886,
      "Dominic": 3887,
      "Ġbuilding": 3888,
      "Howard": 3889,
      "Kayla": 3890,
      "eed": 3891,
      "eron": 3892,
      "Ġcry": 3893,
      "Ġpiss": 3894,
      "Ġlady": 3895,
      "enty": 3896,
      "orence": 3897,
      "ĠGab": 3898,
      "ĠIts": 3899,
      "Ġordered": 3900,
      "ĠFirst": 3901,
      "ains": 3902,
      "Ġvote": 3903,
      "Ġprint": 3904,
      "Ġdirect": 3905,
      "Ġdesign": 3906,
      "Ġsett": 3907,
      "Carlos": 3908,
      "Gwen": 3909,
      "Poppy": 3910,
      "Scarlett": 3911,
      "Wil": 3912,
      "xic": 3913,
      "Ġign": 3914,
      "Ġmach": 3915,
      "erve": 3916,
      "Ġcam": 3917,
      "Ġfire": 3918,
      "uses": 3919,
      "idget": 3920,
      "ĠHA": 3921,
      "Ġstress": 3922,
      "ĠCon": 3923,
      "ĠLast": 3924,
      "Ġshut": 3925,
      "Ġshirt": 3926,
      "ores": 3927,
      "ĠPre": 3928,
      "Ġspot": 3929,
      "Ġsport": 3930,
      "Ġcollege": 3931,
      "selves": 3932,
      "ĠAlso": 3933,
      "?!?!": 3934,
      "Ġkeeps": 3935,
      "Ġexample": 3936,
      "orgeous": 3937,
      "Ġpractice": 3938,
      "Ġfavorite": 3939,
      "Ġflowers": 3940,
      "Ġarticle": 3941,
      "Bert": 3942,
      "ral": 3943,
      "Ġtur": 3944,
      "Ġfault": 3945,
      "Ġlat": 3946,
      "illiant": 3947,
      "chie": 3948,
      "Ġfridge": 3949,
      "Ġanywhere": 3950,
      "ĠTomorrow": 3951,
      "ĠMartin": 3952,
      "Ġsingle": 3953,
      "ĠEverything": 3954,
      "Ġtype": 3955,
      "Danielle": 3956,
      "ĠĠčĊ": 3957,
      "Ġboo": 3958,
      "Ġcous": 3959,
      "Ġfour": 3960,
      "ayne": 3961,
      "Ġarea": 3962,
      "Ġasap": 3963,
      "ĠRose": 3964,
      "Ġcomfort": 3965,
      "Ġfeed": 3966,
      "Ġride": 3967,
      "Stef": 3968,
      "ĠðŁĴ": 3969,
      "Ġstopped": 3970,
      "ugo": 3971,
      "Ġcookies": 3972,
      "ĠOnly": 3973,
      "ĠCharlie": 3974,
      "Ġbloody": 3975,
      "Billy": 3976,
      "Ivy": 3977,
      "con": 3978,
      "ging": 3979,
      "uan": 3980,
      "ube": 3981,
      "oul": 3982,
      "Ġcla": 3983,
      "Ġfb": 3984,
      "Ġpool": 3985,
      "Ġhost": 3986,
      "iego": 3987,
      "Ġasleep": 3988,
      "pping": 3989,
      "Anton": 3990,
      "ardo": 3991,
      "Ġprevious": 3992,
      "Ġquit": 3993,
      "Ġdev": 3994,
      "Ġ-_-": 3995,
      "Ġhappening": 3996,
      "Ġshame": 3997,
      "Ġcancelled": 3998,
      "ING": 3999,
      "gers": 4000,
      "lit": 4001,
      "Ġ!": 4002,
      "Ġsoup": 4003,
      "Ġcup": 4004,
      "esus": 4005,
      "alent": 4006,
      "Ġshock": 4007,
      "ables": 4008,
      "Ġarrange": 4009,
      "Ġidk": 4010,
      "Ġtells": 4011,
      "Ġapply": 4012,
      "ĠAng": 4013,
      "000": 4014,
      "Ġhahahaha": 4015,
      "Ġgifts": 4016,
      "Regina": 4017,
      "ĠAmanda": 4018,
      "Ġagrees": 4019,
      "Ġrelation": 4020,
      "Ġpiece": 4021,
      "ĠSomething": 4022,
      "Ġresearch": 4023,
      "Ġchocolate": 4024,
      "Law": 4025,
      "Layla": 4026,
      "Ollie": 4027,
      "Tat": 4028,
      "vier": 4029,
      "Ġbike": 4030,
      "Ġma": 4031,
      "Ġmob": 4032,
      "Ġtoil": 4033,
      "Ġdunno": 4034,
      "Ġpower": 4035,
      "Ġhehe": 4036,
      "ĠTony": 4037,
      "ĠSend": 4038,
      "Ġcancel": 4039,
      "Ġexer": 4040,
      "Ġview": 4041,
      "Emilia": 4042,
      "Teddy": 4043,
      "Ġbasically": 4044,
      "Ġsimple": 4045,
      "Ġstrong": 4046,
      "Felix": 4047,
      "Ġprofessor": 4048,
      "Susie": 4049,
      "Ele": 4050,
      "ON": 4051,
      "Vic": 4052,
      "gy": 4053,
      "hol": 4054,
      "Ġsooo": 4055,
      "Ġfat": 4056,
      "ndy": 4057,
      "Ġgorgeous": 4058,
      "Ġnor": 4059,
      "Ġhes": 4060,
      "ooper": 4061,
      "Ġreview": 4062,
      "Ġnoticed": 4063,
      "ĠBet": 4064,
      "ilary": 4065,
      "ĠJen": 4066,
      "Ġshift": 4067,
      "urch": 4068,
      "unny": 4069,
      "ðŁĳ": 4070,
      "rish": 4071,
      "ĠRuss": 4072,
      "ĠEs": 4073,
      "Timothy": 4074,
      "Ġshall": 4075,
      "ĠCarl": 4076,
      "Claudia": 4077,
      "Ġemb": 4078,
      "ĠBerlin": 4079,
      "Cor": 4080,
      "Hanna": 4081,
      "LL": 4082,
      "Miles": 4083,
      "Todd": 4084,
      "box": 4085,
      "tf": 4086,
      "Ġ@": 4087,
      "Ġfoc": 4088,
      "adies": 4089,
      "ĠYES": 4090,
      "ummer": 4091,
      "Ġbitch": 4092,
      "Ġreserv": 4093,
      "Abby": 4094,
      "Ġpreparing": 4095,
      "Janice": 4096,
      "Katy": 4097,
      "Joanne": 4098,
      "Ġcosts": 4099,
      "Judith": 4100,
      "Ġhonestly": 4101,
      "ĠJanuary": 4102,
      "Bryan": 4103,
      "Joyce": 4104,
      "Ġessay": 4105,
      "Crist": 4106,
      "Gavin": 4107,
      "Hunter": 4108,
      "Zara": 4109,
      "hood": 4110,
      "Ġ..": 4111,
      "Ġself": 4112,
      "oris": 4113,
      "Ġdan": 4114,
      "Ġlog": 4115,
      "ĠSc": 4116,
      "ĠHannah": 4117,
      "Ġsocial": 4118,
      "rif": 4119,
      "Ġhelped": 4120,
      "itten": 4121,
      "ĠAlright": 4122,
      "ienna": 4123,
      "Ġdesk": 4124,
      "ĠSpanish": 4125,
      "Lizzy": 4126,
      "Ġdepartment": 4127,
      "Ġimpress": 4128,
      "Christina": 4129,
      "Ġentire": 4130,
      "Rosie": 4131,
      "Ġrespons": 4132,
      "ĠJessica": 4133,
      "Ġdraw": 4134,
      "Ġclient": 4135,
      "Ġcrossed": 4136,
      "Ġprivate": 4137,
      "Ġrelationship": 4138,
      "Fab": 4139,
      "Gill": 4140,
      "Lore": 4141,
      "Mil": 4142,
      "ram": 4143,
      "Ġah": 4144,
      "Ġmot": 4145,
      "Ġfu": 4146,
      "atre": 4147,
      "ĠPort": 4148,
      "Kathy": 4149,
      "Ġgives": 4150,
      "Ġveget": 4151,
      "Ġoptions": 4152,
      "Ġmanager": 4153,
      "ealous": 4154,
      "Vanessa": 4155,
      "Wanda": 4156,
      "hib": 4157,
      "yla": 4158,
      "ĠAsh": 4159,
      "Ġate": 4160,
      "Ġju": 4161,
      "ĠOm": 4162,
      "ĠPr": 4163,
      "eee": 4164,
      "Ġlets": 4165,
      "Jackson": 4166,
      "Ġhates": 4167,
      "Ġpromot": 4168,
      "place": 4169,
      "ynthia": 4170,
      "Ġcleaning": 4171,
      "Ġsimilar": 4172,
      "HAT": 4173,
      "ĠToday": 4174,
      "Ġparticular": 4175,
      "Rich": 4176,
      "Ursula": 4177,
      "ium": 4178,
      "ts": 4179,
      "ï½": 4180,
      "Ġsus": 4181,
      "ĠIan": 4182,
      "Ġcorn": 4183,
      "Ġcalm": 4184,
      "Ġfab": 4185,
      "Ġpink": 4186,
      "atch": 4187,
      "ĠTe": 4188,
      "elma": 4189,
      "Ġallow": 4190,
      "Ġbrought": 4191,
      "istic": 4192,
      "Ġapparently": 4193,
      "Ġimpro": 4194,
      "aige": 4195,
      "Ġlistening": 4196,
      "Ġmiddle": 4197,
      "ervous": 4198,
      "Valer": 4199,
      "Cheryl": 4200,
      "Ġvacation": 4201,
      "Teresa": 4202,
      "Ġjacket": 4203,
      "Ale": 4204,
      "Kylie": 4205,
      "Nad": 4206,
      "mp": 4207,
      "rees": 4208,
      "Ġsoooo": 4209,
      "Ġbody": 4210,
      "Ġyo": 4211,
      "Ġcrow": 4212,
      "ndler": 4213,
      "Ġdating": 4214,
      "Ġdanc": 4215,
      "Ġgoogle": 4216,
      "Ġpage": 4217,
      "Ġkick": 4218,
      "Ġjealous": 4219,
      "Ġnotice": 4220,
      "ĠJos": 4221,
      "ĠEven": 4222,
      "Ġ21": 4223,
      "ĠThx": 4224,
      "Bruno": 4225,
      "ittany": 4226,
      "Ġpicking": 4227,
      "ĠMarch": 4228,
      "ointed": 4229,
      "Christian": 4230,
      "Sheila": 4231,
      "Ġproducts": 4232,
      "Renee": 4233,
      "Cathy": 4234,
      "Gl": 4235,
      "Mon": 4236,
      "gue": 4237,
      "lene": 4238,
      "Ġ.": 4239,
      "Ġimm": 4240,
      "Ġmeal": 4241,
      "Ġreach": 4242,
      "Ġsold": 4243,
      "ĠYe": 4244,
      "ĠMolly": 4245,
      "Ġjour": 4246,
      "Ġplenty": 4247,
      "Ġsplit": 4248,
      "Ġotherwise": 4249,
      "Ġfinal": 4250,
      "Ġbigger": 4251,
      "Ġsecret": 4252,
      "Ġdelicious": 4253,
      "Elena": 4254,
      "Ġheading": 4255,
      "Ġcharac": 4256,
      "Ġexpected": 4257,
      "Ġregular": 4258,
      "Ġmistake": 4259,
      "Leslie": 4260,
      "Ġassignment": 4261,
      "Ġmobile": 4262,
      "Bri": 4263,
      "Mer": 4264,
      "Rom": 4265,
      "ges": 4266,
      "hm": 4267,
      "pa": 4268,
      "ruct": 4269,
      "Ġvers": 4270,
      "Ġmount": 4271,
      "Ġmuseum": 4272,
      "Ġcaught": 4273,
      "Ġpity": 4274,
      "Ġpsy": 4275,
      "lee": 4276,
      "illary": 4277,
      "Ġbecome": 4278,
      "ĠHall": 4279,
      "Ġstyle": 4280,
      "ustom": 4281,
      "ĠBar": 4282,
      "ĠLuck": 4283,
      "raig": 4284,
      "Ġfru": 4285,
      "Ġfriday": 4286,
      "ĠGina": 4287,
      "Ġpls": 4288,
      "resh": 4289,
      "Ġrad": 4290,
      "Ġbrand": 4291,
      "erena": 4292,
      "Natasha": 4293,
      "Ġdescri": 4294,
      "Ġflights": 4295,
      "Ġorganiz": 4296,
      "Natalia": 4297,
      "Maddie": 4298,
      "Ġemp": 4299,
      "iffany": 4300,
      "Ġridic": 4301,
      "Ġcousin": 4302,
      "Sil": 4303,
      "sing": 4304,
      "well": 4305,
      "xit": 4306,
      "zz": 4307,
      "Ġowe": 4308,
      "Ġtit": 4309,
      "read": 4310,
      "llen": 4311,
      "Ġdance": 4312,
      "Ġnervous": 4313,
      "Ġoper": 4314,
      "asc": 4315,
      "ĠTw": 4316,
      "ĠTry": 4317,
      "irley": 4318,
      "tery": 4319,
      "ĠCha": 4320,
      "...?": 4321,
      "Mario": 4322,
      "Ġidiot": 4323,
      "iously": 4324,
      "Brandon": 4325,
      "Ġstudent": 4326,
      "Ġawful": 4327,
      "ugs": 4328,
      "Ġwalking": 4329,
      "Isabelle": 4330,
      "Ġpossib": 4331,
      "Ġâĺ": 4332,
      "Gabrielle": 4333,
      "Ġannoying": 4334,
      "Ġcontrol": 4335,
      "ĠEnjoy": 4336,
      "Troy": 4337,
      "uff": 4338,
      "Ġcap": 4339,
      "icy": 4340,
      "Ġthird": 4341,
      "Ġweight": 4342,
      "ima": 4343,
      "ĠHas": 4344,
      "ĠMore": 4345,
      "ĠNancy": 4346,
      "ĠJon": 4347,
      "raham": 4348,
      "Ġexhib": 4349,
      "Ġ17": 4350,
      "iano": 4351,
      "Ġeverywhere": 4352,
      "Alicia": 4353,
      "Ġuncle": 4354,
      "ĠDidn": 4355,
      "ĠAnyone": 4356,
      "Ġfamous": 4357,
      "ĠWilliam": 4358,
      "Ġexchan": 4359,
      "Ġsongs": 4360,
      "lsea": 4361,
      "Morgan": 4362,
      "Ġlanguage": 4363,
      "Ġdentist": 4364,
      "Ġcrowd": 4365,
      "((": 4366,
      "Mick": 4367,
      "cise": 4368,
      "fa": 4369,
      "oh": 4370,
      "rit": 4371,
      "word": 4372,
      "esides": 4373,
      "asy": 4374,
      "asper": 4375,
      "ala": 4376,
      "ĠBab": 4377,
      "Ġwhether": 4378,
      "ĠEl": 4379,
      "ĠEva": 4380,
      "Ġvot": 4381,
      "Ġwhenever": 4382,
      "Ġhelps": 4383,
      "Ġprices": 4384,
      "Ġadvises": 4385,
      "Ġlessons": 4386,
      "Ġcrap": 4387,
      "Ġmedia": 4388,
      "ĠMaya": 4389,
      "ĠAbout": 4390,
      "ĠGlad": 4391,
      "Ġreservation": 4392,
      "ĠOmg": 4393,
      "Mila": 4394,
      "lan": 4395,
      "ĠÂ": 4396,
      "Ġyog": 4397,
      "Ġmater": 4398,
      "enc": 4399,
      "Ġhall": 4400,
      "ĠTed": 4401,
      "ĠSandra": 4402,
      "ĠDr": 4403,
      "ĠLily": 4404,
      "ĠRic": 4405,
      "ĠRick": 4406,
      "Ġ16": 4407,
      "Ġvia": 4408,
      "ĠKing": 4409,
      "Ġdecent": 4410,
      "Ġsurger": 4411,
      "Els": 4412,
      "Ġboys": 4413,
      "Ġdogs": 4414,
      "ĠFrance": 4415,
      "Erica": 4416,
      "Ġtopic": 4417,
      "Kenn": 4418,
      "OW": 4419,
      "Ġahaha": 4420,
      "Ġsess": 4421,
      "era": 4422,
      "inger": 4423,
      "Ġfingers": 4424,
      "atoes": 4425,
      "isf": 4426,
      "Ġeye": 4427,
      "alie": 4428,
      "ĠMer": 4429,
      "Ġprov": 4430,
      "Ġru": 4431,
      "hys": 4432,
      "ĠUK": 4433,
      "Ġchecking": 4434,
      "ĠIsn": 4435,
      "ption": 4436,
      "ĠMarie": 4437,
      "ĠMexic": 4438,
      "ĠInst": 4439,
      "Edgar": 4440,
      "Clare": 4441,
      "Harvey": 4442,
      "Ġregret": 4443,
      "Josephine": 4444,
      "Ġpublic": 4445,
      "Ġmentioned": 4446,
      "Aiden": 4447,
      "ĠSimon": 4448,
      "Kitty": 4449,
      "Ŀ¤ï¸ı": 4450,
      "Ġdestroy": 4451,
      "Ġmachine": 4452,
      "Ġtoilet": 4453,
      "Ġpsych": 4454,
      "Drew": 4455,
      "Katherine": 4456,
      "Kasia": 4457,
      "Tess": 4458,
      "bum": 4459,
      "ury": 4460,
      "Ġwake": 4461,
      "Ġfill": 4462,
      "Ġpap": 4463,
      "lept": 4464,
      "uts": 4465,
      "ution": 4466,
      "acha": 4467,
      "Ġofc": 4468,
      "Ġmember": 4469,
      "irk": 4470,
      "ĠChloe": 4471,
      "ĠLooks": 4472,
      "Ġshoot": 4473,
      "Ġalthough": 4474,
      "ĠPoor": 4475,
      "ĠRos": 4476,
      "overed": 4477,
      "earl": 4478,
      "ĠWendy": 4479,
      "ubb": 4480,
      "ossible": 4481,
      "Ġperhaps": 4482,
      "Ġjoining": 4483,
      "Gregory": 4484,
      "Ġexciting": 4485,
      "ĠShit": 4486,
      "hhh": 4487,
      "Jayden": 4488,
      "ĠPaula": 4489,
      "Daria": 4490,
      "Ġsubject": 4491,
      "ĠQue": 4492,
      "ĠPeople": 4493,
      "Ġfocus": 4494,
      "Faith": 4495,
      "Hillary": 4496,
      "Ing": 4497,
      "RE": 4498,
      "Sof": 4499,
      "hem": 4500,
      "Ġfive": 4501,
      "Ġgroc": 4502,
      "Ġocc": 4503,
      "ĠSw": 4504,
      "ĠSat": 4505,
      "Ġstate": 4506,
      "Ġatm": 4507,
      "riet": 4508,
      "ĠLilly": 4509,
      "ĠFeb": 4510,
      "Carson": 4511,
      "Olivier": 4512,
      "weet": 4513,
      "Keith": 4514,
      "Ġexams": 4515,
      "Ġgiven": 4516,
      "Ġchap": 4517,
      "ĠLeo": 4518,
      "Ġintro": 4519,
      "Ġhealthy": 4520,
      "incent": 4521,
      "Isaac": 4522,
      "board": 4523,
      "Ġprefers": 4524,
      "Ġeggs": 4525,
      "Ġcorner": 4526,
      "Ġridiculous": 4527,
      "AA": 4528,
      "Gail": 4529,
      "Hugo": 4530,
      "oly": 4531,
      "ining": 4532,
      "inese": 4533,
      "Ġball": 4534,
      "anny": 4535,
      "Ġcustom": 4536,
      "Ġdry": 4537,
      "Ġgrow": 4538,
      "ĠApril": 4539,
      "iring": 4540,
      "rap": 4541,
      "ĠEr": 4542,
      "Luis": 4543,
      "Ġlevel": 4544,
      "Ġdeg": 4545,
      "Ġnights": 4546,
      "Ġscreen": 4547,
      "Ġshows": 4548,
      "Ġavoid": 4549,
      "Ġmedic": 4550,
      "Ġhoping": 4551,
      "Ġraining": 4552,
      "Ġwords": 4553,
      "ĠRemember": 4554,
      "Cal": 4555,
      "Ot": 4556,
      "Sabrina": 4557,
      "Ġaunt": 4558,
      "heart": 4559,
      "Ġwoke": 4560,
      "Ġsaturday": 4561,
      "ĠIT": 4562,
      "Ġbill": 4563,
      "Ġcurious": 4564,
      "Ġfed": 4565,
      "ĠHoney": 4566,
      "Ġjoking": 4567,
      "ĠOkey": 4568,
      "ĠCom": 4569,
      "ĠCall": 4570,
      "ĠCuba": 4571,
      "Ġsomehow": 4572,
      "ĠGirl": 4573,
      "unity": 4574,
      "Ġ14": 4575,
      "ilyn": 4576,
      "!!!!!!!!": 4577,
      "Ġapolog": 4578,
      "cohol": 4579,
      "Camilla": 4580,
      "ĠJulie": 4581,
      "Ġpackage": 4582,
      "Ġparking": 4583,
      "Marcus": 4584,
      "ĠDefinitely": 4585,
      "Ġdisappointed": 4586,
      "Ġdelivery": 4587,
      "Georgia": 4588,
      "Ġdollars": 4589,
      "Ġguests": 4590,
      "Ġliterally": 4591,
      "Ġinclud": 4592,
      "ĠLucas": 4593,
      "Ġdancing": 4594,
      "Ġyoga": 4595,
      "Dennis": 4596,
      "Krist": 4597,
      "ees": 4598,
      "ivers": 4599,
      "oon": 4600,
      "Ġtheatre": 4601,
      "Ġcos": 4602,
      "Ġlow": 4603,
      "Ġwithin": 4604,
      "Ġwashing": 4605,
      "ĠJenn": 4606,
      "ĠJuly": 4607,
      "âĢĿ": 4608,
      "inder": 4609,
      "ðŁı": 4610,
      "Ġvol": 4611,
      "ction": 4612,
      "Ġspare": 4613,
      "Ġclosed": 4614,
      "avy": 4615,
      "Ġrecord": 4616,
      "Bridget": 4617,
      "Ġwritten": 4618,
      "Ġdecor": 4619,
      "Ġvisited": 4620,
      "ĠMeg": 4621,
      "anya": 4622,
      "Joey": 4623,
      "Art": 4624,
      "ĠBrad": 4625,
      "Agatha": 4626,
      "Darren": 4627,
      "ĠCheck": 4628,
      "Ġfailed": 4629,
      "ĠGuess": 4630,
      "ĠIdk": 4631,
      "ĠBrexit": 4632,
      "iriam": 4633,
      "Ġclaim": 4634,
      "Courtney": 4635,
      "Evie": 4636,
      "Ir": 4637,
      "Kay": 4638,
      "Lind": 4639,
      "Mo": 4640,
      "cast": 4641,
      "ives": 4642,
      "iola": 4643,
      "mark": 4644,
      "off": 4645,
      "rd": 4646,
      "Ġran": 4647,
      "Ġsil": 4648,
      "halie": 4649,
      "arr": 4650,
      "esco": 4651,
      "Ġpair": 4652,
      "Ġladies": 4653,
      "itar": 4654,
      "usting": 4655,
      "icki": 4656,
      "ece": 4657,
      "Ġalbum": 4658,
      "ayson": 4659,
      "Ġ24": 4660,
      "Ġrout": 4661,
      "ement": 4662,
      "Ġque": 4663,
      "ideos": 4664,
      "Ġchurch": 4665,
      "ĠStreet": 4666,
      "ĠFrom": 4667,
      "ĠMegan": 4668,
      "Freder": 4669,
      "ception": 4670,
      "Ġchanges": 4671,
      "Ġdriver": 4672,
      "Aria": 4673,
      "ĠSeriously": 4674,
      "Ġdanger": 4675,
      "Ch": 4676,
      "PM": 4677,
      "Ricky": 4678,
      "Tiffany": 4679,
      "bur": 4680,
      "sis": 4681,
      "val": 4682,
      "ĠZoe": 4683,
      "Ġaut": 4684,
      "ini": 4685,
      "Ġsir": 4686,
      "Ġmail": 4687,
      "ican": 4688,
      "ĠTalk": 4689,
      "ĠTerry": 4690,
      "Ġreck": 4691,
      "Ġkiss": 4692,
      "eless": 4693,
      "Ġselling": 4694,
      "roat": 4695,
      "ĠOscar": 4696,
      "ĠNY": 4697,
      "!!!!!": 4698,
      "Marsha": 4699,
      "ĠWhats": 4700,
      "Ġbrilliant": 4701,
      "Ġhelping": 4702,
      "Ġtech": 4703,
      "Timmy": 4704,
      "Ġscary": 4705,
      "ĠInter": 4706,
      "Ġcontract": 4707,
      "aaa": 4708,
      "ĠBrit": 4709,
      "ival": 4710,
      "Ġapart": 4711,
      "Matilda": 4712,
      "Ġcollea": 4713,
      "Ġreply": 4714,
      "Ġlaund": 4715,
      "ĠPhil": 4716,
      "ĠVictoria": 4717,
      "Ġopport": 4718,
      "ĠClaire": 4719,
      "ĠApparently": 4720,
      "Ġlatest": 4721,
      "10": 4722,
      "Bar": 4723,
      "Nik": 4724,
      "Tori": 4725,
      "hop": 4726,
      "ses": 4727,
      "ucks": 4728,
      "Ġahead": 4729,
      "Ġwha": 4730,
      "Ġwtf": 4731,
      "Ġsilly": 4732,
      "Ġban": 4733,
      "Ġblock": 4734,
      "Ġppl": 4735,
      "Ġlim": 4736,
      "enter": 4737,
      "Ġhaird": 4738,
      "idia": 4739,
      "Ġstep": 4740,
      "ryst": 4741,
      "ĠDar": 4742,
      "ĠLa": 4743,
      "ĠEU": 4744,
      "Ġvet": 4745,
      "Ġvideos": 4746,
      "ĠKar": 4747,
      "Ġsale": 4748,
      "aged": 4749,
      "Ġcalls": 4750,
      "Ġquality": 4751,
      "innie": 4752,
      "Ġkept": 4753,
      "Jesse": 4754,
      "Ġaccess": 4755,
      "Jacqu": 4756,
      "Ġmessages": 4757,
      "Ġpassword": 4758,
      "Ġcharge": 4759,
      "Ġchanging": 4760,
      "ĠPolish": 4761,
      "Rosa": 4762,
      "ĠOliver": 4763,
      "Ġissue": 4764,
      "ĠGerman": 4765,
      "ĠâĢľ": 4766,
      "Esme": 4767,
      "Cora": 4768,
      "Serena": 4769,
      "Wayne": 4770,
      "bon": 4771,
      "bed": 4772,
      "reme": 4773,
      "Ġyoure": 4774,
      "Ġstick": 4775,
      "ĠMrs": 4776,
      "Ġsever": 4777,
      "antic": 4778,
      "Ġsud": 4779,
      "ĠFin": 4780,
      "ĠRome": 4781,
      "ploy": 4782,
      "HAHA": 4783,
      "ĠMichelle": 4784,
      "Ġinvitation": 4785,
      "Shirley": 4786,
      "Lawrence": 4787,
      "ĠRichard": 4788,
      "Ġsurgery": 4789,
      "Bea": 4790,
      "Hilary": 4791,
      "lay": 4792,
      "Ġer": 4793,
      "Ġ^^": 4794,
      "Ġshar": 4795,
      "Ġfresh": 4796,
      "Ġdie": 4797,
      "icks": 4798,
      "Ġreact": 4799,
      "iling": 4800,
      "arth": 4801,
      "Ġalcohol": 4802,
      "ĠFiona": 4803,
      "ĠEli": 4804,
      "uments": 4805,
      "Ġ22": 4806,
      "Ġ200": 4807,
      "Ġfever": 4808,
      "Ġrom": 4809,
      "agram": 4810,
      "Marty": 4811,
      "Ġinvol": 4812,
      "Harold": 4813,
      "Ġorganize": 4814,
      "Ġfinishing": 4815,
      "ĠGrand": 4816,
      "Chandler": 4817,
      "Ġlocal": 4818,
      "Ġwallet": 4819,
      "Ġlazy": 4820,
      "Ġpressure": 4821,
      "Filip": 4822,
      "Iris": 4823,
      "Jax": 4824,
      "dison": 4825,
      "ique": 4826,
      "jah": 4827,
      "ring": 4828,
      "hal": 4829,
      "Ġcas": 4830,
      "ows": 4831,
      "ĠSweet": 4832,
      "ĠMat": 4833,
      "Ġjoke": 4834,
      "ĠCo": 4835,
      "Ġallerg": 4836,
      "Ġprofile": 4837,
      "ĠRo": 4838,
      "Ġoffic": 4839,
      "apan": 4840,
      "Ġstayed": 4841,
      "Ġbringing": 4842,
      "ĠAnnie": 4843,
      "Ġpaying": 4844,
      "Ġrecommended": 4845,
      "kype": 4846,
      "Ġpromised": 4847,
      "Ġspecific": 4848,
      "Ġurgent": 4849,
      "Karl": 4850,
      "Suzanne": 4851,
      "Ġpasta": 4852,
      "Ġgeneral": 4853,
      "Ġpissed": 4854,
      "ĠAshley": 4855,
      "Ġmaterial": 4856,
      "Millie": 4857,
      "Pet": 4858,
      "Qu": 4859,
      "Sk": 4860,
      "cher": 4861,
      "uh": 4862,
      "Â°": 4863,
      "Ġdam": 4864,
      "ator": 4865,
      "ishing": 4866,
      "edi": 4867,
      "Ġhavent": 4868,
      "ĠSean": 4869,
      "ĠAS": 4870,
      "ĠOur": 4871,
      "ĠJerry": 4872,
      "Ġfrustr": 4873,
      "ung": 4874,
      "Ġval": 4875,
      "ĠKen": 4876,
      "Ġletter": 4877,
      "ission": 4878,
      "ĠðŁĺĢ": 4879,
      "aila": 4880,
      "Jenna": 4881,
      "Brittany": 4882,
      "ĠAlways": 4883,
      "Archie": 4884,
      "Darcy": 4885,
      "Shelly": 4886,
      "Ġposition": 4887,
      "Ġthrowing": 4888,
      "ĠMaggie": 4889,
      "Ġexhibition": 4890,
      "Ally": 4891,
      "Bet": 4892,
      "Brett": 4893,
      "Hayden": 4894,
      "Juan": 4895,
      "Kamil": 4896,
      "Paige": 4897,
      "Wes": 4898,
      "din": 4899,
      "let": 4900,
      "now": 4901,
      "nel": 4902,
      "Ġsqu": 4903,
      "Ġblo": 4904,
      "Ġmag": 4905,
      "Ġcred": 4906,
      "Ġhy": 4907,
      "ĠSally": 4908,
      "ĠYo": 4909,
      "Ġug": 4910,
      "iah": 4911,
      "ĠBas": 4912,
      "ĠBro": 4913,
      "anta": 4914,
      "ĠDay": 4915,
      "iler": 4916,
      "Marion": 4917,
      "arely": 4918,
      "lies": 4919,
      "Ġ;/": 4920,
      "ĠðŁĺľ": 4921,
      "ĠThink": 4922,
      "Lex": 4923,
      "Ġdownload": 4924,
      "Ġdifference": 4925,
      "rsly": 4926,
      "Christopher": 4927,
      "Ġannivers": 4928,
      "ĠKeep": 4929,
      "ushi": 4930,
      "Ġconvinced": 4931,
      "ĠCongrats": 4932,
      "Tatiana": 4933,
      "Silvia": 4934,
      "Kenneth": 4935,
      "Ġseveral": 4936,
      "Ġanniversary": 4937,
      "Dee": 4938,
      "Kon": 4939,
      "Macy": 4940,
      "Ram": 4941,
      "Sasha": 4942,
      "Vincent": 4943,
      "ross": 4944,
      "Ġye": 4945,
      "Ġmill": 4946,
      "Ġmix": 4947,
      "Ġdates": 4948,
      "rib": 4949,
      "ĠBel": 4950,
      "tember": 4951,
      "ĠRyan": 4952,
      "ify": 4953,
      "Ġsaving": 4954,
      "Johnny": 4955,
      "Ġcompet": 4956,
      "ĠXmas": 4957,
      "ĠMarc": 4958,
      "Ġaccording": 4959,
      "Ġcontin": 4960,
      "reya": 4961,
      "Ġmostly": 4962,
      "Grant": 4963,
      "Ġtexting": 4964,
      "Ġpostp": 4965,
      "Ġtotal": 4966,
      "Mathew": 4967,
      "Ġcolor": 4968,
      "Ġsinging": 4969,
      "ĠðŁ¤£": 4970,
      "Chad": 4971,
      "Ġsatisf": 4972,
      "Ġcomfortable": 4973,
      "ĠBetter": 4974,
      "Ġjuice": 4975,
      "Ġsession": 4976,
      "Sofia": 4977,
      "Ġdangerous": 4978,
      "50": 4979,
      "Diego": 4980,
      "Jared": 4981,
      "Lori": 4982,
      "Mal": 4983,
      "Yuri": 4984,
      "you": 4985,
      "Ġbat": 4986,
      "Ġcode": 4987,
      "Ġpages": 4988,
      "itter": 4989,
      "Ġbel": 4990,
      ".....": 4991,
      "ĠAva": 4992,
      "hany": 4993,
      "ĠBeth": 4994,
      "ĠNor": 4995,
      "Ġsomebody": 4996,
      "Ġanyways": 4997,
      "Ġnoon": 4998,
      "like": 4999,
      "ians": 5000,
      "ĠNoah": 5001,
      "Ġdef": 5002,
      "icholas": 5003,
      "aps": 5004,
      "Alexandra": 5005,
      "itional": 5006,
      "Ġimpossible": 5007,
      "Ġlearning": 5008,
      "Debbie": 5009,
      "chester": 5010,
      "Kristen": 5011,
      "Ġlaundry": 5012,
      "Boris": 5013,
      "Hailey": 5014,
      "Nelly": 5015,
      "Ġbake": 5016,
      "Ġeh": 5017,
      "Ġequ": 5018,
      "Ġjam": 5019,
      "ĠBetty": 5020,
      "ĠNina": 5021,
      "ĠJamie": 5022,
      "ĠJapan": 5023,
      "uriel": 5024,
      "igin": 5025,
      "odation": 5026,
      "Ġoffered": 5027,
      "ĠHaven": 5028,
      "Ġpartner": 5029,
      "Ġprot": 5030,
      "Ġguitar": 5031,
      "Ġreminds": 5032,
      "Ġpicked": 5033,
      "ĠStan": 5034,
      "Ġcareful": 5035,
      "Ġfucked": 5036,
      "Ġpresents": 5037,
      "Ġpersonal": 5038,
      "Simone": 5039,
      "Ġswear": 5040,
      "ĠJackie": 5041,
      "Connie": 5042,
      "ruary": 5043,
      "Sidney": 5044,
      "Ġcondition": 5045,
      "ĠFebruary": 5046,
      "ĠJennifer": 5047,
      "Ġsudden": 5048,
      "\"?": 5049,
      "))": 5050,
      ").": 5051,
      ":(": 5052,
      "Ber": 5053,
      "Jade": 5054,
      "Tab": 5055,
      "ires": 5056,
      "yer": 5057,
      "Ġten": 5058,
      "Ġbull": 5059,
      "Ġpet": 5060,
      "Ġport": 5061,
      "ĠAnt": 5062,
      "Ġbutter": 5063,
      "Ġsuff": 5064,
      "Ġseemed": 5065,
      "ðŁĻ": 5066,
      "ĠRuth": 5067,
      "Ġspo": 5068,
      "Ġcars": 5069,
      "Ġshares": 5070,
      "Ġspending": 5071,
      "ollie": 5072,
      "Ġexpecting": 5073,
      "Ġextreme": 5074,
      "ĠGrace": 5075,
      "ssa": 5076,
      "Ġtyp": 5077,
      "coming": 5078,
      "Chelsea": 5079,
      "................": 5080,
      "Ġcafe": 5081,
      "Tamara": 5082,
      "Ġobviously": 5083,
      "Ġsports": 5084,
      "40": 5085,
      "Ivan": 5086,
      "Su": 5087,
      "Tessa": 5088,
      "Ula": 5089,
      "ez": 5090,
      "Ġ0": 5091,
      "Ġ??": 5092,
      "Ġbak": 5093,
      "Ġcast": 5094,
      "Ġgara": 5095,
      "Ġgoss": 5096,
      "Ġbeers": 5097,
      "ĠTesco": 5098,
      "ĠWar": 5099,
      "Ġnecess": 5100,
      "irty": 5101,
      "Ġknown": 5102,
      "ĠDonna": 5103,
      "ĠDiana": 5104,
      "ĠJill": 5105,
      "andom": 5106,
      "ĠPam": 5107,
      "Ġanytime": 5108,
      "ures": 5109,
      "Carly": 5110,
      "Ġpretend": 5111,
      "Ġlead": 5112,
      "Ġadmit": 5113,
      "ĠIsab": 5114,
      "shit": 5115,
      "Ġdisg": 5116,
      "Ġshops": 5117,
      "Ġolder": 5118,
      "Gabi": 5119,
      "Ġturns": 5120,
      "Ġattention": 5121,
      "iotr": 5122,
      "Ġlocation": 5123,
      "Ġtaste": 5124,
      "Denise": 5125,
      "Ġcreate": 5126,
      "ĠBarbara": 5127,
      "Ġversion": 5128,
      "Ġmountains": 5129,
      "AP": 5130,
      "April": 5131,
      "Bro": 5132,
      "Casper": 5133,
      "Gil": 5134,
      "Just": 5135,
      "Ly": 5136,
      "Pi": 5137,
      "Tanya": 5138,
      "dd": 5139,
      "kes": 5140,
      "ket": 5141,
      "nzo": 5142,
      "ined": 5143,
      "ination": 5144,
      "Ġbarely": 5145,
      "order": 5146,
      "Ġfield": 5147,
      "Ġdumb": 5148,
      "icated": 5149,
      "Ġisland": 5150,
      "ĠHad": 5151,
      "rien": 5152,
      "ĠDaisy": 5153,
      "ravis": 5154,
      "ooklyn": 5155,
      "Anette": 5156,
      "Ġorigin": 5157,
      "Ġconst": 5158,
      "ubrey": 5159,
      "ĠJoan": 5160,
      "Ġrock": 5161,
      "Ġhopefully": 5162,
      "Ġ:-/": 5163,
      "Stacey": 5164,
      "Ġstudies": 5165,
      "ugust": 5166,
      "ĠTracy": 5167,
      "ĠTrump": 5168,
      "DDDD": 5169,
      "Ġlanded": 5170,
      "Olaf": 5171,
      "Ġdocument": 5172,
      "Ġcloser": 5173,
      "ĠÂ£": 5174,
      "Ġpapers": 5175,
      "Ġugly": 5176,
      ";)": 5177,
      "Cynthia": 5178,
      "Kath": 5179,
      "Mindy": 5180,
      "Pearl": 5181,
      "bh": 5182,
      "di": 5183,
      "fit": 5184,
      "Ġsite": 5185,
      "Ġmis": 5186,
      "Ġfest": 5187,
      "Ġgay": 5188,
      "ĠAww": 5189,
      "ĠMost": 5190,
      "Ġgold": 5191,
      "urora": 5192,
      "Ġupload": 5193,
      "union": 5194,
      "Jody": 5195,
      "Ġ13": 5196,
      "lied": 5197,
      "Ġ;(": 5198,
      "odka": 5199,
      "Ġcheer": 5200,
      "Ġdivor": 5201,
      "Ġsooner": 5202,
      "ccess": 5203,
      "Nathalie": 5204,
      "ĠStop": 5205,
      "ached": 5206,
      "Ġended": 5207,
      "Ġworkshop": 5208,
      "ĠPatricia": 5209,
      "ĠChinese": 5210,
      "Ġinsane": 5211,
      "ydney": 5212,
      "uuuu": 5213,
      "ĠAgnes": 5214,
      "Ġpositive": 5215,
      "Ġbudget": 5216,
      "Beatrice": 5217,
      "ĠPretty": 5218,
      "Ġempty": 5219,
      "Ġexchange": 5220,
      "Cole": 5221,
      "Kier": 5222,
      "Zach": 5223,
      "af": 5224,
      "ba": 5225,
      "can": 5226,
      "ior": 5227,
      "kward": 5228,
      "lu": 5229,
      "Ġthesis": 5230,
      "Ġmass": 5231,
      "Ġcab": 5232,
      "Ġdata": 5233,
      "ato": 5234,
      "Ġstaff": 5235,
      "Ġgover": 5236,
      "Ġwaste": 5237,
      "ĠLiam": 5238,
      "olf": 5239,
      "ĠPark": 5240,
      "ðŁĴ": 5241,
      "ĠRom": 5242,
      "ĠRed": 5243,
      "Ġsurely": 5244,
      "Ġvoice": 5245,
      "law": 5246,
      "Luk": 5247,
      "Sammy": 5248,
      "Ġtrack": 5249,
      "Leila": 5250,
      "ĠTommy": 5251,
      "Ġbelieves": 5252,
      "Ġforgotten": 5253,
      "Elijah": 5254,
      "ooth": 5255,
      "Ġopened": 5256,
      "Ġsweetie": 5257,
      "Ġattack": 5258,
      "Ġfixed": 5259,
      "Ġrespect": 5260,
      "ĠIndeed": 5261,
      "Alfred": 5262,
      "Ġdelayed": 5263,
      "Colin": 5264,
      "ĠTHE": 5265,
      "Ġperformance": 5266,
      "ĠEspecially": 5267,
      "ĠJoseph": 5268,
      "Glen": 5269,
      "rystal": 5270,
      "Craig": 5271,
      "Freya": 5272,
      "Man": 5273,
      "Mac": 5274,
      "Rap": 5275,
      "VE": 5276,
      "iod": 5277,
      "pack": 5278,
      "ster": 5279,
      "tain": 5280,
      "Ġbunch": 5281,
      "Ġcir": 5282,
      "Ġcenter": 5283,
      "Ġpu": 5284,
      "ida": 5285,
      "ĠAM": 5286,
      "Ġsoft": 5287,
      "ĠBoth": 5288,
      "ĠCent": 5289,
      "Ġwash": 5290,
      "Ġsuck": 5291,
      "ĠGre": 5292,
      "unning": 5293,
      "eptember": 5294,
      "eech": 5295,
      "ianca": 5296,
      "Ġspeech": 5297,
      "Ġrandom": 5298,
      "Ġtruth": 5299,
      "ogn": 5300,
      "Willow": 5301,
      "Franklin": 5302,
      "ĠSeems": 5303,
      "ĠSuper": 5304,
      "Jeffrey": 5305,
      "Elias": 5306,
      "Ġquickly": 5307,
      "Ġforever": 5308,
      "ĠNatalie": 5309,
      "ĠCaroline": 5310,
      "Valerie": 5311,
      "Nadia": 5312,
      "Ġimmedi": 5313,
      "Ġoccas": 5314,
      "Ġintrod": 5315,
      "Otto": 5316,
      "Ġcredit": 5317,
      "Ġgarage": 5318,
      "EE": 5319,
      "Hen": 5320,
      "Miriam": 5321,
      "Yann": 5322,
      "iver": 5323,
      "ply": 5324,
      "picture": 5325,
      "von": 5326,
      "Ġslept": 5327,
      "Ġsushi": 5328,
      "Ġdig": 5329,
      "atic": 5330,
      "Ġlift": 5331,
      "ĠDor": 5332,
      "obias": 5333,
      "ĠRon": 5334,
      "ured": 5335,
      "Ġletting": 5336,
      "Ġfinding": 5337,
      "Ġperiod": 5338,
      "Thea": 5339,
      "Frankie": 5340,
      "ashion": 5341,
      "Eliza": 5342,
      "Noel": 5343,
      "ottie": 5344,
      "Ġattract": 5345,
      "ĠEveryone": 5346,
      "ĠCharles": 5347,
      "ergio": 5348,
      "Ġproperly": 5349,
      "Shawn": 5350,
      "ĠCongratulations": 5351,
      "Ġdemand": 5352,
      "Clem": 5353,
      "Ġjourney": 5354,
      "Ġtitle": 5355,
      "Ġtechn": 5356,
      "Ġopportunity": 5357,
      "Bethany": 5358,
      "Konrad": 5359,
      "Allie": 5360,
      "Lil": 5361,
      "Mitch": 5362,
      "iving": 5363,
      "jor": 5364,
      "zra": 5365,
      "Ġtips": 5366,
      "Ġbf": 5367,
      "Ġbast": 5368,
      "Ġborn": 5369,
      "Ġfacebook": 5370,
      "ester": 5371,
      "Ġpull": 5372,
      "Ġheavy": 5373,
      "ĠAbs": 5374,
      "ĠCal": 5375,
      "ĠDear": 5376,
      "Ġalive": 5377,
      "ĠPL": 5378,
      "Ġparties": 5379,
      "Ġhelpful": 5380,
      "aryl": 5381,
      "Ġdeath": 5382,
      "Ġground": 5383,
      "Ġapples": 5384,
      "ccording": 5385,
      "They": 5386,
      "Ġaccomm": 5387,
      "Ġawkward": 5388,
      "Ġpoints": 5389,
      "ĠSamantha": 5390,
      "Ġorganise": 5391,
      "Ġsupermark": 5392,
      "Ġhorror": 5393,
      "Cameron": 5394,
      "Ġbasket": 5395,
      "Ġcards": 5396,
      "ĠHopefully": 5397,
      "Ġcommon": 5398,
      "ĠMorris": 5399,
      "ĠMorning": 5400,
      "Florence": 5401,
      "Ġbuddy": 5402,
      "oween": 5403,
      "Ġdeliver": 5404,
      "Cristina": 5405,
      "ĠPortug": 5406,
      "Monika": 5407,
      "achary": 5408,
      "Ġhairdress": 5409,
      "Ġromantic": 5410,
      "Lib": 5411,
      "Tan": 5412,
      "cing": 5413,
      "gress": 5414,
      "mb": 5415,
      "zing": 5416,
      "Ġaud": 5417,
      "eral": 5418,
      "Ġcu": 5419,
      "Ġcal": 5420,
      "Ġchris": 5421,
      "Ġgrey": 5422,
      "itte": 5423,
      "Ġfort": 5424,
      "Ġreplace": 5425,
      "ĠMc": 5426,
      "uled": 5427,
      "ĠJay": 5428,
      "ĠJean": 5429,
      "ĠList": 5430,
      "ĠGary": 5431,
      "Ġplays": 5432,
      "urance": 5433,
      "ovember": 5434,
      "Ġvodka": 5435,
      "cape": 5436,
      "odes": 5437,
      "Ġamount": 5438,
      "Ġpray": 5439,
      "Ġapple": 5440,
      "Ġunless": 5441,
      "Ġactiv": 5442,
      "Mickey": 5443,
      "orman": 5444,
      "Ellis": 5445,
      "Ġheadache": 5446,
      "Ġopening": 5447,
      "Ġswitch": 5448,
      "umped": 5449,
      "ristan": 5450,
      "Ġsalad": 5451,
      "iffer": 5452,
      "Ġcomplaining": 5453,
      "Stephen": 5454,
      "Neil": 5455,
      "ĠShall": 5456,
      "Flora": 5457,
      "Rodney": 5458,
      "Ġtemp": 5459,
      "Ġlaughing": 5460,
      "Ġtaxi": 5461,
      "Ġfund": 5462,
      "Ġfruit": 5463,
      "Lindsey": 5464,
      "AY": 5465,
      "Garry": 5466,
      "Kel": 5467,
      "Muriel": 5468,
      "Trish": 5469,
      "Vince": 5470,
      "ders": 5471,
      "mie": 5472,
      "mare": 5473,
      "Ġ???": 5474,
      "oura": 5475,
      "Ġsand": 5476,
      "hah": 5477,
      "Ġbow": 5478,
      "Ġbills": 5479,
      "Ġda": 5480,
      "Ġgas": 5481,
      "Ġloo": 5482,
      "ites": 5483,
      "edy": 5484,
      "Ġhah": 5485,
      "ĠWor": 5486,
      "ĠWant": 5487,
      "Ġreception": 5488,
      "Ġ:'": 5489,
      "ĠMs": 5490,
      "ĠMine": 5491,
      "rix": 5492,
      "Ġsem": 5493,
      "ĠCol": 5494,
      "ĠDep": 5495,
      "pper": 5496,
      "Joel": 5497,
      "phone": 5498,
      "Ġeveryday": 5499,
      "Ġquiet": 5500,
      "Ġrecogn": 5501,
      "Ġhahahah": 5502,
      "Ġperfectly": 5503,
      "Ġsweater": 5504,
      "Magda": 5505,
      "velop": 5506,
      "Ġemploy": 5507,
      "Camille": 5508,
      "ĠStep": 5509,
      "Ġteaching": 5510,
      "Ġbucks": 5511,
      "Ġinsurance": 5512,
      "Ġpacked": 5513,
      "Ġpopular": 5514,
      "****": 5515,
      "Ġconvince": 5516,
      "Ġparticip": 5517,
      "Ġpolitical": 5518,
      "Ġanimal": 5519,
      "Ġskiing": 5520,
      "Stefan": 5521,
      "Ġatmosp": 5522,
      "Ġgossip": 5523,
      "ĠAbsolutely": 5524,
      "Ġhairdresser": 5525,
      "Aubrey": 5526,
      "Bonnie": 5527,
      "Ha": 5528,
      "Kla": 5529,
      "Kend": 5530,
      "SE": 5531,
      "Ter": 5532,
      "Vicki": 5533,
      "nest": 5534,
      "nment": 5535,
      "Ġbout": 5536,
      "Ġbrown": 5537,
      "Ġpen": 5538,
      "Ġpill": 5539,
      "Ġnails": 5540,
      "ĠSe": 5541,
      "Ġemer": 5542,
      "Ġste": 5543,
      "Ġstage": 5544,
      "Ġstories": 5545,
      "Ġsearch": 5546,
      "Ġseats": 5547,
      "Ġcand": 5548,
      "ĠOct": 5549,
      "ĠBra": 5550,
      "ĠNovember": 5551,
      "ĠDunno": 5552,
      "ĠJesus": 5553,
      "ĠLea": 5554,
      "ĠLarry": 5555,
      "Marianne": 5556,
      "Marilyn": 5557,
      "ĠEllie": 5558,
      "Ada": 5559,
      "Annette": 5560,
      "atural": 5561,
      "Ġsurv": 5562,
      "ĠJohnson": 5563,
      "Ġadvance": 5564,
      "Ġenjoying": 5565,
      "Ġintern": 5566,
      "Ġmedical": 5567,
      "ground": 5568,
      "ĠManchester": 5569,
      "Ġbehavi": 5570,
      "Ġeffect": 5571,
      "Ġembarr": 5572,
      "Ġextremely": 5573,
      "Ela": 5574,
      "King": 5575,
      "Laila": 5576,
      "Nicholas": 5577,
      "Rox": 5578,
      "Sp": 5579,
      "bing": 5580,
      "gues": 5581,
      "non": 5582,
      "ois": 5583,
      "Ġtut": 5584,
      "Ġtask": 5585,
      "Ġtbh": 5586,
      "Ġauth": 5587,
      "hel": 5588,
      "inston": 5589,
      "oro": 5590,
      "Ġdirty": 5591,
      "Ġlos": 5592,
      "Ġlake": 5593,
      "Ġnames": 5594,
      "Ġnoooo": 5595,
      "eted": 5596,
      "ĠMac": 5597,
      "ĠMandy": 5598,
      "Ġnote": 5599,
      "ĠOther": 5600,
      "ĠCr": 5601,
      "ĠCause": 5602,
      "Ġsugar": 5603,
      "ĠNic": 5604,
      "ĠNathan": 5605,
      "ĠDude": 5606,
      "ellent": 5607,
      "Marge": 5608,
      "Ġoran": 5609,
      "ĠEu": 5610,
      "Ġvar": 5611,
      "Ġ;*": 5612,
      "Luca": 5613,
      "ĠðŁĺģ": 5614,
      "Ġdevelop": 5615,
      "Ġprin": 5616,
      "ĠVicky": 5617,
      "Ġinvest": 5618,
      "ĠAlan": 5619,
      "Ġbird": 5620,
      "Ġeaten": 5621,
      "Ġputting": 5622,
      "Ġconfused": 5623,
      "Ġphotog": 5624,
      "Ġtransport": 5625,
      "Ġfiles": 5626,
      "ĠAround": 5627,
      "Ġmidnight": 5628,
      "Ġneighbor": 5629,
      "Ġloads": 5630,
      "Ġaccepted": 5631,
      "Arianna": 5632,
      "Shane": 5633,
      "ĠFreddie": 5634,
      "Ġelectric": 5635,
      "ĠKatie": 5636,
      "Ġupdate": 5637,
      "Ġrisk": 5638,
      "Roman": 5639,
      "Ġorganizing": 5640,
      "ĠMexico": 5641,
      "Ingrid": 5642,
      "ĠInternet": 5643,
      "Justine": 5644,
      "Ġimmediately": 5645,
      "Ġsupermarket": 5646,
      "Ġchrist": 5647,
      "ĠListen": 5648,
      "\",": 5649,
      "11": 5650,
      "As": 5651,
      "Aurora": 5652,
      "Bern": 5653,
      "Cate": 5654,
      "Dom": 5655,
      "Sienna": 5656,
      "clock": 5657,
      "Ġ+": 5658,
      "anor": 5659,
      "Ġgate": 5660,
      "Ġphys": 5661,
      "Ġlock": 5662,
      "omy": 5663,
      "ĠToby": 5664,
      "ĠSO": 5665,
      "ĠSince": 5666,
      "iders": 5667,
      "amed": 5668,
      "ĠAN": 5669,
      "Ġstat": 5670,
      "ĠMal": 5671,
      "Ġsuccess": 5672,
      "ĠDub": 5673,
      "âĢĳ": 5674,
      "ĠRoss": 5675,
      "ĠWhatever": 5676,
      "umn": 5677,
      "Ġthemselves": 5678,
      "ðŁĺĬ": 5679,
      "ĠKyle": 5680,
      "Ġweren": 5681,
      "Ġthoughts": 5682,
      "Ġbadly": 5683,
      "onda": 5684,
      "Ġresched": 5685,
      "ĠWhite": 5686,
      "Ġpayment": 5687,
      "ĠCaron": 5688,
      "Ġdresses": 5689,
      "Ġadded": 5690,
      "ennon": 5691,
      "Ġterm": 5692,
      "Doris": 5693,
      "Karol": 5694,
      "ernand": 5695,
      "Ġsimply": 5696,
      "ĠLooking": 5697,
      "Ġhopes": 5698,
      "ĠGoing": 5699,
      "Ġreports": 5700,
      "Dex": 5701,
      "Denis": 5702,
      "ĠPlus": 5703,
      "raphy": 5704,
      "Ġevents": 5705,
      "Ġdropped": 5706,
      "Ġcrying": 5707,
      "Ġsuspect": 5708,
      "Ġimprove": 5709,
      "ĠBritish": 5710,
      "ĠASAP": 5711,
      "Ġaccommodation": 5712,
      "Ġembarrass": 5713,
      "Ġorange": 5714,
      "AT": 5715,
      "Dina": 5716,
      "Erik": 5717,
      "Kian": 5718,
      "Mira": 5719,
      "Pen": 5720,
      "Zachary": 5721,
      "ey": 5722,
      "ray": 5723,
      "wh": 5724,
      "zzy": 5725,
      "âĻ": 5726,
      "Ġtree": 5727,
      "Ġsight": 5728,
      "Ġsli": 5729,
      "Ġdick": 5730,
      "ished": 5731,
      "Ġitem": 5732,
      "asks": 5733,
      "leen": 5734,
      "achael": 5735,
      "ĠSharon": 5736,
      "ĠHel": 5737,
      "ĠHouse": 5738,
      "ria": 5739,
      "roll": 5740,
      "ĠLogan": 5741,
      "unte": 5742,
      "see": 5743,
      "ector": 5744,
      "Alexa": 5745,
      "Ġnightmare": 5746,
      "ĠCanada": 5747,
      "Ġaction": 5748,
      "Ġrecommendations": 5749,
      "Ġexcuse": 5750,
      "Ġuseful": 5751,
      "Ġtexted": 5752,
      "Gabe": 5753,
      "Gaby": 5754,
      "Eddie": 5755,
      "Ġskin": 5756,
      "Meghan": 5757,
      "Ġborrowed": 5758,
      "Ġsubway": 5759,
      "Ġboat": 5760,
      "ĠMatthew": 5761,
      "ĠJimmy": 5762,
      "Ġdouble": 5763,
      "Ġclients": 5764,
      "Ġpolitics": 5765,
      "Ġhuman": 5766,
      "ĠQueen": 5767,
      "Ġdisgusting": 5768,
      "Ġgovernment": 5769,
      "ĠGreece": 5770,
      "Ġatmosphere": 5771,
      "Cody": 5772,
      "Cath": 5773,
      "Daryl": 5774,
      "Hans": 5775,
      "Lor": 5776,
      "Viola": 5777,
      "chan": 5778,
      "ville": 5779,
      "yatt": 5780,
      "Ġrow": 5781,
      "iner": 5782,
      "Ġsens": 5783,
      "eries": 5784,
      "arc": 5785,
      "Ġgf": 5786,
      "ota": 5787,
      "iller": 5788,
      "ĠTur": 5789,
      "ĠTime": 5790,
      "ĠSeptember": 5791,
      "ĠHon": 5792,
      "alks": 5793,
      "adays": 5794,
      "ĠMil": 5795,
      "Ġjud": 5796,
      "iram": 5797,
      "ĠBost": 5798,
      "Ġshout": 5799,
      "Ġprocess": 5800,
      "tek": 5801,
      "Ġexcept": 5802,
      "ĠElla": 5803,
      "lig": 5804,
      "Carla": 5805,
      "Martina": 5806,
      "Ġadm": 5807,
      "ĠUr": 5808,
      "Ġfuneral": 5809,
      "ĠHahahaha": 5810,
      "Ġeasily": 5811,
      "Ġprojects": 5812,
      "Ġhandle": 5813,
      "Ġsweetheart": 5814,
      "Ġemot": 5815,
      "ĠSteven": 5816,
      "Ġacross": 5817,
      "Ġhuh": 5818,
      "Ġcommun": 5819,
      "Ġsigned": 5820,
      "Ġyounger": 5821,
      "Ġfreaking": 5822,
      "Georgina": 5823,
      "ojtek": 5824,
      "ĠHalloween": 5825,
      "Ġdegrees": 5826,
      "Ġvolunte": 5827,
      "Frederick": 5828,
      "Skyler": 5829,
      "Ġcompetition": 5830,
      "ĠEurop": 5831,
      "ĠBoston": 5832,
      "),": 5833,
      "12": 5834,
      "Cass": 5835,
      "Hetty": 5836,
      "IT": 5837,
      "Lidia": 5838,
      "Nel": 5839,
      "Omar": 5840,
      "Pab": 5841,
      "ST": 5842,
      "gency": 5843,
      "iest": 5844,
      "light": 5845,
      "nan": 5846,
      "uing": 5847,
      "ued": 5848,
      "âĶ": 5849,
      "âĹ": 5850,
      "Ġyell": 5851,
      "Ġment": 5852,
      "Ġtowards": 5853,
      "Ġcult": 5854,
      "Ġfake": 5855,
      "Ġdish": 5856,
      "Ġnose": 5857,
      "itney": 5858,
      "ayley": 5859,
      "ĠShar": 5860,
      "ids": 5861,
      "iment": 5862,
      "Ġreunion": 5863,
      "elope": 5864,
      "vert": 5865,
      "eaks": 5866,
      "ĠOwen": 5867,
      "ĠBo": 5868,
      "Ġsuits": 5869,
      "ils": 5870,
      "Ġvill": 5871,
      "Ġrush": 5872,
      "Luna": 5873,
      "ĠHowever": 5874,
      "asey": 5875,
      "itted": 5876,
      "Ġroll": 5877,
      "Ġblond": 5878,
      "Ġdishes": 5879,
      "Ġkeeping": 5880,
      "Ġshared": 5881,
      "Elisa": 5882,
      "Ġsuggestions": 5883,
      "Ġdepart": 5884,
      "oken": 5885,
      "Ġbeauty": 5886,
      "Ġrepair": 5887,
      "Ġstrugg": 5888,
      "ĠUni": 5889,
      "ĠUnfortunately": 5890,
      "iiii": 5891,
      "Ġneighbours": 5892,
      "Ġpropos": 5893,
      "Peggy": 5894,
      "Ġcertainly": 5895,
      "Ġhandsome": 5896,
      "Ġsettled": 5897,
      "Wilson": 5898,
      "Ezra": 5899,
      "Ida": 5900,
      "Jar": 5901,
      "Ty": 5902,
      "Â´": 5903,
      "oned": 5904,
      "onso": 5905,
      "Ġbaking": 5906,
      "Ġyum": 5907,
      "Ġgam": 5908,
      "Ġgig": 5909,
      "Ġpun": 5910,
      "Ġpounds": 5911,
      "Ġpump": 5912,
      "Ġlar": 5913,
      "Ġlying": 5914,
      "ĠSanta": 5915,
      "ĠAir": 5916,
      "ĠAmazing": 5917,
      "alt": 5918,
      "Ġwilling": 5919,
      "Ġnearb": 5920,
      "ĠMake": 5921,
      "road": 5922,
      "ĠOut": 5923,
      "ential": 5924,
      "ĠDerek": 5925,
      "oreen": 5926,
      "ober": 5927,
      "Marisa": 5928,
      "ðŁį": 5929,
      "Ġcomment": 5930,
      "Ġrude": 5931,
      "Ġcheers": 5932,
      "ager": 5933,
      "Ġchose": 5934,
      "Ġcoat": 5935,
      "Ġenc": 5936,
      "apa": 5937,
      "Ġtrailer": 5938,
      "Ġmeetings": 5939,
      "Ġbooking": 5940,
      "Ġ80": 5941,
      "ĠDont": 5942,
      "Ġearn": 5943,
      "iko": 5944,
      "Ġcomplicated": 5945,
      "Ġshitty": 5946,
      "Ġgroups": 5947,
      "Ġinforms": 5948,
      "Ġinsp": 5949,
      "ĠAmelia": 5950,
      "ĠCheers": 5951,
      "Ġeventually": 5952,
      "ĠSometimes": 5953,
      "Ġmodel": 5954,
      "Ġcongratulations": 5955,
      "Ġcurrently": 5956,
      "Ġglasses": 5957,
      "ĠQuite": 5958,
      "encer": 5959,
      "Ġsatisfied": 5960,
      "Ġemergency": 5961,
      "Ġnearby": 5962,
      "Ginny": 5963,
      "Hel": 5964,
      "Jorge": 5965,
      "Kuba": 5966,
      "Mrs": 5967,
      "Summer": 5968,
      "Tristan": 5969,
      "app": 5970,
      "do": 5971,
      "iar": 5972,
      "onny": 5973,
      "Ġbal": 5974,
      "Ġbday": 5975,
      "Ġbreat": 5976,
      "Ġmir": 5977,
      "Ġyout": 5978,
      "Ġlu": 5979,
      "lend": 5980,
      "Ġbeat": 5981,
      "ĠTrevor": 5982,
      "ĠSan": 5983,
      "Ġecon": 5984,
      "Ġearth": 5985,
      "ĠWHAT": 5986,
      "Ġreleas": 5987,
      "ĠAugust": 5988,
      "ĠMa": 5989,
      "ĠMiss": 5990,
      "ĠNobody": 5991,
      "Ġassh": 5992,
      "Ġshy": 5993,
      "Ania": 5994,
      "tered": 5995,
      "terest": 5996,
      "ears": 5997,
      "ðŁĺľ": 5998,
      "ĠHigh": 5999,
      "Addison": 6000,
      "mmm": 6001,
      "Jules": 6002,
      "Ġ60": 6003,
      "ordon": 6004,
      "Ġscore": 6005,
      "Ġshowed": 6006,
      "Keira": 6007,
      "Ġinstall": 6008,
      "Ġcrit": 6009,
      "ĠChina": 6010,
      "Ġslight": 6011,
      "Ġkilled": 6012,
      "Ġcaf": 6013,
      "Carolyn": 6014,
      "Ġshocked": 6015,
      "Ġradio": 6016,
      "Ġvoted": 6017,
      "Calvin": 6018,
      "ĠGirls": 6019,
      "Lexi": 6020,
      "Ġfestival": 6021,
      "Raphael": 6022,
      "Kinga": 6023,
      "Ew": 6024,
      "Est": 6025,
      "Ka": 6026,
      "Kirst": 6027,
      "Maur": 6028,
      "Miley": 6029,
      "Vik": 6030,
      "Yu": 6031,
      "bn": 6032,
      "cut": 6033,
      "jo": 6034,
      "many": 6035,
      "nces": 6036,
      "ration": 6037,
      "ïģ": 6038,
      "rell": 6039,
      "Ġbi": 6040,
      "erved": 6041,
      "orah": 6042,
      "Ġdow": 6043,
      "Ġdying": 6044,
      "Ġgosh": 6045,
      "Ġgraph": 6046,
      "Ġnone": 6047,
      "enger": 6048,
      "isty": 6049,
      "illip": 6050,
      "Ġbeg": 6051,
      "Ġrelie": 6052,
      "ĠAven": 6053,
      "allie": 6054,
      "Ġant": 6055,
      "eared": 6056,
      "ĠBella": 6057,
      "ĠDylan": 6058,
      "rake": 6059,
      "oli": 6060,
      "asty": 6061,
      "Ġvan": 6062,
      "Ġspoke": 6063,
      "Ġrice": 6064,
      "Ġchoo": 6065,
      "Ġtrad": 6066,
      "Ġleaves": 6067,
      "shirt": 6068,
      "ĠStarb": 6069,
      "Ġinviting": 6070,
      "Ġinvoice": 6071,
      "Ġsmell": 6072,
      "riana": 6073,
      "ĠNeed": 6074,
      "Ġpromises": 6075,
      "Ġcountries": 6076,
      "okes": 6077,
      "Ġimpressed": 6078,
      "Ġpaint": 6079,
      "Ġincred": 6080,
      "Ġepisodes": 6081,
      "ĠGermany": 6082,
      "Ġcongrats": 6083,
      "Ġbrain": 6084,
      "Ġconnection": 6085,
      "ĠAmerican": 6086,
      "ðŁĺįðŁĺį": 6087,
      "Ġresponsible": 6088,
      "Ġpossibly": 6089,
      "ĠInstagram": 6090,
      "hemian": 6091,
      "Ġchapter": 6092,
      "Chuck": 6093,
      "Ġinvolved": 6094,
      "Ġoccasion": 6095,
      "Bianca": 6096,
      "Cris": 6097,
      "Crystal": 6098,
      "Dak": 6099,
      "Gi": 6100,
      "Her": 6101,
      "Ms": 6102,
      "Norman": 6103,
      "Pr": 6104,
      "Piotr": 6105,
      "RI": 6106,
      "Rachael": 6107,
      "Travis": 6108,
      "aks": 6109,
      "ban": 6110,
      "fl": 6111,
      "ho": 6112,
      "iara": 6113,
      "met": 6114,
      "pose": 6115,
      "uise": 6116,
      "Ġsix": 6117,
      "Ġburn": 6118,
      "Ġcouch": 6119,
      "Ġner": 6120,
      "Ġnah": 6121,
      "ety": 6122,
      "itz": 6123,
      "Ġobs": 6124,
      "Ġstom": 6125,
      "Ġseat": 6126,
      "ĠOb": 6127,
      "ĠCV": 6128,
      "ops": 6129,
      "ateful": 6130,
      "essert": 6131,
      "ĠPC": 6132,
      "arding": 6133,
      "ĠHah": 6134,
      "Ġparts": 6135,
      "ĠðŁĺİ": 6136,
      "arker": 6137,
      "Ġtruly": 6138,
      "gging": 6139,
      "Ġjobs": 6140,
      "ĠMarg": 6141,
      "Ġaware": 6142,
      "Helena": 6143,
      "mazon": 6144,
      "ĠBring": 6145,
      "Ġnumbers": 6146,
      "Ġowner": 6147,
      "Ġsuggested": 6148,
      "Ġconcern": 6149,
      "Ġsurprising": 6150,
      "Ġskip": 6151,
      "rabella": 6152,
      "Ġspeaking": 6153,
      "ĠâĿ¤ï¸ı": 6154,
      "ĠGotta": 6155,
      "ĠSomeone": 6156,
      "Ġriver": 6157,
      "ĠAmerica": 6158,
      "Ġentertain": 6159,
      "Ġexercis": 6160,
      "Elsie": 6161,
      "Ġclaims": 6162,
      "Ġcolleagues": 6163,
      "Ġcirc": 6164,
      "ĠDorothy": 6165,
      "Ġbastard": 6166,
      "Ġsurvive": 6167,
      "Ġyoutube": 6168,
      "Hope": 6169,
      "Kale": 6170,
      "Lila": 6171,
      "Parker": 6172,
      "Rand": 6173,
      "Tobias": 6174,
      "Wojtek": 6175,
      "ao": 6176,
      "case": 6177,
      "eg": 6178,
      "mission": 6179,
      "nov": 6180,
      "Ġtim": 6181,
      "Ġwild": 6182,
      "Ġsrsly": 6183,
      "hamm": 6184,
      "Ġbon": 6185,
      "Ġbarb": 6186,
      "Ġcarry": 6187,
      "Ġfla": 6188,
      "Ġfishing": 6189,
      "ari": 6190,
      "Ġlugg": 6191,
      "etch": 6192,
      "edro": 6193,
      "icity": 6194,
      "Ġokey": 6195,
      "Ġhig": 6196,
      "ĠTot": 6197,
      "ĠSouth": 6198,
      "idence": 6199,
      "Ġeve": 6200,
      "ĠWork": 6201,
      "ĠBart": 6202,
      "ĠDen": 6203,
      "ĠLong": 6204,
      "stan": 6205,
      "rison": 6206,
      "ĠFe": 6207,
      "Jodie": 6208,
      "Ġcomments": 6209,
      "umes": 6210,
      "quel": 6211,
      "ðŁĺģ": 6212,
      "Ġclim": 6213,
      "Ġcho": 6214,
      "oyd": 6215,
      "Ġpeace": 6216,
      "iction": 6217,
      "Adele": 6218,
      "Ġchannel": 6219,
      "Ġscan": 6220,
      "Ġscrew": 6221,
      "bye": 6222,
      "Janette": 6223,
      "Harriet": 6224,
      "ĠDanny": 6225,
      "Ġsetting": 6226,
      "Conor": 6227,
      "Conrad": 6228,
      "azz": 6229,
      "Ġsmaller": 6230,
      "ĠðŁĺĤðŁĺĤ": 6231,
      "Jasper": 6232,
      "Ġbottles": 6233,
      "ĠAgain": 6234,
      "Ġgenerally": 6235,
      "Ġmodern": 6236,
      "ĠNOT": 6237,
      "Ġlawyer": 6238,
      "Ġarriving": 6239,
      "Ġanimals": 6240,
      "Norma": 6241,
      "Ġcamera": 6242,
      "Ġmajor": 6243,
      "Ġvegetables": 6244,
      "Klaudia": 6245,
      "Candy": 6246,
      "Graham": 6247,
      "Kerry": 6248,
      "Lin": 6249,
      "Lora": 6250,
      "Sergio": 6251,
      "TF": 6252,
      "Wyatt": 6253,
      "cent": 6254,
      "Ġtend": 6255,
      "hamed": 6256,
      "ering": 6257,
      "Ġcale": 6258,
      "Ġdessert": 6259,
      "arf": 6260,
      "Ġglo": 6261,
      "Ġpills": 6262,
      "Ġloud": 6263,
      "Ġnatural": 6264,
      "omb": 6265,
      "itor": 6266,
      "ussel": 6267,
      "ĠTaylor": 6268,
      "ĠWil": 6269,
      "Ġugh": 6270,
      "Ġuber": 6271,
      "Ġsea": 6272,
      "Ġabroad": 6273,
      "ĠDam": 6274,
      "iland": 6275,
      "Ġshot": 6276,
      "Ġtheres": 6277,
      "ĠGoogle": 6278,
      "ĠPal": 6279,
      "asts": 6280,
      "epend": 6281,
      "ified": 6282,
      "Ġ26": 6283,
      "Ġ27": 6284,
      "igel": 6285,
      "Ġspa": 6286,
      "Ġrum": 6287,
      "ĠSheila": 6288,
      "avannah": 6289,
      "Ġdeep": 6290,
      "Annab": 6291,
      "Juli": 6292,
      "Juliet": 6293,
      "Amelie": 6294,
      "Ġbedroom": 6295,
      "ĠPatty": 6296,
      "Ġsnacks": 6297,
      "ĠHmmm": 6298,
      "Ġkilling": 6299,
      "Bartek": 6300,
      "ĠMelissa": 6301,
      "Ġcancer": 6302,
      "Ġargument": 6303,
      "ãĥ»": 6304,
      "Ġcreep": 6305,
      "Ġmaths": 6306,
      "ĠThai": 6307,
      "ĠThailand": 6308,
      "Ġeffort": 6309,
      "Ġmotiv": 6310,
      "Ġoperation": 6311,
      "Ġcrowded": 6312,
      "Ġdestroyed": 6313,
      "Bernie": 6314,
      "Ġnecessary": 6315,
      "Ġoriginal": 6316,
      "Kieran": 6317,
      "ĠStarbucks": 6318,
      "Avery": 6319,
      "Aisha": 6320,
      "Fanny": 6321,
      "IF": 6322,
      "Kent": 6323,
      "Ul": 6324,
      "Winston": 6325,
      "just": 6326,
      "rella": 6327,
      "onse": 6328,
      "Ġboot": 6329,
      "Ġyess": 6330,
      "Ġfac": 6331,
      "Ġgra": 6332,
      "Ġgather": 6333,
      "Ġpure": 6334,
      "Ġnational": 6335,
      "iter": 6336,
      "itions": 6337,
      "itude": 6338,
      "Ġhm": 6339,
      "Ġbec": 6340,
      "ĠSm": 6341,
      "ĠWon": 6342,
      "Ġsofa": 6343,
      "Ġjum": 6344,
      "Ġlif": 6345,
      "Ġplants": 6346,
      "arek": 6347,
      "rank": 6348,
      "Ġ23": 6349,
      "Ġ28": 6350,
      "phones": 6351,
      "Ġamb": 6352,
      "ending": 6353,
      "Emil": 6354,
      "Ġcock": 6355,
      "Ġdeb": 6356,
      "Jenson": 6357,
      "Ġcompan": 6358,
      "Ġunf": 6359,
      "Ġ45": 6360,
      "ĠIsland": 6361,
      "Ġ70": 6362,
      "Ġscrat": 6363,
      "Ġshowing": 6364,
      "Kev": 6365,
      "Ġfamil": 6366,
      "Roberta": 6367,
      "Ġrooms": 6368,
      "Grayson": 6369,
      "Clar": 6370,
      "aurie": 6371,
      "Ġterrif": 6372,
      "Ġcharger": 6373,
      "Reese": 6374,
      "Ġpainting": 6375,
      "Vera": 6376,
      "Ġanswering": 6377,
      "Ġescape": 6378,
      "Ġsunny": 6379,
      "Ġtasty": 6380,
      "Ġmenu": 6381,
      "Allen": 6382,
      "Allison": 6383,
      "Ġfalling": 6384,
      "Ġpurpose": 6385,
      "Ġsolve": 6386,
      "Ġslowly": 6387,
      "Ġstarving": 6388,
      "Eleanor": 6389,
      "ï½ŀ": 6390,
      "Ġcharacter": 6391,
      "ĠLucky": 6392,
      "Ġbullshit": 6393,
      "Ġsandw": 6394,
      "ĠOctober": 6395,
      "Ġauthor": 6396,
      "ĠEuropean": 6397,
      "Ġluggage": 6398,
      "Ġcalend": 6399,
      "!?": 6400,
      "'.": 6401,
      "//": 6402,
      "AM": 6403,
      "Bla": 6404,
      "Bailey": 6405,
      "Hector": 6406,
      "Izzy": 6407,
      "OM": 6408,
      "__": 6409,
      "ael": 6410,
      "mut": 6411,
      "par": 6412,
      "sung": 6413,
      "Ġtight": 6414,
      "inating": 6415,
      "Ġbesides": 6416,
      "Ġdiss": 6417,
      "Ġpanc": 6418,
      "Ġlem": 6419,
      "Ġnetflix": 6420,
      "ided": 6421,
      "Ġeuro": 6422,
      "ĠAna": 6423,
      "ĠAli": 6424,
      "Ġsemin": 6425,
      "chit": 6426,
      "ĠBry": 6427,
      "ĠBrown": 6428,
      "ĠJordan": 6429,
      "âĢį": 6430,
      "raine": 6431,
      "Ġplant": 6432,
      "ĠPS": 6433,
      "Ġprod": 6434,
      "ntown": 6435,
      "Ġnowadays": 6436,
      "ranny": 6437,
      "Ġrich": 6438,
      "Ġhadn": 6439,
      "ĠYesterday": 6440,
      "Ġenvy": 6441,
      "Ġrecover": 6442,
      "ĠThought": 6443,
      "ĠUgh": 6444,
      "Ġapplic": 6445,
      "Ġuns": 6446,
      "Ġrole": 6447,
      "Ġprobs": 6448,
      "Ġsmoke": 6449,
      "Ġhardly": 6450,
      "Ġadvent": 6451,
      "Ġinflu": 6452,
      "Trudy": 6453,
      "Ġdecides": 6454,
      "Ġfilms": 6455,
      "Ġchallen": 6456,
      "ĠðŁĺĤðŁĺĤðŁĺĤ": 6457,
      "Ġnearly": 6458,
      "ĠCharlotte": 6459,
      "yyyy": 6460,
      "Deborah": 6461,
      "Felicia": 6462,
      "ĠMelanie": 6463,
      "Ġscheduled": 6464,
      "Ġprofessional": 6465,
      "Gabriella": 6466,
      "Gerald": 6467,
      "ĠAngela": 6468,
      "Ġcharacters": 6469,
      "ĠTwo": 6470,
      "ĠOtherwise": 6471,
      "Ġchristmas": 6472,
      "AR": 6473,
      "Erick": 6474,
      "Fin": 6475,
      "Kira": 6476,
      "Mate": 6477,
      "gs": 6478,
      "kin": 6479,
      "moro": 6480,
      "nite": 6481,
      "âĪ": 6482,
      "Ġest": 6483,
      "Ġtiny": 6484,
      "Ġtasks": 6485,
      "Ġborder": 6486,
      "ani": 6487,
      "Ġfol": 6488,
      "Ġfurn": 6489,
      "Ġfashion": 6490,
      "Ġdare": 6491,
      "Ġpiano": 6492,
      "Ġnuts": 6493,
      "iture": 6494,
      "Ġhob": 6495,
      "illed": 6496,
      "ĠSay": 6497,
      "Ġrehe": 6498,
      "ĠAfr": 6499,
      "Ġ:<": 6500,
      "ĠMo": 6501,
      "Ġjer": 6502,
      "Ġnoteb": 6503,
      "ĠBir": 6504,
      "ĠBig": 6505,
      "Ġwasted": 6506,
      "ĠDomin": 6507,
      "Ġsometime": 6508,
      "ĠðŁĺĥ": 6509,
      "Jeniffer": 6510,
      "Ġfriendly": 6511,
      "Robbie": 6512,
      "Britney": 6513,
      "Ġplayers": 6514,
      "gged": 6515,
      "Ġblank": 6516,
      "Ġfreezing": 6517,
      "ierra": 6518,
      "Ġpresident": 6519,
      "pei": 6520,
      "Ġcooked": 6521,
      "everly": 6522,
      "Ġsweets": 6523,
      "Ġinstruct": 6524,
      "Ashton": 6525,
      "Ġsupervis": 6526,
      "Ricardo": 6527,
      "Ġbased": 6528,
      "Ġchair": 6529,
      "Ġchamp": 6530,
      "celona": 6531,
      "Ġrespond": 6532,
      "Ġrefuses": 6533,
      "Raymond": 6534,
      "Ġconfirmed": 6535,
      "Felicity": 6536,
      "Shannon": 6537,
      "Ġdocuments": 6538,
      "Ġfreak": 6539,
      "Ġparcel": 6540,
      "Ġmemories": 6541,
      "Angelina": 6542,
      "Ġ2019": 6543,
      "Milena": 6544,
      "ĠBarcelona": 6545,
      "Ġgrocery": 6546,
      "Ġcustomer": 6547,
      "Jacqueline": 6548,
      "ĠFinally": 6549,
      "Ġmillion": 6550,
      "ĠSharpei": 6551,
      "bnb": 6552,
      "Ġdowntown": 6553,
      "ĠMargaret": 6554,
      "âĢįâĻ": 6555,
      "ĠAfrica": 6556,
      "=)": 6557,
      "Haz": 6558,
      "Iv": 6559,
      "Liv": 6560,
      "VER": 6561,
      "back": 6562,
      "fy": 6563,
      "ford": 6564,
      "link": 6565,
      "âĺ": 6566,
      "Ġble": 6567,
      "nda": 6568,
      "Ġpus": 6569,
      "Ġlay": 6570,
      "oma": 6571,
      "Ġitself": 6572,
      "Ġinj": 6573,
      "ĠTra": 6574,
      "ĠTyler": 6575,
      "ĠSkype": 6576,
      "Ġmechan": 6577,
      "ĠWha": 6578,
      "irgin": 6579,
      "entin": 6580,
      "ĠBT": 6581,
      "ĠCindy": 6582,
      "ĠLis": 6583,
      "ĠLee": 6584,
      "ecue": 6585,
      "ðŁİ": 6586,
      "ĠFB": 6587,
      "Ġexha": 6588,
      "ivered": 6589,
      "eegan": 6590,
      "Ġbackpack": 6591,
      "harm": 6592,
      "Ġsaved": 6593,
      "ĠHiya": 6594,
      "izz": 6595,
      "Franc": 6596,
      "Ġgrateful": 6597,
      "ĠVer": 6598,
      "ĠJoanna": 6599,
      "Ġresign": 6600,
      "ĠNeither": 6601,
      "Ġdelivered": 6602,
      "Lucia": 6603,
      "Ġdeserve": 6604,
      "Ġdepressed": 6605,
      "Ġmarch": 6606,
      "Ġlived": 6607,
      "Bradley": 6608,
      "Ernest": 6609,
      "ĠBlake": 6610,
      "Ġstanding": 6611,
      "Ġsorted": 6612,
      "Ġexperien": 6613,
      "Damon": 6614,
      "Ġrefere": 6615,
      "Ġpieces": 6616,
      "Ġneighbourhood": 6617,
      "Ġproposed": 6618,
      "Ġoppos": 6619,
      "Ġtemper": 6620,
      "Vivian": 6621,
      "Cecilia": 6622,
      "Angelica": 6623,
      "Ġcreated": 6624,
      "Ġdirectly": 6625,
      "Ġturning": 6626,
      "Wesley": 6627,
      "ĠBasically": 6628,
      "Ġbattery": 6629,
      "Ġspoil": 6630,
      "ĠPortugal": 6631,
      "Ġreschedule": 6632,
      "Penelope": 6633,
      "Ġcommunic": 6634,
      "Ġyellow": 6635,
      "Ġreleased": 6636,
      "ĠTotally": 6637,
      "Ġbecame": 6638,
      "Arabella": 6639,
      "Lana": 6640,
      "Lottie": 6641,
      "OD": 6642,
      "OR": 6643,
      "Oct": 6644,
      "Rh": 6645,
      "Selma": 6646,
      "Ze": 6647,
      "giving": 6648,
      "uf": 6649,
      "ï¾": 6650,
      "Ġtap": 6651,
      "hett": 6652,
      "Ġways": 6653,
      "erge": 6654,
      "Ġcris": 6655,
      "arian": 6656,
      "Ġlent": 6657,
      "Ġloose": 6658,
      "Ġooo": 6659,
      "Ġoven": 6660,
      "ĠTHAT": 6661,
      "aco": 6662,
      "ĠSyl": 6663,
      "Ġmeas": 6664,
      "ĠWatch": 6665,
      "Ġstunning": 6666,
      "rig": 6667,
      "Ġjo": 6668,
      "Ġknock": 6669,
      "hant": 6670,
      "ĠBang": 6671,
      "ĠBtw": 6672,
      "ĠBesides": 6673,
      "ĠCor": 6674,
      "ĠCroat": 6675,
      "herry": 6676,
      "ĠDel": 6677,
      "ĠLeah": 6678,
      "Ġwhom": 6679,
      "urity": 6680,
      "Marika": 6681,
      "Ġprogress": 6682,
      "Ġoutfit": 6683,
      "ĠEaster": 6684,
      "Ġrn": 6685,
      "ĠThats": 6686,
      "Ġteen": 6687,
      "Ġtrash": 6688,
      "Ġdrama": 6689,
      "Ġresult": 6690,
      "Ġends": 6691,
      "Grand": 6692,
      "Ġtexts": 6693,
      "Ġrealised": 6694,
      "Ġrare": 6695,
      "Ġconsiders": 6696,
      "Ġskills": 6697,
      "Ġbabys": 6698,
      "Ġcharity": 6699,
      "Jonah": 6700,
      "ĠExc": 6701,
      "Madeline": 6702,
      "Ġdiscussing": 6703,
      "OOOO": 6704,
      "Ġcollection": 6705,
      "Ġrecipes": 6706,
      "Bryce": 6707,
      "Aida": 6708,
      "Ġargue": 6709,
      "Ġpotatoes": 6710,
      "ilarious": 6711,
      "Ġboarding": 6712,
      "Ġhurts": 6713,
      "ðŁ¤£": 6714,
      "Alyssa": 6715,
      "ĠLouis": 6716,
      "ĠRosie": 6717,
      "Ġsharing": 6718,
      "Ġofficial": 6719,
      "Ġcontinue": 6720,
      "Ġsuddenly": 6721,
      "Manuel": 6722,
      "Ġencoura": 6723,
      "lendid": 6724,
      "Ġasshole": 6725,
      "Ald": 6726,
      "Cory": 6727,
      "Dale": 6728,
      "Hiram": 6729,
      "In": 6730,
      "July": 6731,
      "Kaz": 6732,
      "Ned": 6733,
      "Pay": 6734,
      "Savannah": 6735,
      "bi": 6736,
      "belie": 6737,
      "mother": 6738,
      "vable": 6739,
      "zil": 6740,
      "Ġtab": 6741,
      "Ġsake": 6742,
      "Ġbrow": 6743,
      "Ġbase": 6744,
      "orate": 6745,
      "Ġfant": 6746,
      "Ġfasc": 6747,
      "ndred": 6748,
      "Ġlic": 6749,
      "Ġlab": 6750,
      "illian": 6751,
      "ĠHugh": 6752,
      "Ġrenov": 6753,
      "ĠAmazon": 6754,
      "Ġjew": 6755,
      "iao": 6756,
      "ĠBu": 6757,
      "ĠBecky": 6758,
      "Ġship": 6759,
      "Ġwhis": 6760,
      "ĠTheir": 6761,
      "ĠGeez": 6762,
      "ĠPet": 6763,
      "ability": 6764,
      "ĠHehe": 6765,
      "Ġnoise": 6766,
      "estor": 6767,
      "berry": 6768,
      "hne": 6769,
      "Alba": 6770,
      "Ġchips": 6771,
      "Ġ35": 6772,
      "Ġxmas": 6773,
      "Ġprinc": 6774,
      "Ġmeaning": 6775,
      "Brand": 6776,
      "ĠVen": 6777,
      "Ġperf": 6778,
      "Ġroomm": 6779,
      "Ġbless": 6780,
      "Michal": 6781,
      "reston": 6782,
      "Ġsupper": 6783,
      "Ġsmoking": 6784,
      "Ġdelete": 6785,
      "Ġcruise": 6786,
      "Clair": 6787,
      "Rey": 6788,
      "Ġcleaner": 6789,
      "Ġhaircut": 6790,
      "Ġsubmit": 6791,
      "Marcin": 6792,
      "Ġhmmm": 6793,
      "Ġdreams": 6794,
      "Allan": 6795,
      "Ġengaged": 6796,
      "Ġapproach": 6797,
      "ĠFlorence": 6798,
      "Ġbooze": 6799,
      "Eleon": 6800,
      "LLY": 6801,
      "Ġsquare": 6802,
      "Ġprinter": 6803,
      "Ġsightsee": 6804,
      "Ġconcerned": 6805,
      "Juliette": 6806,
      "Ġfurniture": 6807,
      "?!!": 6808,
      "Di": 6809,
      "Fay": 6810,
      "Gis": 6811,
      "Im": 6812,
      "Mort": 6813,
      "Mollie": 6814,
      "Russ": 6815,
      "Serge": 6816,
      "Tonia": 6817,
      "but": 6818,
      "eh": 6819,
      "rite": 6820,
      "rich": 6821,
      "ys": 6822,
      "ï¿": 6823,
      "Ġing": 6824,
      "Ĥ¬": 6825,
      "Ġtm": 6826,
      "Ġtennis": 6827,
      "hand": 6828,
      "Ġtow": 6829,
      "Ġcow": 6830,
      "Ġcig": 6831,
      "Ġcuz": 6832,
      "Ġfro": 6833,
      "otter": 6834,
      "usz": 6835,
      "using": 6836,
      "oop": 6837,
      "ĠTam": 6838,
      "ĠWish": 6839,
      "ĠWTF": 6840,
      "lda": 6841,
      "ldon": 6842,
      "Ġrema": 6843,
      "omek": 6844,
      "ĠAust": 6845,
      "adem": 6846,
      "Ġkk": 6847,
      "rianna": 6848,
      "riage": 6849,
      "Ġjokes": 6850,
      "ĠOl": 6851,
      "ĠOoo": 6852,
      "entle": 6853,
      "antly": 6854,
      "ĠCle": 6855,
      "ĠLes": 6856,
      "Ġshel": 6857,
      "ppe": 6858,
      "ĠTheresa": 6859,
      "ĠGame": 6860,
      "ĠGreen": 6861,
      "ĠGeorg": 6862,
      "ural": 6863,
      "ĠHead": 6864,
      "aina": 6865,
      "Ġspir": 6866,
      "ĠAndre": 6867,
      "Ġarm": 6868,
      "Ġarran": 6869,
      "aga": 6870,
      "issy": 6871,
      "Ġxox": 6872,
      "Ġourselves": 6873,
      "aphne": 6874,
      "ĠUber": 6875,
      "ĠValent": 6876,
      "Ġsmooth": 6877,
      "Ġadvise": 6878,
      "bridge": 6879,
      "Ġmatters": 6880,
      "oooooooo": 6881,
      "Ġreality": 6882,
      "Ġassume": 6883,
      "Ġtests": 6884,
      "Ġregarding": 6885,
      "ĠRobin": 6886,
      "Ġemails": 6887,
      "Ġrestaurants": 6888,
      "ĠAmber": 6889,
      "ĠZara": 6890,
      "ĠðŁĻĦ": 6891,
      "Ġhanging": 6892,
      "Ġhangover": 6893,
      "Jeanette": 6894,
      "Chase": 6895,
      "arisse": 6896,
      "Ġrenting": 6897,
      "ĠDoesn": 6898,
      "Ġsexy": 6899,
      "Ġbehave": 6900,
      "Ġcolours": 6901,
      "Alfie": 6902,
      "ĠLouise": 6903,
      "ĠRussian": 6904,
      "ĠCarlos": 6905,
      "Ġimpression": 6906,
      "Ġresponsib": 6907,
      "Ġâĺº": 6908,
      "Ġreckons": 6909,
      "Marshall": 6910,
      "ĠDepends": 6911,
      "ĠHonest": 6912,
      "Ġexercises": 6913,
      "Octav": 6914,
      ";-)": 6915,
      "Coll": 6916,
      "Casey": 6917,
      "Hayley": 6918,
      "Jad": 6919,
      "Pier": 6920,
      "Sal": 6921,
      "Smith": 6922,
      "cious": 6923,
      "fess": 6924,
      "gest": 6925,
      "Ġ#": 6926,
      "Ġïģ": 6927,
      "Ġtiring": 6928,
      "Ġsour": 6929,
      "ĠID": 6930,
      "Ġmiles": 6931,
      "Ġtor": 6932,
      "Ġcell": 6933,
      "Ġcovered": 6934,
      "Ġgar": 6935,
      "Ġpo": 6936,
      "Ġlines": 6937,
      "Ġnamed": 6938,
      "isher": 6939,
      "otic": 6940,
      "asmine": 6941,
      "Ġbear": 6942,
      "Ġthursday": 6943,
      "ĠSal": 6944,
      "ĠAccording": 6945,
      "adie": 6946,
      "Ġstre": 6947,
      "Ġsore": 6948,
      "ĠBea": 6949,
      "ĠBrenda": 6950,
      "ĠCost": 6951,
      "Ġsubs": 6952,
      "rak": 6953,
      "olen": 6954,
      "ĠThese": 6955,
      "uros": 6956,
      "ceed": 6957,
      "Ġnovel": 6958,
      "estiny": 6959,
      "ĠRita": 6960,
      "ĠEvan": 6961,
      "Ġcomb": 6962,
      "Ġuseless": 6963,
      "live": 6964,
      "liff": 6965,
      "igning": 6966,
      "ĠKind": 6967,
      "ousand": 6968,
      "agger": 6969,
      "Alvin": 6970,
      "ĠðŁĺħ": 6971,
      "Ġadop": 6972,
      "Ġremem": 6973,
      "Steph": 6974,
      "Ġtries": 6975,
      "ilde": 6976,
      "ĠAnyways": 6977,
      "aches": 6978,
      "ĠHahah": 6979,
      "oco": 6980,
      "Michaela": 6981,
      "ĠShow": 6982,
      "Ġconfident": 6983,
      "Dorian": 6984,
      "Ġorganising": 6985,
      "Reggie": 6986,
      "Ġcleaned": 6987,
      "urther": 6988,
      "Ġanswers": 6989,
      "Ġreasonable": 6990,
      "Ġcentral": 6991,
      "Ġlegs": 6992,
      "Ġsnowing": 6993,
      "cription": 6994,
      "Ġcongratul": 6995,
      "Ġelection": 6996,
      "Ġgradu": 6997,
      "Francesca": 6998,
      "Ġstressful": 6999,
      "ĠAngel": 7000,
      "Ġhesit": 7001,
      "Ġreviews": 7002,
      "Ġpromotion": 7003,
      "Ġcapital": 7004,
      "Ġgroceries": 7005,
      "Irma": 7006,
      "Moira": 7007,
      "Ġfrustrated": 7008,
      "Ġpostpone": 7009,
      "Ġtypical": 7010,
      "Libby": 7011,
      "Ġtutor": 7012,
      "ĠDublin": 7013,
      "Pablo": 7014,
      "Ġincredible": 7015,
      "Ġcalendar": 7016,
      "ĠCroatia": 7017,
      "ï¿£": 7018,
      "ĠHonestly": 7019,
      "AN": 7020,
      "Bec": 7021,
      "Dirk": 7022,
      "Gia": 7023,
      "Jam": 7024,
      "Laurie": 7025,
      "Mack": 7026,
      "Pad": 7027,
      "Pedro": 7028,
      "Tania": 7029,
      "\\\\": 7030,
      "eoff": 7031,
      "lus": 7032,
      "mo": 7033,
      "nam": 7034,
      "sac": 7035,
      "ware": 7036,
      "Ġow": 7037,
      "Ġsch": 7038,
      "Ġive": 7039,
      "Ġiron": 7040,
      "Ġyay": 7041,
      "Ġmur": 7042,
      "Ġfaster": 7043,
      "Ġdia": 7044,
      "Ġgoo": 7045,
      "Ġpharm": 7046,
      "Ġlie": 7047,
      "Ġnet": 7048,
      "eta": 7049,
      "Ġham": 7050,
      "Ġhilarious": 7051,
      "Ġbee": 7052,
      "ĠSH": 7053,
      "ĠSir": 7054,
      "ĠScott": 7055,
      "Ġmeals": 7056,
      "Ġneck": 7057,
      "ĠMust": 7058,
      "Ġjump": 7059,
      "usted": 7060,
      "ĠOld": 7061,
      "ĠCount": 7062,
      "ĠDean": 7063,
      "ĠDeb": 7064,
      "ilt": 7065,
      "Ġhers": 7066,
      "Ġexagger": 7067,
      "ĠEllen": 7068,
      "Ġcomfy": 7069,
      "aint": 7070,
      "Ġtomatoes": 7071,
      "Ġcheated": 7072,
      "Ġwatches": 7073,
      "ĠJustin": 7074,
      "Ġ:(((": 7075,
      "Ġdecl": 7076,
      "ogen": 7077,
      "Ġcares": 7078,
      "Ġaccom": 7079,
      "Ġending": 7080,
      "Ġstudio": 7081,
      "!!!!!!": 7082,
      "Ġmessenger": 7083,
      "Ġdressed": 7084,
      "Ġposts": 7085,
      "Ġordering": 7086,
      "Ġassist": 7087,
      "Karina": 7088,
      "ĠBefore": 7089,
      "Ġhundred": 7090,
      "Ġgrandmother": 7091,
      "ĠPerhaps": 7092,
      "ĠLeon": 7093,
      "ï¼¿": 7094,
      "duction": 7095,
      "Debra": 7096,
      "Neva": 7097,
      "Ġannoyed": 7098,
      "Ġmemory": 7099,
      "Cecil": 7100,
      "Alec": 7101,
      "Ġprovide": 7102,
      "Ġmembers": 7103,
      "ĠComing": 7104,
      "Ġdecorations": 7105,
      "Petra": 7106,
      "Ġdivorce": 7107,
      "Ġactivities": 7108,
      "Terrence": 7109,
      "ĠNicole": 7110,
      "Ġjudge": 7111,
      "Ġslightly": 7112,
      "Ġchoosing": 7113,
      "Ġcreepy": 7114,
      "Ariana": 7115,
      "Beverly": 7116,
      "Dec": 7117,
      "Drake": 7118,
      "EN": 7119,
      "Gus": 7120,
      "Hal": 7121,
      "Lane": 7122,
      "Mak": 7123,
      "Made": 7124,
      "Pal": 7125,
      "Sky": 7126,
      "Sydney": 7127,
      "Tory": 7128,
      "hny": 7129,
      "yon": 7130,
      "ÃĹ": 7131,
      "Ġtalent": 7132,
      "reed": 7133,
      "Ġbik": 7134,
      "erri": 7135,
      "orable": 7136,
      "Ġfired": 7137,
      "Ġfurther": 7138,
      "ndum": 7139,
      "Ġgrown": 7140,
      "Ġpers": 7141,
      "Ġpock": 7142,
      "Ġlas": 7143,
      "enzie": 7144,
      "atform": 7145,
      "ister": 7146,
      "Ġweed": 7147,
      "ĠSandy": 7148,
      "ĠWH": 7149,
      "ĠHolly": 7150,
      "alog": 7151,
      "Ġ:>": 7152,
      "Ġnegot": 7153,
      "rol": 7154,
      "ĠCU": 7155,
      "ĠCity": 7156,
      "Ġsunday": 7157,
      "ĠDis": 7158,
      "ĠDonald": 7159,
      "ilities": 7160,
      "ules": 7161,
      "ĠGal": 7162,
      "ĠGosh": 7163,
      "Ġplot": 7164,
      "ĠPotter": 7165,
      "Margot": 7166,
      "ĠFel": 7167,
      "ĠFair": 7168,
      "ĠRory": 7169,
      "Ġconven": 7170,
      "Ġviol": 7171,
      "Ġspring": 7172,
      "Ġrough": 7173,
      "Ġarchit": 7174,
      "new": 7175,
      "Ġcheating": 7176,
      "assy": 7177,
      "Ġcoz": 7178,
      "Ġcoach": 7179,
      "Ġdefin": 7180,
      "Adrien": 7181,
      "Ġpartying": 7182,
      "ĠThr": 7183,
      "Ġweekends": 7184,
      "Olive": 7185,
      "Ġscen": 7186,
      "ension": 7187,
      "ĠMeet": 7188,
      "Ġstudied": 7189,
      "Arnie": 7190,
      "awn": 7191,
      "Ġstops": 7192,
      "Ġrecommendation": 7193,
      "Ġdeleted": 7194,
      "ĠCarrie": 7195,
      "Elise": 7196,
      "Clarisse": 7197,
      "Agata": 7198,
      "Ġpaink": 7199,
      "ĠSamsung": 7200,
      "ĠFrancis": 7201,
      "Jonas": 7202,
      "Maddy": 7203,
      "Ġbasic": 7204,
      "Ġpainful": 7205,
      "Ġpacking": 7206,
      "Ġexpert": 7207,
      "Damien": 7208,
      "Ġrefused": 7209,
      "ĠJessie": 7210,
      "Ġforecast": 7211,
      "hapsody": 7212,
      "Ġmistakes": 7213,
      "ĠMadrid": 7214,
      "Ġpropose": 7215,
      "Ġcreative": 7216,
      "ĠCambridge": 7217,
      "Ġâĺ¹": 7218,
      "Elsa": 7219,
      "Ġincluding": 7220,
      "Artur": 7221,
      "Ġallergic": 7222,
      "ĠRoad": 7223,
      "Ġintroduce": 7224,
      "Ġdaily": 7225,
      "Ġsemester": 7226,
      "Ġbehaviour": 7227,
      "Spencer": 7228,
      "ernandez": 7229,
      "Esther": 7230,
      "Ġbarbecue": 7231,
      "Hazel": 7232,
      "Ġopposite": 7233,
      "Ġsightseeing": 7234,
      "Declan": 7235,
      "25": 7236,
      ":/": 7237,
      "Ah": 7238,
      "BC": 7239,
      "CK": 7240,
      "Dustin": 7241,
      "Guy": 7242,
      "Jaz": 7243,
      "Keegan": 7244,
      "Nestor": 7245,
      "Papa": 7246,
      "Sven": 7247,
      "fits": 7248,
      "kok": 7249,
      "list": 7250,
      "yah": 7251,
      "âĿ¤ï¸ı": 7252,
      "Ġahh": 7253,
      "oucher": 7254,
      "Ġsam": 7255,
      "Ġsym": 7256,
      "ĠIK": 7257,
      "ĠIll": 7258,
      "Ġbla": 7259,
      "Ġbene": 7260,
      "Ġmic": 7261,
      "Ġmuff": 7262,
      "Ġtooth": 7263,
      "ingo": 7264,
      "Ġdump": 7265,
      "Ġdrank": 7266,
      "arm": 7267,
      "Ġginger": 7268,
      "Ġpants": 7269,
      "Ġlack": 7270,
      "Ġnasty": 7271,
      "atan": 7272,
      "itty": 7273,
      "leg": 7274,
      "Ġheating": 7275,
      "illers": 7276,
      "Ġthousand": 7277,
      "ĠTinder": 7278,
      "iden": 7279,
      "ĠHome": 7280,
      "Ġstorm": 7281,
      "Ġstock": 7282,
      "Ġuna": 7283,
      "verse": 7284,
      "ryn": 7285,
      "Ġang": 7286,
      "Ġlip": 7287,
      "Ġshes": 7288,
      "ourse": 7289,
      "ĠPizza": 7290,
      "Ġupstairs": 7291,
      "ĠFantastic": 7292,
      "ĠRuby": 7293,
      "Ġuses": 7294,
      "bered": 7295,
      "Ġvoucher": 7296,
      "iguel": 7297,
      "Ġspam": 7298,
      "Ġsauce": 7299,
      "Carlie": 7300,
      "ĠðŁĺ±": 7301,
      "Ġdrug": 7302,
      "Ġkeen": 7303,
      "Ġplayer": 7304,
      "Ġrob": 7305,
      "ography": 7306,
      "ĠAlready": 7307,
      "onya": 7308,
      "Ġmisses": 7309,
      "Ġbiggest": 7310,
      "Ġawww": 7311,
      "Mariah": 7312,
      "Phillip": 7313,
      "Ġbabes": 7314,
      "ienne": 7315,
      "Ġdepress": 7316,
      "ĠDanie": 7317,
      "Ġrail": 7318,
      "Ġhighly": 7319,
      "Nicolas": 7320,
      "ologist": 7321,
      "Ġhotels": 7322,
      "Ġagreement": 7323,
      "Ġlearned": 7324,
      "Ġcelebrating": 7325,
      "Ġrelated": 7326,
      "Ġpleasant": 7327,
      "Ġbags": 7328,
      "Ġlegal": 7329,
      "Ġreturned": 7330,
      "Neville": 7331,
      "ĠEdward": 7332,
      "Ġhitting": 7333,
      "Ġfollowing": 7334,
      "Ġlights": 7335,
      "Ġindepend": 7336,
      "Ġtranslation": 7337,
      "Ġexercise": 7338,
      "Ġallowed": 7339,
      "ĠLuckily": 7340,
      "ascal": 7341,
      "burg": 7342,
      "Ġblocked": 7343,
      "Quinn": 7344,
      "Ġvalue": 7345,
      "ribly": 7346,
      "Ġfortune": 7347,
      "ĠBrazil": 7348,
      "ĠBohemian": 7349,
      "Ġstomach": 7350,
      "Randall": 7351,
      "Ġchoices": 7352,
      "Ġpancakes": 7353,
      "ĠLisbon": 7354,
      "Ġreferendum": 7355,
      "ĠBangkok": 7356,
      "believable": 7357,
      ")(": 7358,
      "AS": 7359,
      "Boj": 7360,
      "Der": 7361,
      "Doreen": 7362,
      "Nell": 7363,
      "Nigel": 7364,
      "OL": 7365,
      "Row": 7366,
      "UT": 7367,
      "made": 7368,
      "rom": 7369,
      "rand": 7370,
      "rict": 7371,
      "ubert": 7372,
      "ÅĤ": 7373,
      "het": 7374,
      "Ġsna": 7375,
      "ĠIre": 7376,
      "Ġmult": 7377,
      "ero": 7378,
      "Ġfits": 7379,
      "Ġflies": 7380,
      "aro": 7381,
      "Ġgentle": 7382,
      "Ġpad": 7383,
      "Ġloss": 7384,
      "Ġnap": 7385,
      "asm": 7386,
      "lect": 7387,
      "ĠTy": 7388,
      "ĠTurn": 7389,
      "ĠSebastian": 7390,
      "ĠWal": 7391,
      "Ġrepe": 7392,
      "Ġstole": 7393,
      "osen": 7394,
      "iran": 7395,
      "robe": 7396,
      "ĠOnce": 7397,
      "ĠCooper": 7398,
      "ĠDone": 7399,
      "ĠLaw": 7400,
      "Ġplumber": 7401,
      "Ġplatform": 7402,
      "Marla": 7403,
      "Marlene": 7404,
      "teen": 7405,
      "ĠRhapsody": 7406,
      "male": 7407,
      "berto": 7408,
      "ifa": 7409,
      "ifi": 7410,
      "nex": 7411,
      "ouses": 7412,
      "ender": 7413,
      "Ġprecise": 7414,
      "Ġchosen": 7415,
      "Ġours": 7416,
      "Ġadult": 7417,
      "Ġtwins": 7418,
      "Ġexpress": 7419,
      "Ġpermission": 7420,
      "Janek": 7421,
      "Ġactive": 7422,
      "ĠAnother": 7423,
      "ĠðŁį": 7424,
      "Ġscarf": 7425,
      "Ġdisag": 7426,
      "Ġhiking": 7427,
      "Ġbreaking": 7428,
      "Ġsecurity": 7429,
      "Ġunderstanding": 7430,
      "Ġdesp": 7431,
      "Katia": 7432,
      "Ġheads": 7433,
      "Ġdepos": 7434,
      "Ġconsult": 7435,
      "Ġskirt": 7436,
      "Ġdeals": 7437,
      "ornelia": 7438,
      "Ġattitude": 7439,
      "Ġannoun": 7440,
      "aureen": 7441,
      "Ġsalary": 7442,
      "Ġlands": 7443,
      "ledge": 7444,
      "ĠAbigail": 7445,
      "Ġexplains": 7446,
      "Mummy": 7447,
      "Ġformal": 7448,
      "Julianna": 7449,
      "ĠIndia": 7450,
      "Ġburger": 7451,
      "Ġcampus": 7452,
      "ðŁĳį": 7453,
      "Ġimpressive": 7454,
      "Ġsusp": 7455,
      "Ġincluded": 7456,
      "Ġblog": 7457,
      "Lukas": 7458,
      "vonne": 7459,
      "Haley": 7460,
      "Helmut": 7461,
      "Ġnotebook": 7462,
      "ĠBTW": 7463,
      "ĠIKEA": 7464,
      "33": 7465,
      "Brend": 7466,
      "Cin": 7467,
      "Call": 7468,
      "Cooper": 7469,
      "ET": 7470,
      "Gordon": 7471,
      "Geoff": 7472,
      "Hilda": 7473,
      "Kane": 7474,
      "Lennon": 7475,
      "Mica": 7476,
      "OT": 7477,
      "Preston": 7478,
      "Raul": 7479,
      "Sis": 7480,
      "Un": 7481,
      "bell": 7482,
      "dam": 7483,
      "dal": 7484,
      "ras": 7485,
      "rim": 7486,
      "ros": 7487,
      "what": 7488,
      "ounce": 7489,
      "ĠIS": 7490,
      "ĠIrene": 7491,
      "Ġmaster": 7492,
      "Ġmouth": 7493,
      "eroy": 7494,
      "orter": 7495,
      "Ġcough": 7496,
      "Ġcoun": 7497,
      "Ġfans": 7498,
      "esa": 7499,
      "Ġpred": 7500,
      "ician": 7501,
      "leine": 7502,
      "kea": 7503,
      "Ġweak": 7504,
      "ĠSus": 7505,
      "ĠSleep": 7506,
      "ĠWOW": 7507,
      "ĠAudrey": 7508,
      "Ġstays": 7509,
      "Ġsoci": 7510,
      "ĠMiranda": 7511,
      "ĠMuseum": 7512,
      "ĠOp": 7513,
      "hern": 7514,
      "ĠDes": 7515,
      "ĠLena": 7516,
      "Ġshots": 7517,
      "stand": 7518,
      "ĠFall": 7519,
      "ĠFinn": 7520,
      "Ġexact": 7521,
      "Ġhowever": 7522,
      "Ġagency": 7523,
      "Ġspeaks": 7524,
      "ĠWere": 7525,
      "redith": 7526,
      "Ġhappiness": 7527,
      "Ġclick": 7528,
      "Ġchip": 7529,
      "wayne": 7530,
      "uben": 7531,
      "Ġadults": 7532,
      "Brooklyn": 7533,
      "Ġmonday": 7534,
      "Ġacting": 7535,
      "ĠStay": 7536,
      "ĠAlthough": 7537,
      "ĠAnybody": 7538,
      "Elliot": 7539,
      "mster": 7540,
      "Ġexcellent": 7541,
      "ibly": 7542,
      "ĠSammy": 7543,
      "Ġfinishes": 7544,
      "urtis": 7545,
      "Karin": 7546,
      "ĠAdrian": 7547,
      "ettie": 7548,
      "Nathaniel": 7549,
      "HAN": 7550,
      "Ġreasons": 7551,
      "Ġshortly": 7552,
      "Ġreceip": 7553,
      "Ġpleased": 7554,
      "Ġattending": 7555,
      "Ġforest": 7556,
      "Gerard": 7557,
      "ĠSophia": 7558,
      "pected": 7559,
      "ĠâĢĵ": 7560,
      "Ġclosing": 7561,
      "Ġpurcha": 7562,
      "Ġsolution": 7563,
      "Ġdevast": 7564,
      "ĠRussia": 7565,
      "Brianna": 7566,
      "Ġapologize": 7567,
      "Suzy": 7568,
      "Kathryn": 7569,
      "Ġbasketball": 7570,
      "Ġgloves": 7571,
      "âĪĢ": 7572,
      "Ġtemperature": 7573,
      "Ġfantasy": 7574,
      "Ġgarlic": 7575,
      "Ġremembered": 7576,
      "Ahmed": 7577,
      "Ġdeposit": 7578,
      ")/": 7579,
      ">,": 7580,
      "Cara": 7581,
      "Celia": 7582,
      "Eug": 7583,
      "Gerry": 7584,
      "Ryl": 7585,
      "afe": 7586,
      "bel": 7587,
      "bour": 7588,
      "ex": 7589,
      "kins": 7590,
      "las": 7591,
      "mates": 7592,
      "ns": 7593,
      "pes": 7594,
      "pet": 7595,
      "Ġ>": 7596,
      "Ġver": 7597,
      "Ġsoo": 7598,
      "Ġmmm": 7599,
      "Ġgeez": 7600,
      "Ġnurs": 7601,
      "enna": 7602,
      "omer": 7603,
      "aching": 7604,
      "idy": 7605,
      "ĠWel": 7606,
      "ĠHR": 7607,
      "adette": 7608,
      "elest": 7609,
      "Ġsocc": 7610,
      "ĠMason": 7611,
      "ĠMaur": 7612,
      "riz": 7613,
      "Ġsees": 7614,
      "Ġsepar": 7615,
      "Ġknee": 7616,
      "ĠOllie": 7617,
      "ĠBus": 7618,
      "ĠJud": 7619,
      "ĠJose": 7620,
      "ĠLat": 7621,
      "Ġlikely": 7622,
      "storm": 7623,
      "ppa": 7624,
      "Marry": 7625,
      "onely": 7626,
      "ĠRly": 7627,
      "ĠRalph": 7628,
      "ĠREA": 7629,
      "Ġtheme": 7630,
      "Ġroof": 7631,
      "ĠKris": 7632,
      "aghett": 7633,
      "Ġquiz": 7634,
      "izes": 7635,
      "Ġ300": 7636,
      "Ġproof": 7637,
      "Ġteas": 7638,
      "ĠThanksgiving": 7639,
      "Ġdiv": 7640,
      "Robyn": 7641,
      "Ġremove": 7642,
      "Ġphones": 7643,
      "ĠUs": 7644,
      "Ġtwist": 7645,
      "Ġappear": 7646,
      "Ġunus": 7647,
      "ĠVal": 7648,
      "Ġblind": 7649,
      "Ġmoron": 7650,
      "Ġintend": 7651,
      "......": 7652,
      "Ġsmile": 7653,
      "ĠInterest": 7654,
      "Ġadditional": 7655,
      "Ġmarriage": 7656,
      "ĠPauline": 7657,
      "Ġpolish": 7658,
      "Ġcostume": 7659,
      "Ġmeds": 7660,
      "ĠEverybody": 7661,
      "ï¼ī": 7662,
      "Raoul": 7663,
      "Raquel": 7664,
      "ĠWaiting": 7665,
      "Ġsuitcase": 7666,
      "Ġfighting": 7667,
      "Shona": 7668,
      "Ġpatient": 7669,
      "Beatrix": 7670,
      "Ġtranslate": 7671,
      "Ġupdated": 7672,
      "Ġclearly": 7673,
      "Ġviews": 7674,
      "Fabian": 7675,
      "Lorenzo": 7676,
      "Ġmedicine": 7677,
      "Ġreckon": 7678,
      "ĠNYC": 7679,
      "Ġdamage": 7680,
      "ĠBelg": 7681,
      "ĠMarcus": 7682,
      "Ġbaked": 7683,
      "Ġculture": 7684,
      "Ġvillage": 7685,
      "Ġyummy": 7686,
      "Maurice": 7687,
      "Ġtraditional": 7688,
      "hammad": 7689,
      "Ġhigher": 7690,
      "ĠFeel": 7691,
      "Ġseminar": 7692,
      "Ġapplication": 7693,
      "Ġsupervisor": 7694,
      "ĠVeronica": 7695,
      "Ġfascinating": 7696,
      "Ġingred": 7697,
      "Ġpainkillers": 7698,
      "ĠIreland": 7699,
      "Ġsoccer": 7700,
      "aghetti": 7701,
      "Ala": 7702,
      "Del": 7703,
      "Kenny": 7704,
      "Li": 7705,
      "Lillian": 7706,
      "Miguel": 7707,
      "Or": 7708,
      "Per": 7709,
      "Sol": 7710,
      "War": 7711,
      "bit": 7712,
      "ients": 7713,
      "morrow": 7714,
      "nal": 7715,
      "rot": 7716,
      "uk": 7717,
      "Ġtag": 7718,
      "Ġtip": 7719,
      "Ġtalks": 7720,
      "Ġwet": 7721,
      "Ġward": 7722,
      "Ġsry": 7723,
      "Ġsouth": 7724,
      "ĠIve": 7725,
      "Ġmaps": 7726,
      "Ġfold": 7727,
      "Ġgang": 7728,
      "Ġpush": 7729,
      "itting": 7730,
      "Ġodd": 7731,
      "Ġhom": 7732,
      "Ġhide": 7733,
      "Ġheld": 7734,
      "Ġbecoming": 7735,
      "Ġforg": 7736,
      "Ġthroat": 7737,
      "ĠTa": 7738,
      "acow": 7739,
      "ĠSry": 7740,
      "ĠHE": 7741,
      "ĠAle": 7742,
      "ĠAaron": 7743,
      "ĠAustr": 7744,
      "ĠARE": 7745,
      "Ġkm": 7746,
      "ĠYa": 7747,
      "Ġumb": 7748,
      "Ġsection": 7749,
      "Ġcanteen": 7750,
      "iable": 7751,
      "ĠBat": 7752,
      "ĠChan": 7753,
      "ĠNooo": 7754,
      "arty": 7755,
      "ĠLife": 7756,
      "ĠLauren": 7757,
      "Ġplastic": 7758,
      "ĠPa": 7759,
      "ĠPra": 7760,
      "Mari": 7761,
      "celyn": 7762,
      "ĠRa": 7763,
      "ĠRam": 7764,
      "ĠRoger": 7765,
      "ĠEhh": 7766,
      "Ġvir": 7767,
      "Ġ29": 7768,
      "Ġfemale": 7769,
      "Ġspoken": 7770,
      "Ġrubb": 7771,
      "emar": 7772,
      "Ġdoesnt": 7773,
      "Ġsaf": 7774,
      "Ġsaus": 7775,
      "agne": 7776,
      "Ġchores": 7777,
      "Ġovers": 7778,
      "Samara": 7779,
      "erem": 7780,
      "Ġadvert": 7781,
      "Jacky": 7782,
      "Ġtrick": 7783,
      "Ġapplied": 7784,
      "Benny": 7785,
      "Ġblame": 7786,
      "ĠAngie": 7787,
      "Ġcareer": 7788,
      "Ġdisaster": 7789,
      "Ġreserve": 7790,
      "Ġbreaks": 7791,
      "Barbie": 7792,
      "Edith": 7793,
      "Ġcruel": 7794,
      "lings": 7795,
      "ĠStef": 7796,
      "ĠBeen": 7797,
      "Ġacadem": 7798,
      "Ġinformed": 7799,
      "ĠBlue": 7800,
      "Ġsales": 7801,
      "Ġsalmon": 7802,
      "Raf": 7803,
      "Ġforeign": 7804,
      "eeeeeeee": 7805,
      "Ġdistance": 7806,
      "Ġarrives": 7807,
      "Ġconfirmation": 7808,
      "Ġpanic": 7809,
      "Wilma": 7810,
      "Ġdrawer": 7811,
      "Ġmotor": 7812,
      "Richie": 7813,
      "Ġfabulous": 7814,
      "ðŁı»": 7815,
      "Ramona": 7816,
      "ĠCentral": 7817,
      "Yannick": 7818,
      "Stefano": 7819,
      "ĠCracow": 7820,
      "Ġvarious": 7821,
      "ĠAND": 7822,
      "Ġembarrassing": 7823,
      "Ġlarge": 7824,
      "metics": 7825,
      "Ġrehears": 7826,
      "Imogen": 7827,
      "Ġspirit": 7828,
      "Ġarranged": 7829,
      "ĠThrones": 7830,
      "Ġmuffins": 7831,
      "Ġunusual": 7832,
      "App": 7833,
      "Cy": 7834,
      "Daphne": 7835,
      "Destiny": 7836,
      "Gar": 7837,
      "Ham": 7838,
      "Jada": 7839,
      "Leroy": 7840,
      "Malia": 7841,
      "bab": 7842,
      "oz": 7843,
      "rings": 7844,
      "uum": 7845,
      "whel": 7846,
      "zem": 7847,
      "ãĤ": 7848,
      "Ġtall": 7849,
      "Ġtatt": 7850,
      "Ġwood": 7851,
      "rel": 7852,
      "Ġsom": 7853,
      "Ġskype": 7854,
      "happy": 7855,
      "Ġmax": 7856,
      "orks": 7857,
      "Ġfear": 7858,
      "Ġfee": 7859,
      "Ġfrench": 7860,
      "Ġfetch": 7861,
      "Ġpoll": 7862,
      "Ġnp": 7863,
      "ener": 7864,
      "atives": 7865,
      "Ġheels": 7866,
      "Ġinit": 7867,
      "ĠST": 7868,
      "ĠSk": 7869,
      "ĠSec": 7870,
      "iding": 7871,
      "ief": 7872,
      "imit": 7873,
      "ĠHun": 7874,
      "Ġrepl": 7875,
      "ĠAhh": 7876,
      "Ġstor": 7877,
      "ĠMight": 7878,
      "ĠMany": 7879,
      "Ġbutton": 7880,
      "Ġjean": 7881,
      "ĠOff": 7882,
      "ĠBest": 7883,
      "ĠBuy": 7884,
      "ĠCy": 7885,
      "arten": 7886,
      "ĠLots": 7887,
      "rain": 7888,
      "ĠPolly": 7889,
      "ĠPenny": 7890,
      "Marvin": 7891,
      "cey": 7892,
      "ĠFri": 7893,
      "ĠFIF": 7894,
      "ĠRoy": 7895,
      "ĠEh": 7896,
      "Ġcomedy": 7897,
      "quin": 7898,
      "ðŁĺĢ": 7899,
      "ðŁĺĶ": 7900,
      "ðŁĺĺ": 7901,
      "ctic": 7902,
      "Ġrate": 7903,
      "emary": 7904,
      "Ġamong": 7905,
      "ĠHaw": 7906,
      "Ġchem": 7907,
      "Ġchees": 7908,
      "ended": 7909,
      "Ġcoke": 7910,
      "Ġadding": 7911,
      "Ġrecent": 7912,
      "Ġphil": 7913,
      "ĠUhm": 7914,
      "Ġunc": 7915,
      "Ġbrings": 7916,
      "ĠAlmost": 7917,
      "ĠXxx": 7918,
      "ĠChristian": 7919,
      "Stu": 7920,
      "Ġshape": 7921,
      "Ġcontent": 7922,
      "Ariel": 7923,
      "athon": 7924,
      "ĠJohnny": 7925,
      "Ġbabies": 7926,
      "Ġsleepy": 7927,
      "ĠShop": 7928,
      "ĠBrussel": 7929,
      "Ġcrack": 7930,
      "Ġenjoys": 7931,
      "Ġdesper": 7932,
      "Ġrealize": 7933,
      "Ġmetal": 7934,
      "Ġheadphones": 7935,
      "Ġterms": 7936,
      "Darrell": 7937,
      "Margo": 7938,
      "ĠBeat": 7939,
      "Ġcontacts": 7940,
      "Matilde": 7941,
      "ĠEngland": 7942,
      "Ġgenius": 7943,
      "ĠðŁĳı": 7944,
      "Ġbottom": 7945,
      "ructor": 7946,
      "Ġcollecting": 7947,
      "Ġopinions": 7948,
      "Ġpatience": 7949,
      "ĠUSA": 7950,
      "ĠClaudia": 7951,
      "Ġsettle": 7952,
      "Antonia": 7953,
      "ðŁĳı": 7954,
      "Ġsharp": 7955,
      "Ġprotest": 7956,
      "ĠAwww": 7957,
      "Ġpuppy": 7958,
      "Ġlosing": 7959,
      "Cathie": 7960,
      "Ġstruggling": 7961,
      "Ewa": 7962,
      "ĠSylvia": 7963,
      "Ġmeasure": 7964,
      "Ġjogging": 7965,
      "Ġroommate": 7966,
      "Ġcigaret": 7967,
      "Ġrailway": 7968,
      "Ġannounced": 7969,
      "dalene": 7970,
      "zemek": 7971,
      "Ġtattoo": 7972,
      "ĠFIFA": 7973,
      "ĠBrussels": 7974,
      "Bunny": 7975,
      "Coco": 7976,
      "Cornelia": 7977,
      "Celest": 7978,
      "ED": 7979,
      "Jol": 7980,
      "Lar": 7981,
      "Lars": 7982,
      "Laure": 7983,
      "Prit": 7984,
      "Ton": 7985,
      "aah": 7986,
      "aign": 7987,
      "free": 7988,
      "gitte": 7989,
      "hi": 7990,
      "host": 7991,
      "iate": 7992,
      "ija": 7993,
      "mate": 7994,
      "nia": 7995,
      "pro": 7996,
      "sen": 7997,
      "tle": 7998,
      "una": 7999,
      "year": 8000,
      "Ġtre": 8001,
      "Ġain": 8002,
      "hered": 8003,
      "Ġsoul": 8004,
      "ĠIkea": 8005,
      "inge": 8006,
      "Ġcart": 8007,
      "Ġfool": 8008,
      "Ġdeter": 8009,
      "Ġpal": 8010,
      "Ġlinks": 8011,
      "Ġnite": 8012,
      "Ġoil": 8013,
      "ashed": 8014,
      "utter": 8015,
      "acon": 8016,
      "ĠSqu": 8017,
      "iek": 8018,
      "ĠWest": 8019,
      "ĠHI": 8020,
      "ĠHot": 8021,
      "ado": 8022,
      "Ġsocks": 8023,
      "ĠMerry": 8024,
      "Ġjet": 8025,
      "Ġjun": 8026,
      "ĠOF": 8027,
      "ĠON": 8028,
      "ĠOla": 8029,
      "ĠOoh": 8030,
      "Ġknowing": 8031,
      "Ġknowledge": 8032,
      "ĠBad": 8033,
      "ĠBur": 8034,
      "ĠNational": 8035,
      "ĠDI": 8036,
      "ĠJeremy": 8037,
      "ĠLets": 8038,
      "ĠLew": 8039,
      "ĠLydia": 8040,
      "rag": 8041,
      "inking": 8042,
      "Ġaltern": 8043,
      "ĠGold": 8044,
      "Marly": 8045,
      "ooked": 8046,
      "ĠFU": 8047,
      "Ġproced": 8048,
      "ĠRep": 8049,
      "Ġnowhere": 8050,
      "acek": 8051,
      "araoke": 8052,
      "eev": 8053,
      "alker": 8054,
      "igi": 8055,
      "Ġspeed": 8056,
      "Ġspaghetti": 8057,
      "Ġrly": 8058,
      "ĠKore": 8059,
      "ĠKai": 8060,
      "Ġsafer": 8061,
      "Luisa": 8062,
      "Ġbuys": 8063,
      "Ġoverwhel": 8064,
      "ublic": 8065,
      "Ġrecall": 8066,
      "Ġremote": 8067,
      "ĠUk": 8068,
      "Ġdrill": 8069,
      "Ġcourt": 8070,
      "ĠViv": 8071,
      "eanne": 8072,
      "ĠAnthony": 8073,
      "Ġjoined": 8074,
      "Ġdislike": 8075,
      "Issac": 8076,
      "Maxine": 8077,
      "ixie": 8078,
      "ĠBrooke": 8079,
      "Ġdiscovered": 8080,
      "Ġ90": 8081,
      "Ġcrush": 8082,
      "Zoey": 8083,
      "ĠSpot": 8084,
      "ĠSpeak": 8085,
      "Ġwalked": 8086,
      "Ġorganized": 8087,
      "celand": 8088,
      "Ġparked": 8089,
      "ĠJanet": 8090,
      "Ġclubs": 8091,
      "Jasna": 8092,
      "ĠLovely": 8093,
      "Ġlanding": 8094,
      "Ġaffect": 8095,
      "Ġobject": 8096,
      "ĠPhilip": 8097,
      "rupt": 8098,
      "Ġnormally": 8099,
      "Ġdisappeared": 8100,
      "Ġreminding": 8101,
      "Ġburgers": 8102,
      "Ġdistur": 8103,
      "Ġengine": 8104,
      "Ġliterature": 8105,
      "Ġgrades": 8106,
      "Ġprogramme": 8107,
      "Ġignoring": 8108,
      "ĠHAHAHA": 8109,
      "Ġturkey": 8110,
      "Ġapplying": 8111,
      "Ġpromoted": 8112,
      "Brigitte": 8113,
      "ĠBabe": 8114,
      "ĠBaby": 8115,
      "Ġcosmetics": 8116,
      "Ġbanana": 8117,
      "Ġlimit": 8118,
      "Â°)": 8119,
      "Tabby": 8120,
      "ĠIsabel": 8121,
      "Ġbowling": 8122,
      "Ġcandid": 8123,
      "Dexter": 8124,
      "while": 8125,
      "Ġitems": 8126,
      "ĠHelp": 8127,
      "ĠTurkey": 8128,
      "Ġemotional": 8129,
      "Ġeconomy": 8130,
      "Ġambul": 8131,
      "Ġfamilies": 8132,
      "ĠBryan": 8133,
      "Ġinfluence": 8134,
      "Ġfolks": 8135,
      "irginia": 8136,
      "ï¾Ł": 8137,
      "Ġprincess": 8138,
      "ĠAndrea": 8139,
      "ĠValentine": 8140,
      "ĠïģĬ": 8141,
      "Ġstreets": 8142,
      "ï¼¿ï¼¿": 8143,
      "Skye": 8144,
      "Ġconvenient": 8145,
      "nexpected": 8146,
      "Uncle": 8147,
      "Ġjeans": 8148,
      "Priti": 8149,
      "'?": 8150,
      "-(": 8151,
      "Hor": 8152,
      "Jord": 8153,
      "Lois": 8154,
      "Odin": 8155,
      "Sash": 8156,
      "Sadie": 8157,
      "Tomek": 8158,
      "Yvonne": 8159,
      "burn": 8160,
      "cony": 8161,
      "pot": 8162,
      "und": 8163,
      "yton": 8164,
      "Ġ!!": 8165,
      "Ġtrees": 8166,
      "hero": 8167,
      "inity": 8168,
      "Ġslot": 8169,
      "Ġthera": 8170,
      "Ġmap": 8171,
      "Ġtool": 8172,
      "erves": 8173,
      "Ġcoin": 8174,
      "Ġgreet": 8175,
      "Ġgees": 8176,
      "Ġlonely": 8177,
      "Ġnon": 8178,
      "icja": 8179,
      "Ġhero": 8180,
      "Ġinduction": 8181,
      "Ġthreat": 8182,
      "ĠTHAN": 8183,
      "uten": 8184,
      "ĠShan": 8185,
      "ĠSur": 8186,
      "ĠSuch": 8187,
      "ĠSonia": 8188,
      "ĠHan": 8189,
      "ĠHal": 8190,
      "ĠHard": 8191,
      "aman": 8192,
      "Ġrelig": 8193,
      "Ġstream": 8194,
      "ĠMean": 8195,
      "rion": 8196,
      "Ġabove": 8197,
      "ĠDiego": 8198,
      "ilty": 8199,
      "ĠLara": 8200,
      "ĠLola": 8201,
      "ste": 8202,
      "Ġalarm": 8203,
      "ĠPen": 8204,
      "ĠPick": 8205,
      "ĠPoppy": 8206,
      "Marco": 8207,
      "Johny": 8208,
      "Jocelyn": 8209,
      "Ġcommer": 8210,
      "Ġtomato": 8211,
      "Ġspots": 8212,
      "Ġrule": 8213,
      "ĠKay": 8214,
      "emi": 8215,
      "ods": 8216,
      "aging": 8217,
      "iends": 8218,
      "Ġtonite": 8219,
      "Franco": 8220,
      "Ġtricky": 8221,
      "Ġgram": 8222,
      "Ġcourses": 8223,
      "Ġ1000": 8224,
      "ĠVienna": 8225,
      "Ġserve": 8226,
      "Leigh": 8227,
      "Ġclassic": 8228,
      "ĠMario": 8229,
      "ĠLOVE": 8230,
      "Ġhated": 8231,
      "ĠBruce": 8232,
      "ĠBrooklyn": 8233,
      "Ġdelight": 8234,
      "Ġunderstood": 8235,
      "Janine": 8236,
      "ĠLuna": 8237,
      "Ġdressing": 8238,
      "Ġfarm": 8239,
      "Edna": 8240,
      "Ġinstructor": 8241,
      "Ġrealized": 8242,
      "Ġfeelings": 8243,
      "uzz": 8244,
      "Ġdoctors": 8245,
      "Ġcontacting": 8246,
      "Ġcolors": 8247,
      "Ġreplied": 8248,
      "viously": 8249,
      "ĠArt": 8250,
      "ergy": 8251,
      "Ġhopeless": 8252,
      "Ġprior": 8253,
      "Ġsuitable": 8254,
      "Ġlectures": 8255,
      "ĠClara": 8256,
      "ĠPlay": 8257,
      "Ġ:)))": 8258,
      "Ġboxes": 8259,
      "Ġarrival": 8260,
      "Maja": 8261,
      "Ġholding": 8262,
      "ĠGabriel": 8263,
      "Ġignore": 8264,
      "Ġhostel": 8265,
      "Ġshifts": 8266,
      "Ġvegetarian": 8267,
      "Ġkicked": 8268,
      "Ġjournal": 8269,
      "Ġcasual": 8270,
      "ĠStanley": 8271,
      "Lukass": 8272,
      "Ġaudience": 8273,
      "Ġblonde": 8274,
      "Ġpumpkin": 8275,
      "ĠObviously": 8276,
      "Ġjumping": 8277,
      "Ġcompanies": 8278,
      "Ġinstructions": 8279,
      "ðŁİī": 8280,
      "Rhonda": 8281,
      "Ġshelter": 8282,
      "Nevaeh": 8283,
      "Ġdevastated": 8284,
      "Ġingredients": 8285,
      "Ġfolder": 8286,
      "Ġumbrella": 8287,
      "ĠPrague": 8288,
      "ĠTHANK": 8289,
      "Ġcommercial": 8290,
      ".\"": 8291,
      "19": 8292,
      "60": 8293,
      "Af": 8294,
      "Bo": 8295,
      "Ca": 8296,
      "Caz": 8297,
      "Dot": 8298,
      "EC": 8299,
      "Ema": 8300,
      "Flo": 8301,
      "Kas": 8302,
      "Kurt": 8303,
      "LY": 8304,
      "Mir": 8305,
      "Si": 8306,
      "Sher": 8307,
      "Trey": 8308,
      "YY": 8309,
      "hus": 8310,
      "ij": 8311,
      "iott": 8312,
      "ipping": 8313,
      "lt": 8314,
      "under": 8315,
      "wia": 8316,
      "yb": 8317,
      "zen": 8318,
      "Ġven": 8319,
      "Ġamaz": 8320,
      "ĠIceland": 8321,
      "Ġcy": 8322,
      "Ġcried": 8323,
      "Ġfond": 8324,
      "Ġfurious": 8325,
      "arily": 8326,
      "Ġpizz": 8327,
      "Ġnic": 8328,
      "isine": 8329,
      "itched": 8330,
      "edora": 8331,
      "Ġhouses": 8332,
      "Ġforce": 8333,
      "ĠTon": 8334,
      "aced": 8335,
      "ĠSydney": 8336,
      "Ġeuros": 8337,
      "ĠHurry": 8338,
      "ĠAc": 8339,
      "ĠMona": 8340,
      "Ġliqu": 8341,
      "ĠBud": 8342,
      "ĠBoy": 8343,
      "ĠCertain": 8344,
      "ĠNate": 8345,
      "ĠDO": 8346,
      "ilah": 8347,
      "ĠLA": 8348,
      "ĠLia": 8349,
      "oody": 8350,
      "stance": 8351,
      "essed": 8352,
      "ĠGib": 8353,
      "obal": 8354,
      "obbs": 8355,
      "Anny": 8356,
      "Ġorders": 8357,
      "Jojo": 8358,
      "ĠRich": 8359,
      "Ġgotten": 8360,
      "ðŁĺ±": 8361,
      "ðŁĺŃ": 8362,
      "iforn": 8363,
      "Ġfeet": 8364,
      "Ġbackground": 8365,
      "Tomas": 8366,
      "Ġwondered": 8367,
      "action": 8368,
      "Ġcoast": 8369,
      "ĠðŁĺŃ": 8370,
      "reek": 8371,
      "Ġadorable": 8372,
      "ĠUh": 8373,
      "Ġtrous": 8374,
      "Brayden": 8375,
      "Ġunhappy": 8376,
      "ĠStar": 8377,
      "ĠStud": 8378,
      "Ġscience": 8379,
      "Ġhired": 8380,
      "?!?": 8381,
      "Ġharsh": 8382,
      "Nicki": 8383,
      "Ġfoundation": 8384,
      "Arlo": 8385,
      "Ġkinderg": 8386,
      "ĠShut": 8387,
      "Ġtrips": 8388,
      "Ġpassing": 8389,
      "ĠCarmen": 8390,
      "Barbra": 8391,
      "Harris": 8392,
      "Ġraise": 8393,
      "ĠAsk": 8394,
      "Ġmush": 8395,
      "Darcey": 8396,
      "Ġairbnb": 8397,
      "Ġteachers": 8398,
      "Ġrequire": 8399,
      "ĠUnless": 8400,
      "Ġsafely": 8401,
      "Ġcopies": 8402,
      "Rafa": 8403,
      "ĠMorgan": 8404,
      "Geri": 8405,
      "untie": 8406,
      "Ġpanick": 8407,
      "ĠLizzy": 8408,
      "Ġregularly": 8409,
      "Meryl": 8410,
      "Ġfruits": 8411,
      "Ġpossibility": 8412,
      "Ġsilent": 8413,
      "Ġroute": 8414,
      "Ġcolleague": 8415,
      "Jacqui": 8416,
      "Beau": 8417,
      "Ġmaterials": 8418,
      "Ġprotect": 8419,
      "................................": 8420,
      "Ġdocumentary": 8421,
      "Kathleen": 8422,
      "Ġmassage": 8423,
      "Tanner": 8424,
      "Ġphotograp": 8425,
      "Asia": 8426,
      "ĠMilan": 8427,
      "Ġrolls": 8428,
      "Jarod": 8429,
      "Ġgaming": 8430,
      "Ġbalcony": 8431,
      "Kaja": 8432,
      "Ġcircum": 8433,
      "ĠWilson": 8434,
      "Ġboots": 8435,
      "Ġunfair": 8436,
      "Ġscratch": 8437,
      "Mackenzie": 8438,
      "Ġpharmacy": 8439,
      "Madeleine": 8440,
      "Ġarchitecture": 8441,
      "Ġdespite": 8442,
      "Cinthia": 8443,
      "Micah": 8444,
      "Ġpredict": 8445,
      "ĠREALLY": 8446,
      "Ġrubbish": 8447,
      "Ġstorage": 8448,
      "ifornia": 8449,
      "34": 8450,
      "80": 8451,
      ">.": 8452,
      "Ary": 8453,
      "Ciara": 8454,
      "Curtis": 8455,
      "Delia": 8456,
      "Dwayne": 8457,
      "Elie": 8458,
      "Javier": 8459,
      "Misty": 8460,
      "Maureen": 8461,
      "PP": 8462,
      "Pa": 8463,
      "Pascal": 8464,
      "Rad": 8465,
      "You": 8466,
      "Zu": 8467,
      "aat": 8468,
      "corn": 8469,
      "kla": 8470,
      "lad": 8471,
      "pr": 8472,
      "rome": 8473,
      "tr": 8474,
      "vir": 8475,
      "vant": 8476,
      "âĸ": 8477,
      "Ġaim": 8478,
      "inic": 8479,
      "Ġsla": 8480,
      "Ġcit": 8481,
      "Ġfinger": 8482,
      "Ġgain": 8483,
      "Ġgif": 8484,
      "esh": 8485,
      "oms": 8486,
      "itha": 8487,
      "icide": 8488,
      "Ġhub": 8489,
      "ĠTor": 8490,
      "ĠTodd": 8491,
      "acie": 8492,
      "Ġec": 8493,
      "imate": 8494,
      "imistic": 8495,
      "ĠWes": 8496,
      "ĠHang": 8497,
      "Ġrelease": 8498,
      "Ġkaraoke": 8499,
      "Ġstone": 8500,
      "Ġund": 8501,
      "ĠMA": 8502,
      "ustav": 8503,
      "ĠCas": 8504,
      "ĠCalm": 8505,
      "Ġabort": 8506,
      "ĠDiane": 8507,
      "ĠDON": 8508,
      "Ġashamed": 8509,
      "ili": 8510,
      "ellery": 8511,
      "ĠJoy": 8512,
      "ĠLindsay": 8513,
      "olo": 8514,
      "Ġshelf": 8515,
      "ĠHeather": 8516,
      "ĠFingers": 8517,
      "Joona": 8518,
      "teo": 8519,
      "Ġexist": 8520,
      "ĠRonald": 8521,
      "ĠRebecca": 8522,
      "Ġworkout": 8523,
      "ĠEVER": 8524,
      "eek": 8525,
      "ðŁĺ»": 8526,
      "ðŁĺī": 8527,
      "Ġmanual": 8528,
      "icago": 8529,
      "Ġprecious": 8530,
      "eteria": 8531,
      "istics": 8532,
      "actose": 8533,
      "Emman": 8534,
      "ĠðŁĺĦ": 8535,
      "erences": 8536,
      "ipe": 8537,
      "Ġcompare": 8538,
      "Ġtram": 8539,
      "Ġdrugs": 8540,
      "ggies": 8541,
      "ĠViet": 8542,
      "ĠAren": 8543,
      "ĠIsla": 8544,
      "Ġroads": 8545,
      "Ġserved": 8546,
      "ĠStart": 8547,
      "Ġscene": 8548,
      "Ġclassroom": 8549,
      "ĠAlbert": 8550,
      "ĠMarion": 8551,
      "ups": 8552,
      "Ġharm": 8553,
      "Meredith": 8554,
      "Ġaww": 8555,
      "Ġawake": 8556,
      "Ġluckily": 8557,
      "Ġpassport": 8558,
      "Ġsweat": 8559,
      "Ġposting": 8560,
      "ĠxDDD": 8561,
      "Tracey": 8562,
      "ĠAsia": 8563,
      "lines": 8564,
      "umpy": 8565,
      "Ġcontacted": 8566,
      "ĠChicago": 8567,
      "Ġannounce": 8568,
      "ĠBenjamin": 8569,
      "Ġsubst": 8570,
      "Ġsinger": 8571,
      "Ġstrate": 8572,
      "ĠZack": 8573,
      "Ġfactory": 8574,
      "ĠAbby": 8575,
      "comfort": 8576,
      "ĠAgatha": 8577,
      "ĠDeal": 8578,
      "Ġload": 8579,
      "ĠShame": 8580,
      "Ġ199": 8581,
      "ĠGetting": 8582,
      "Ġfigured": 8583,
      "Mae": 8584,
      "Ġconnected": 8585,
      "Ġrise": 8586,
      "Douglas": 8587,
      "Tatum": 8588,
      "Gillian": 8589,
      "Ġdescription": 8590,
      "Ġgrowing": 8591,
      "Nikki": 8592,
      "Ġreaction": 8593,
      "Ġequip": 8594,
      "ĠJapanese": 8595,
      "ĠPLEA": 8596,
      "Ġelectricity": 8597,
      "arcos": 8598,
      "Nelson": 8599,
      "Ġbreath": 8600,
      "Ġmirror": 8601,
      "Ġluv": 8602,
      "Ġcafeteria": 8603,
      "Kirsten": 8604,
      "ĠAvengers": 8605,
      "Ġnerd": 8606,
      "Kaleigh": 8607,
      "Clarice": 8608,
      "âĢįâĻĢ": 8609,
      "Ġinjured": 8610,
      "Payton": 8611,
      "Ġperfume": 8612,
      "Ġxoxo": 8613,
      "Ġowes": 8614,
      "Bojana": 8615,
      "Callum": 8616,
      "ĠInteresting": 8617,
      "ĠAustralia": 8618,
      "ĠSquare": 8619,
      "ĠLewis": 8620,
      "ĠCertainly": 8621,
      "Ġmushroom": 8622,
      "Emmanuel": 8623,
      "100": 8624,
      "><": 8625,
      "Bret": 8626,
      "Gert": 8627,
      "Linn": 8628,
      "Sierra": 8629,
      "Tilda": 8630,
      "Tube": 8631,
      "Wolf": 8632,
      "^)": 8633,
      "cul": 8634,
      "cles": 8635,
      "fi": 8636,
      "field": 8637,
      "gu": 8638,
      "kk": 8639,
      "mel": 8640,
      "pre": 8641,
      "sp": 8642,
      "Ġwise": 8643,
      "onment": 8644,
      "lled": 8645,
      "Ġyr": 8646,
      "Ġmarry": 8647,
      "Ġflex": 8648,
      "Ġfries": 8649,
      "Ġpy": 8650,
      "Ġpin": 8651,
      "Ġpig": 8652,
      "Ġnoo": 8653,
      "ences": 8654,
      "isol": 8655,
      "asmin": 8656,
      "Ġhugs": 8657,
      "Ġheat": 8658,
      "Ġinten": 8659,
      "amb": 8660,
      "Ġreve": 8661,
      "Ġneg": 8662,
      "ĠMY": 8663,
      "ĠMick": 8664,
      "roid": 8665,
      "ĠBack": 8666,
      "ĠBilly": 8667,
      "Ġsup": 8668,
      "ĠNora": 8669,
      "ĠNicky": 8670,
      "ĠJones": 8671,
      "olan": 8672,
      "Marissa": 8673,
      "astasia": 8674,
      "ĠYouTube": 8675,
      "risha": 8676,
      "ĠFood": 8677,
      "tem": 8678,
      "ĠRay": 8679,
      "ĠRod": 8680,
      "ĠEll": 8681,
      "ĠEle": 8682,
      "Ġnewest": 8683,
      "ðŁĺĻ": 8684,
      "Ġspread": 8685,
      "Johnson": 8686,
      "istration": 8687,
      "arryl": 8688,
      "Ġ500": 8689,
      "Chrissy": 8690,
      "Patt": 8691,
      "ĠThose": 8692,
      "Julius": 8693,
      "Ġgross": 8694,
      "Ġgrade": 8695,
      "Ġohh": 8696,
      "Ġohhh": 8697,
      "Ġunbelievable": 8698,
      "Ġactual": 8699,
      "Ġscare": 8700,
      "ĠAnytime": 8701,
      "ĠMarco": 8702,
      "Keiran": 8703,
      "zymon": 8704,
      "Carolina": 8705,
      "Ġsurf": 8706,
      "Ġfuckin": 8707,
      "Ġprepar": 8708,
      "Ġpassion": 8709,
      "ussy": 8710,
      "ĠMont": 8711,
      "ĠMonika": 8712,
      "Ġ150": 8713,
      "ĠSpider": 8714,
      "Ġrealise": 8715,
      "Ġorganis": 8716,
      "Ġpolicy": 8717,
      "ĠMarty": 8718,
      "Karla": 8719,
      "pleas": 8720,
      "Ġenthus": 8721,
      "Ġseasons": 8722,
      "Ġpopcorn": 8723,
      "Ġsalt": 8724,
      "ĠðŁ¤Ĺ": 8725,
      "ĠðŁĳĮ": 8726,
      "ï¼ı": 8727,
      "yyy": 8728,
      "Ġmanagement": 8729,
      "Ġhoped": 8730,
      "Ġcurry": 8731,
      "Ġvacuum": 8732,
      "ĠWashing": 8733,
      "Ġtreatment": 8734,
      "Ġrelaxed": 8735,
      "ĠNatalia": 8736,
      "Ġarguing": 8737,
      "Ġreminder": 8738,
      "ĠIndian": 8739,
      "ĠClare": 8740,
      "Ġpotential": 8741,
      "Tammy": 8742,
      "Ġburnt": 8743,
      "Ġpurple": 8744,
      "Ġeduc": 8745,
      "ĠBobby": 8746,
      "ĠKaty": 8747,
      "Ġwindows": 8748,
      "Ġignored": 8749,
      "Corin": 8750,
      "ĠScot": 8751,
      "ruction": 8752,
      "ĠTwitter": 8753,
      "ĠJonathan": 8754,
      "Ġahahah": 8755,
      "Ġruined": 8756,
      "ubbles": 8757,
      "Ġsilver": 8758,
      "ĠWhatsApp": 8759,
      "ĠGrandma": 8760,
      "Quentin": 8761,
      "Ġfrustrating": 8762,
      "Ġmixed": 8763,
      "Ġbelong": 8764,
      "Brody": 8765,
      "Ġmiser": 8766,
      "Ġattractive": 8767,
      "Ġcuisine": 8768,
      "ĠMcDonald": 8769,
      "ĠWorld": 8770,
      "ĠStephen": 8771,
      "ĠStephanie": 8772,
      "Ġcandles": 8773,
      "Ġsensitive": 8774,
      "Ġshouting": 8775,
      "Ġcritic": 8776,
      "Ġbiology": 8777,
      "Ġrelieved": 8778,
      "ĠWonder": 8779,
      "Ġadventure": 8780,
      "Ġjerk": 8781,
      "Ġexhausted": 8782,
      "Ġcommunicate": 8783,
      "Faye": 8784,
      "ĠAustria": 8785,
      "Collin": 8786,
      "fessor": 8787,
      "Ġtutorial": 8788,
      "Ġgoog": 8789,
      "Ġbeef": 8790,
      "Paloma": 8791,
      "Ġblah": 8792,
      "Ġangel": 8793,
      "Ġrepeat": 8794,
      "Sisi": 8795,
      "ĠBatman": 8796,
      "Garrett": 8797,
      "Celeste": 8798,
      "Ġtherapy": 8799,
      "ybille": 8800,
      "Ġtrousers": 8801,
      "Ġkindergarten": 8802,
      "vironment": 8803,
      "ĠPLEASE": 8804,
      "Ġintense": 8805,
      "Aggie": 8806,
      "Bonny": 8807,
      "Dol": 8808,
      "Della": 8809,
      "Hallie": 8810,
      "Hubert": 8811,
      "Homer": 8812,
      "Kirk": 8813,
      "Lonnie": 8814,
      "Leanne": 8815,
      "Nia": 8816,
      "On": 8817,
      "Oleg": 8818,
      "Pip": 8819,
      "Szymon": 8820,
      "TH": 8821,
      "Zuri": 8822,
      "cliff": 8823,
      "fs": 8824,
      "fred": 8825,
      "house": 8826,
      "iat": 8827,
      "iqu": 8828,
      "je": 8829,
      "lord": 8830,
      "vo": 8831,
      "was": 8832,
      "Ġ....": 8833,
      "Ġtou": 8834,
      "ances": 8835,
      "Ġmatt": 8836,
      "oria": 8837,
      "Ġfo": 8838,
      "Ġfuel": 8839,
      "Ġyoull": 8840,
      "Ġlame": 8841,
      "Ġlactose": 8842,
      "Ġnick": 8843,
      "Ġnooo": 8844,
      "eng": 8845,
      "eds": 8846,
      "eday": 8847,
      "leur": 8848,
      "Ġho": 8849,
      "Ġthn": 8850,
      "ĠThing": 8851,
      "utions": 8852,
      "idan": 8853,
      "iece": 8854,
      "ĠWhe": 8855,
      "ĠHor": 8856,
      "ĠHank": 8857,
      "Ġreached": 8858,
      "ĠAv": 8859,
      "ĠAmster": 8860,
      "aline": 8861,
      "Ġunexpected": 8862,
      "ĠMuch": 8863,
      "Ġgoin": 8864,
      "Ġanaly": 8865,
      "Ġseven": 8866,
      "ĠBert": 8867,
      "ĠCast": 8868,
      "ĠCourse": 8869,
      "ĠDot": 8870,
      "ĠDav": 8871,
      "ĠLater": 8872,
      "rael": 8873,
      "ours": 8874,
      "ileen": 8875,
      "Marina": 8876,
      "geon": 8877,
      "gend": 8878,
      "Anca": 8879,
      "ĠFox": 8880,
      "Ġgoodbye": 8881,
      "ĠRel": 8882,
      "ĠRec": 8883,
      "Ġworkers": 8884,
      "ĠEither": 8885,
      "aki": 8886,
      "Ġrac": 8887,
      "lav": 8888,
      "Ġsailing": 8889,
      "tyl": 8890,
      "Ġclue": 8891,
      "Ġchest": 8892,
      "Ġwaited": 8893,
      "Ġwonders": 8894,
      "agna": 8895,
      "Ġqual": 8896,
      "ointing": 8897,
      "Ġpros": 8898,
      "Ġenergy": 8899,
      "ailed": 8900,
      "mentine": 8901,
      "Ġmini": 8902,
      "Ġdialog": 8903,
      "Jennie": 8904,
      "Patrik": 8905,
      "mmmm": 8906,
      "Ġuncomfort": 8907,
      "Mattie": 8908,
      "Charity": 8909,
      "ĠStacy": 8910,
      "ĠChristine": 8911,
      "Melvin": 8912,
      "Ġshad": 8913,
      "ĠSuzie": 8914,
      "ĠBrilliant": 8915,
      "Susanne": 8916,
      "Ġtrains": 8917,
      "Ġcrash": 8918,
      "Ġdeserves": 8919,
      "Ġpersonally": 8920,
      "ooooo": 8921,
      "Ġaddict": 8922,
      "ĠDana": 8923,
      "Ġorganised": 8924,
      "Ġattached": 8925,
      "ological": 8926,
      "magine": 8927,
      "Donnie": 8928,
      "ĠKev": 8929,
      "Ġincon": 8930,
      "Ġstrict": 8931,
      "Rosemary": 8932,
      "Ġtopics": 8933,
      "ï¼Ī": 8934,
      "Ġcentury": 8935,
      "Valent": 8936,
      "Ġcomplaint": 8937,
      "Ġcountryside": 8938,
      "Ġdrag": 8939,
      "Ġappreciated": 8940,
      "Walt": 8941,
      "Ġtastes": 8942,
      "ĠNOW": 8943,
      "Ġtourists": 8944,
      "Ġediting": 8945,
      "Ġcampaign": 8946,
      "Ġinclude": 8947,
      "Fabio": 8948,
      "eeey": 8949,
      "Aleks": 8950,
      "Ġruin": 8951,
      "Ġrecorded": 8952,
      "Ġqueen": 8953,
      "Ġkisses": 8954,
      "Ġofficially": 8955,
      "Ġsavings": 8956,
      "Ġpostponed": 8957,
      "ĠAnton": 8958,
      "Ġbakery": 8959,
      "Ġdivorced": 8960,
      "ĠCalifornia": 8961,
      "ĠPLN": 8962,
      "Kelsey": 8963,
      "Ġparticipate": 8964,
      "Ġbirds": 8965,
      "Bernadette": 8966,
      "Karolina": 8967,
      "Dakota": 8968,
      "Ġproduc": 8969,
      "Ġunsure": 8970,
      "ĠGeorgia": 8971,
      "Makayla": 8972,
      "Ġlipst": 8973,
      "Ġreceipt": 8974,
      "ĠWelcome": 8975,
      "Warren": 8976,
      "Ġwardrobe": 8977,
      "Ġforgive": 8978,
      "Ġacademic": 8979,
      "Ġnicer": 8980,
      "Ġequipment": 8981,
      "ĠAmsterdam": 8982,
      ":ÃĹ": 8983,
      "Abe": 8984,
      "Buba": 8985,
      "CH": 8986,
      "Cait": 8987,
      "Darek": 8988,
      "Dimit": 8989,
      "Fisher": 8990,
      "Fedora": 8991,
      "IP": 8992,
      "Jem": 8993,
      "Lona": 8994,
      "Lonya": 8995,
      "Micky": 8996,
      "Minnie": 8997,
      "Ni": 8998,
      "Play": 8999,
      "Rash": 9000,
      "Sana": 9001,
      "bu": 9002,
      "books": 9003,
      "belle": 9004,
      "don": 9005,
      "eber": 9006,
      "for": 9007,
      "fish": 9008,
      "ked": 9009,
      "kah": 9010,
      "loyd": 9011,
      "mins": 9012,
      "overs": 9013,
      "rant": 9014,
      "round": 9015,
      "uced": 9016,
      "vol": 9017,
      "war": 9018,
      "âľ": 9019,
      "Ġ)": 9020,
      "Ġtar": 9021,
      "Ġtro": 9022,
      "hehe": 9023,
      "Ġwore": 9024,
      "ĠiPh": 9025,
      "ĠIrish": 9026,
      "ĠImagine": 9027,
      "Ġbars": 9028,
      "Ġtheory": 9029,
      "Ġcities": 9030,
      "Ġcya": 9031,
      "Ġfi": 9032,
      "Ġferry": 9033,
      "Ġdiner": 9034,
      "Ġge": 9035,
      "Ġgrew": 9036,
      "Ġpets": 9037,
      "Ġparent": 9038,
      "Ġlower": 9039,
      "Ġnar": 9040,
      "ening": 9041,
      "itius": 9042,
      "Ġitalian": 9043,
      "Ġhint": 9044,
      "Ġweb": 9045,
      "Ġonto": 9046,
      "ĠTer": 9047,
      "ĠSil": 9048,
      "ĠSrsly": 9049,
      "imi": 9050,
      "Ġreject": 9051,
      "aden": 9052,
      "adise": 9053,
      "Ġkett": 9054,
      "osc": 9055,
      "ĠYay": 9056,
      "ĠME": 9057,
      "riff": 9058,
      "rika": 9059,
      "iago": 9060,
      "ĠBarry": 9061,
      "ĠCec": 9062,
      "ĠCard": 9063,
      "ĠCaleb": 9064,
      "ĠCiao": 9065,
      "Ġwasnt": 9066,
      "ĠJod": 9067,
      "ĠLen": 9068,
      "Ġfrank": 9069,
      "Ġsheet": 9070,
      "str": 9071,
      "ĠTheo": 9072,
      "ffy": 9073,
      "ĠFort": 9074,
      "ĠFire": 9075,
      "Ġgoodness": 9076,
      "uming": 9077,
      "berries": 9078,
      "ianna": 9079,
      "Ġfemin": 9080,
      "Ġspect": 9081,
      "Ġspons": 9082,
      "Ġrace": 9083,
      "Ġrights": 9084,
      "Ġarrest": 9085,
      "Ġclinic": 9086,
      "Alicja": 9087,
      "Ġbrunch": 9088,
      "Ġcoff": 9089,
      "Ġpean": 9090,
      "Ġ55": 9091,
      "Ġadmin": 9092,
      "Christy": 9093,
      "Ġguilty": 9094,
      "Ġwhereas": 9095,
      "attle": 9096,
      "ĠUntil": 9097,
      "ĠVince": 9098,
      "Ġactor": 9099,
      "Ġactress": 9100,
      "together": 9101,
      "ĠMarvel": 9102,
      "Elliott": 9103,
      "Keen": 9104,
      "Ġworrying": 9105,
      "Helene": 9106,
      "!!!!!!!": 9107,
      "Abd": 9108,
      "Abi": 9109,
      "Abraham": 9110,
      "Angella": 9111,
      "Janny": 9112,
      "Ġinstagram": 9113,
      "Ġadvised": 9114,
      "Ġclever": 9115,
      "Ġavoc": 9116,
      "ĠSamuel": 9117,
      "Ġmarathon": 9118,
      "play": 9119,
      "Ġskating": 9120,
      "Ġregards": 9121,
      "Camila": 9122,
      "ĠMarta": 9123,
      "ropri": 9124,
      "ĠChick": 9125,
      "Ġkeyboard": 9126,
      "ĠAlexis": 9127,
      "Ġspeaker": 9128,
      "Ġexperiment": 9129,
      "Ġcommit": 9130,
      "Ġneighbors": 9131,
      "ebeca": 9132,
      "Ġlandlord": 9133,
      "Ġaccidentally": 9134,
      "Raven": 9135,
      "ĠAgreed": 9136,
      "vision": 9137,
      "Ġattended": 9138,
      "Ġpaperwork": 9139,
      "Ġtraveling": 9140,
      "Ġpractical": 9141,
      "Ġreminded": 9142,
      "Ġdoubts": 9143,
      "Ġengage": 9144,
      "Ġenglish": 9145,
      "Ġpanel": 9146,
      "Ġdirection": 9147,
      "Ġshuttle": 9148,
      "?!?!?!": 9149,
      "Ġsooooo": 9150,
      "Ġpsychology": 9151,
      "Ġmedication": 9152,
      "Ġqueue": 9153,
      "Ġcastle": 9154,
      "ĠPamela": 9155,
      "Ġislands": 9156,
      "Maciek": 9157,
      "Ġdemanding": 9158,
      "Kelvin": 9159,
      "Ġsearching": 9160,
      "Ġlocked": 9161,
      "Ġproposes": 9162,
      "Przemek": 9163,
      "Ulrich": 9164,
      "Ġsandwich": 9165,
      "Ġhobby": 9166,
      "Ġexperienced": 9167,
      "Ġrarely": 9168,
      "Ġlicense": 9169,
      "Ġtmr": 9170,
      "ĠOlga": 9171,
      "Ġresponsibility": 9172,
      "Octavia": 9173,
      "ĠCosta": 9174,
      "Ġnetwork": 9175,
      "Ġtalented": 9176,
      "Ġmultip": 9177,
      "ĠSusie": 9178,
      "Ġpurchase": 9179,
      "Eugene": 9180,
      "ĠMauritius": 9181,
      "Ġphilos": 9182,
      "ĠUkraine": 9183,
      "Ġphotographer": 9184,
      "Ġuncomfortable": 9185,
      "Ġinconven": 9186,
      "Sanaz": 9187,
      "!)": 9188,
      ".?": 9189,
      "70": 9190,
      ":-)": 9191,
      "Chant": 9192,
      "Hell": 9193,
      "Jacek": 9194,
      "Kerri": 9195,
      "Landon": 9196,
      "Nola": 9197,
      "Os": 9198,
      "Pola": 9199,
      "Ree": 9200,
      "Shar": 9201,
      "To": 9202,
      "aired": 9203,
      "bet": 9204,
      "boy": 9205,
      "cl": 9206,
      "card": 9207,
      "gently": 9208,
      "kle": 9209,
      "lara": 9210,
      "nus": 9211,
      "pool": 9212,
      "pany": 9213,
      "uke": 9214,
      "uana": 9215,
      "vet": 9216,
      "wig": 9217,
      "âĤ¬": 9218,
      "Ġtha": 9219,
      "Ġtie": 9220,
      "Ġtrend": 9221,
      "Ġwire": 9222,
      "reads": 9223,
      "Ġsigning": 9224,
      "onzo": 9225,
      "Ġir": 9226,
      "Ġbright": 9227,
      "Ġbang": 9228,
      "Ġther": 9229,
      "Ġmer": 9230,
      "Ġmeth": 9231,
      "Ġmode": 9232,
      "Ġcert": 9233,
      "Ġden": 9234,
      "Ġded": 9235,
      "Ġdread": 9236,
      "aries": 9237,
      "ario": 9238,
      "Ġpath": 9239,
      "Ġna": 9240,
      "ito": 9241,
      "icing": 9242,
      "iches": 9243,
      "Ġoooo": 9244,
      "Ġbell": 9245,
      "Ġforced": 9246,
      "ĠTara": 9247,
      "ĠTroy": 9248,
      "ĠSun": 9249,
      "Ġeld": 9250,
      "ims": 9251,
      "ĠWood": 9252,
      "ĠHilary": 9253,
      "ĠHuh": 9254,
      "Ġrefu": 9255,
      "ĠAL": 9256,
      "ĠAp": 9257,
      "Ġdoable": 9258,
      "Ġstro": 9259,
      "Ġstood": 9260,
      "Ġstran": 9261,
      "Ġstates": 9262,
      "ĠYess": 9263,
      "ĠMall": 9264,
      "ĠMarry": 9265,
      "Ġankle": 9266,
      "Ġjoy": 9267,
      "ĠBt": 9268,
      "ĠBook": 9269,
      "ĠCD": 9270,
      "ĠCra": 9271,
      "ilo": 9272,
      "ilian": 9273,
      "elling": 9274,
      "ĠJeez": 9275,
      "ĠJudy": 9276,
      "ĠJuan": 9277,
      "ĠJasmine": 9278,
      "ĠLo": 9279,
      "rah": 9280,
      "olton": 9281,
      "thias": 9282,
      "Ġwhose": 9283,
      "ppers": 9284,
      "ĠGP": 9285,
      "ĠPad": 9286,
      "ĠPres": 9287,
      "Marisol": 9288,
      "cean": 9289,
      "Ġtheyre": 9290,
      "ðŁĩ": 9291,
      "ĠFab": 9292,
      "ĠFunny": 9293,
      "Ġprove": 9294,
      "ĠEls": 9295,
      "ĠEasy": 9296,
      "Ġcomic": 9297,
      "mao": 9298,
      "bey": 9299,
      "bekah": 9300,
      "ðŁĺİ": 9301,
      "ðŁĺł": 9302,
      "Ġvo": 9303,
      "Ġspicy": 9304,
      "ĠKathy": 9305,
      "phis": 9306,
      "phonse": 9307,
      "never": 9308,
      "Ġoffended": 9309,
      "istry": 9310,
      "ucky": 9311,
      "Emmy": 9312,
      "isson": 9313,
      "ĠðŁĺķ": 9314,
      "Ġovernight": 9315,
      "Ġdebt": 9316,
      "Ġnicely": 9317,
      "Ġads": 9318,
      "Ġrecording": 9319,
      "check": 9320,
      "Ġunpleas": 9321,
      "axy": 9322,
      "Ġblow": 9323,
      "Natty": 9324,
      "Ġcarefully": 9325,
      "Ġdisli": 9326,
      "lley": 9327,
      "ĠMarge": 9328,
      "Theod": 9329,
      "ĠNeil": 9330,
      "ĠShoot": 9331,
      "ĠBridget": 9332,
      "Ġcrime": 9333,
      "Ġsuggestion": 9334,
      "Ġsitu": 9335,
      "Ġpointless": 9336,
      "ĠTrust": 9337,
      "Ġspends": 9338,
      "Ġmarks": 9339,
      "Magdalene": 9340,
      "oked": 9341,
      "Ġterribly": 9342,
      "Ġorganic": 9343,
      "Ġsuperhero": 9344,
      "Ġurgently": 9345,
      "Ġhorse": 9346,
      "Ġwarning": 9347,
      "ĠForget": 9348,
      "lander": 9349,
      "uuu": 9350,
      "Ġbarg": 9351,
      "ervative": 9352,
      "ĠUnited": 9353,
      "Ġresponse": 9354,
      "Chet": 9355,
      "Ġprize": 9356,
      "ĠPhD": 9357,
      "ĠJoshua": 9358,
      "Ġclip": 9359,
      "Ġcaused": 9360,
      "Ġvacc": 9361,
      "Ġsupportive": 9362,
      "Ġchatting": 9363,
      "Ġtreating": 9364,
      "Gabriela": 9365,
      "Ġrelaxing": 9366,
      "Ġmodels": 9367,
      "Ġfollowed": 9368,
      "Leonard": 9369,
      "ĠMadison": 9370,
      "ĠMaddie": 9371,
      "Isaiah": 9372,
      "Alfonso": 9373,
      "Peyton": 9374,
      "Ġgraduation": 9375,
      "Ġindust": 9376,
      "Norah": 9377,
      "ĠGabrie": 9378,
      "Ġboobs": 9379,
      "Lawrie": 9380,
      "Ġnorth": 9381,
      "Ġentirely": 9382,
      "Glenn": 9383,
      "Tessy": 9384,
      "Irwin": 9385,
      "ĠElizabeth": 9386,
      "ĠCoffee": 9387,
      "Ġbelow": 9388,
      "ĠNorth": 9389,
      "Ġleader": 9390,
      "Ġuploaded": 9391,
      "Lilah": 9392,
      "Ġprayers": 9393,
      "Ġ:'(": 9394,
      "Ġsuspects": 9395,
      "Cassie": 9396,
      "Ġmirac": 9397,
      "Ġscrewed": 9398,
      "Ġlemon": 9399,
      "Francine": 9400,
      "ufus": 9401,
      "Ġbaseball": 9402,
      "ĠLeslie": 9403,
      "ĠFelix": 9404,
      "Ġindependent": 9405,
      "Brendon": 9406,
      "Ġrehearsal": 9407,
      "Ġsomeday": 9408,
      "Ġdesperate": 9409,
      "Jolene": 9410,
      "Ġprocedure": 9411,
      "Ġambulance": 9412,
      "Zuza": 9413,
      "Ġreveal": 9414,
      "ĠSpiderman": 9415,
      "Ġmiserable": 9416,
      "ĠiPhone": 9417,
      "Ġkettle": 9418,
      "Ġspectac": 9419,
      "43": 9420,
      "AJ": 9421,
      "According": 9422,
      "Dr": 9423,
      "Dianne": 9424,
      "Enzo": 9425,
      "Gu": 9426,
      "Gigi": 9427,
      "Jayson": 9428,
      "Lance": 9429,
      "Mash": 9430,
      "Mitche": 9431,
      "Op": 9432,
      "Ria": 9433,
      "Sant": 9434,
      "Seb": 9435,
      "Tia": 9436,
[...]
