#version: 0.2
Ġ t
č Ċ
Ġ a
h e
i n
Ġ w
o u
r e
Ġ s
h a
o n
Ġ i
Ġ I
Ġ b
Ġt he
l l
a n
Ġ y
Ġ m
Ġt o
e r
o r
in g
Ġ c
Ġ f
Ġy ou
n d
Ġ d
a r
Ġ g
e s
Ġ p
Ġ l
Ġ n
e n
o m
a t
i s
e t
i t
a y
o t
v e
Ġi t
ha t
o w
e d
i c
Ġa nd
Ġ o
Ġ ha
a s
l e
' s
Ġ h
Ġ he
Ġ in
u s
i ll
k e
Ġb e
o o
Ġi s
Ġf or
Ġt h
Ġw e
Ġ on
Ġ T
u t
a c
Ġ S
i d
' t
i e
. .
Ġ e
Ġo f
Ġm e
i m
Ġ W
Ġ H
l d
a m
Ġ re
g h
Ġt hat
om e
Ġ A
l y
a l
Ġw ill
ou t
Ġd o
Ġ :
a d
Ġ k
Ġn e
e l
Ġs t
Ġs o
a ll
Ġha ve
o s
Ġ Y
Ġa t
Ġ u
Ġ M
it h
gh t
v er
Ġg o
Ġa re
r y
r i
Ġw ith
Ġa n
Ġb ut
ou ld
Ġ j
Ġs e
Ġc an
i a
Ġn ot
Ġ čĊ
us t
i r
r o
Ġk n
ha n
t er
e a
c h
Ġ O
Ġl i
Ġkn ow
en t
Ġ B
an t
Ġ C
' m
i on
Ġw as
Ġm y
Ġa b
he r
Ġs u
o p
Ġ N
Ġ D
Ġa s
k s
all y
Ġd on
i l
Ġab out
u l
Ġw hat
ar t
' ll
e ll
Ġ J
Ġ L
Ġhe r
â Ģ
r a
Ġs h
in k
oo d
Ġw or
n a
d ay
Ġth is
a ke
o l
at e
t h
Ġf r
ic k
.. .
Ġj ust
Ġs ome
Ġs he
Ġli ke
s t
in e
e c
ac k
Ġthe re
Ġw ant
Ġyou r
an d
Ġa l
es s
! !
Ġw h
ou r
p p
âĢ Ļ
o re
ĠT he
Ġ G
Ġp l
i le
Ġ P
u r
Ġg et
a b
Ġth ink
i ght
ic e
o b
in d
im e
M ar
Ġse e
Ġu p
c e
Ġthe y
u n
s e
Ġ <
Ġgo ing
Ġan y
oo k
g e
Ġt ime
ĠI t
Ġd id
on e
ea h
ð Ł
as t
ver y
Ġw he
Ġto o
Ġne ed
ĠH e
a re
Ġo k
c k
Ġon e
ĠY ou
f f
Ġn o
Ġ: )
r is
es t
A n
Ġha s
Ġ or
Ġa ll
Ġ F
J o
Ġfr om
Ġp ro
Ġg ood
Ġ out
' re
t e
f ile
u y
ot her
Ġi f
Ġe x
Ġ R
r ow
Ġwor k
Ġ E
n t
h ing
Ġh im
Ġc om
ĠW hat
u m
ou nd
v en
Ġre ally
Ġh is
m a
Ġ 1
u re
e p
Ġn ow
n y
Ġw ould
Ġt han
Ġwe e
Ġ us
ay s
Ġme et
l i
Ġc ome
Ġthe m
ac e
a in
Ġh ow
Ġne w
at ion
or row
b er
re at
ar d
ar a
Ġg ot
o ve
Ġc on
b e
i ve
e ar
e e
Ġsu re
q u
re s
it e
in a
i an
r an
ðŁ ĺ
Ġ v
i f
ri ght
Ġ 2
Ġthe n
u d
Ġsh ould
Ġwhe n
Ġa g
b le
al k
i g
Ġf e
ec t
c t
Ġto m
Ġs p
x t
om et
a k
Ġy es
h n
Ġ r
' ve
Ġa f
Ġ K
us e
Ġtom orrow
ĠA nd
on g
os t
ĠN o
am e
Ġb ack
h ris
er s
u ch
p h
ĠW e
re d
Ġs omet
c a
Ġ right
Ġh ome
e m
or t
Ġm uch
Ġa r
l a
th ing
u e
ay be
oo l
n e
Ġ ;
o d
Ġa m
ĠS he
T om
ĠT han
ha r
Ġdo es
a ul
ĠB ut
Ġof f
ou s
Ġl ook
ĠO k
Ġl et
Ġbe en
Ġha d
a it
ĠY es
Ġc ould
Ġaf ter
Ġt ake
Ġto day
ĠY eah
ĠH a
Ġwe ll
i ke
Ġsomet hing
ot o
Ġs a
ou gh
ad y
Ġt alk
Ġe very
Ġm ore
i ly
t y
Ġha pp
an na
Ġc l
L u
ĠH ow
Ġc he
Ġm an
Ġp art
e nd
Ġb y
ĠS o
ic a
C ar
a v
ĠT hat
or ry
os e
as s
Ġg reat
Ġy eah
? ?
Ġw ait
v ing
Ġp re
Ġw on
Ġl ove
a g
ĠThe y
Ġas k
ĠO h
A l
Ġb r
Ġne xt
Jo hn
Ġl ast
et er
Ġc all
is t
n ing
Ġe ven
Ġ qu
ou ght
Ġb et
Ġb uy
Ġst ill
as e
Ġm ake
m y
ac t
Ġwh y
ie nd
Ġhe l
ĠH i
Ġdid n
Ġ very
Ġhel p
ph oto
Ġw at
is h
h y
i es
id e
p er
u ck
ca use
Ġwh o
Ġc h
c y
ar y
Ġbe cause
i z
Ġi d
op e
Ġg uy
Ġhe re
Ġwee k
o in
E m
P aul
Ġth ing
Ġ; )
le x
D an
Ġc o
Ġha ha
Ġl e
Ġpl ace
an e
o y
Ġy ear
Ġthan ks
is s
Ġp e
Ġ ðŁĺ
Ġt ry
Ġt ell
Ġ 3
re e
K ate
Ġo ver
Ġ x
S am
Ġwe re
ic t
Ġ other
Ġfe el
ow n
op le
Ġw ay
res s
e re
Ġd e
l ie
Ġs ay
Ġd ay
Ġwant s
t ing
Ġ our
Ġp r
w ay
g et
Ġdoes n
er t
Ġn ice
ĠHe y
Ġpe ople
Ġ en
u b
Ġm aybe
a il
ar ry
Ġt e
ble m
w ays
Ġs orry
m ent
A nd
ic h
Ġon ly
s o
Ġf ind
Ġpro blem
ĠThan ks
Ġt on
Ġm in
Ġ 5
ĠW ell
it y
i p
Ġcom ing
Ġbet ter
g an
ĠD o
Ġl ot
M art
Ġa d
re ady
Ġd i
os s
Mar y
C hris
J en
P eter
he re
P at
Ġme an
a p
Ġal ready
A d
a u
Ġg u
Ġwhe re
Ġse nd
Ġag ain
at t
A lex
Ġre c
Ġpart y
Ġton ight
Ġpl an
An na
at er
Ġfr iend
l o
Ġst art
R ob
Ġb it
J ack
m m
ir st
am es
Ġre m
Ġp h
Ġn ight
as on
le ase
ĠT h
M ike
ac h
ir l
Ġany thing
Ġcom p
Ġ U
F ran
ar k
Ġal ways
Ġb us
Ġwat ch
on na
Ġc ar
' d
S ara
Ġid ea
ll y
at her
Ġg ive
Ġt r
Ġl ong
ĠC an
ĠN ot
f ore
is e
J ul
ĠS ure
Ġ -
a ge
Ġthe ir
a h
Ġche ck
Ġd r
Ġal so
Ġguy s
in n
i ous
B r
Ġt w
Ġ ke
Ġhapp en
Ġpl ay
g g
Ġw r
ie l
Ġbe fore
Ġf un
Ġg r
it t
!! !
is a
u ally
Ġf ine
Ġc our
Ġo h
le y
c he
Ġa pp
Ġ1 0
J os
Ġl ea
Ġst ay
Ġi m
Ġh our
Ġar ound
Ġu n
Ġbr ing
Ġso on
r ic
Ġg irl
Ġt ra
s el
Ġ V
Ġf irst
Ġ 4
Ġth ought
em ber
ĠA re
Ġc han
A m
Ġy et
Ġex p
ab le
Ġl ate
Mar k
one y
Ġf in
Ġcour se
ĠI s
o v
ound s
c c
Ġp er
An n
on ica
Ġb ad
Ġmeet ing
a x
id ay
ke nd
Ġgu ess
Ġm on
ĠJ o
Ġwee kend
s h
Ġ ro
p t
Ġf l
Ġl ater
S te
J ane
Ġa ct
v ia
ĠJ ust
Ġdo ing
Ġp ick
O li
Ġl ol
Ġ: (
l es
Ġj ob
ĠC hris
d er
er ry
B en
T im
e or
v in
Ġ "
Ġ 7
Ġs er
ind a
ĠHa ve
oo ks
Ġmin ut
e an
Ġt ri
Ġh ope
ou p
ou nt
Ġst u
Ġb ook
J im
f t
sel f
M att
ĠG ood
C har
Ġd ec
Ġ 6
Ġb l
Ġp lease
v a
ĠA n
ĠW hy
et h
Ġ Ċ
M ic
Ġne ver
Ġtw o
N at
Ġb est
J ess
on d
Ġ ðŁ
Ġv is
ĠS t
Ġmon th
Ġin v
Ġse en
a ve
re w
re g
f e
w e
or d
Ġrem ember
L e
re st
Ġto ld
Ġd own
o g
ĠF r
ĠO K
Ġc are
and a
ak ing
av id
Ġk id
ad e
Ġj oin
Ġvis it
Ġc ool
ch ool
i am
Ġs c
Ġm ight
or y
y l
Ġ 8
Ġd ays
Ġm or
ab ly
Ġcl ass
Ġg onna
Ġd is
ĠM aybe
Ġlook ing
ĠA l
Ġh i
g if
on a
ĠThan k
Ġevery thing
i ld
Ad am
od y
e b
Ġre ad
ll e
Ġsh ow
Ġs ame
Ġs chool
on y
at ur
Ġw ent
itt le
m as
ter day
nd er
Ġwh ich
get her
Ġhapp y
t o
ict or
Ġdi ff
i re
Ġpro b
eor ge
ha el
Ġsa id
or m
Ġb ir
ĠD id
Ġminut es
ou se
et s
ĠD on
Ġsh op
n g
Ġo ld
Ġin te
Ġl ittle
he n
Ġth ough
Ġre s
Ġmor ning
Ġhe y
Ġto gether
Sara h
ion s
Ġ X
are nt
au ra
Ġfe w
Ġm iss
ĠA ny
ĠM ar
op h
inn er
Ġyes terday
E ll
p ort
W ill
Ġthing s
T he
Ġ: -
Ġneed s
o lly
ell y
Ġe at
Ġb ot
ar b
i al
Ġa cc
ĠT om
Ġwant ed
f ect
Jos h
.. ..
Ġu nder
Ġsu pp
Ġm oney
ĠFr iday
ac he
Ġinte rest
I s
ĠI f
atur day
en s
Ġle ft
0 0
Ġbir th
Ġf ree
ell a
v es
Ġb ig
Ġwait ing
? !
Ġget ting
G reg
Ġm om
Fran k
J ames
Ġs m
Ġke ep
re n
Ġit s
ĠThe re
ĠChris t
ĠM e
oin t
Ġb ro
n es
ri an
J ake
ĠS ee
Ġdon e
J ac
Ġd inner
Em ma
ĠN e
el en
e ff
ur n
Ġbirth day
Ġhe ard
Ġe ar
ĠM y
Ġqu ite
f ul
ĠI n
M el
K im
ĠHa ha
an y
Ġthink ing
K e
z y
Ġwork ing
Ġm ov
Ġli k
w ard
om m
n o
Ġact ually
m s
act ly
Ġstu ff
b y
le ep
Ġhappen ed
Ġh ouse
Ġman y
u p
Ġe nd
g ot
Ġs ounds
i er
ri ve
ac y
Ġe l
Ġre st
Ġprob ably
3 0
or a
an cy
M onica
V ictor
Ġt ick
D avid
en ry
Ġha ven
ĠS aturday
ĠW h
Car ol
S t
t ty
Ġha r
Ġnot hing
Al ice
Ġst ud
G eorge
Ġs ha
et e
M e
Ġcon t
Mart ha
Ġp ay
âĢ ¦
Em ily
N ick
Ġa w
Jo e
Dan iel
Ġf ound
us an
ul t
Ġb re
Ġf ood
L aura
ĠW here
Ġlea ve
ian a
ĠW hen
n ie
o e
Ġf am
Ġhe ar
Ġel se
Ġfriend s
Ġc at
Jen ny
o c
ĠL et
anna h
Ġbus y
A r
r ick
z a
ĠW ill
Ġsu r
at h
ill y
M ia
H arry
un ch
Ġm ay
And y
ĠJo hn
M ax
in ks
F red
c ar
Ġk ind
a ir
im es
Mar ia
Ġoff ice
ĠChrist mas
Ġwor ry
are n
i k
i o
ud e
Oli via
L inda
at ed
P h
Ġf uck
Ġbe lie
S oph
a w
Ġsome one
Ġhaha ha
Ġpre tty
Ġsu ch
Lu cy
Ġst op
B ob
Ġp res
Ġo p
Ġfor got
Ġph one
j ect
and y
L isa
Ġb ab
Ġb ought
arent s
Ġp m
and ra
s on
Ġha ving
Ġthan k
Ġw anna
Ġan other
d ing
Ġl ooks
Ġeven ing
in ce
ĠL O
ĠG reat
Ġok ay
H elen
a a
Ġm ind
Ġ (
ĠS u
ma z
l ine
Lu ke
i x
um ber
Ġ hat
Ġ: /
Rob ert
Ġdiff ere
t a
Ġyear s
p e
Ġp arents
Ġ2 0
Ġin to
i en
p ing
el a
ver s
ache l
H enry
ig n
Ġs leep
Jul ia
Mic hael
d y
i ble
re y
Ġrec omm
Ġm ost
Ġrecomm end
Ġa way
Ġex c
j oy
!! !!
an ce
ut e
Ġro om
Ġm ade
Ġse c
Ġdon t
J eff
ĠH ell
Ġag o
ĠS h
ak es
Ġus e
Ġhar d
che d
f r
Ġp ut
Ġdr ink
Jac ob
Ġsa w
Ġper fect
g er
Ġtri p
p m
Ġli fe
ation s
Ġl ist
ĠB r
Ġbot h
Ġs ent
S ue
at ing
Ġd el
Ste ve
it ed
A b
u g
Ġl uck
ĠTh is
Ġc ook
os ed
Ġbelie ve
G r
S usan
An g
Ġtra in
Ġunder st
u es
Ġth ose
K elly
ri ed
Ġpre p
Ġen ough
ĠLO L
Ġn umber
Ġcon f
ne y
Ġg ame
Ġte xt
i v
ĠS orry
en ny
Ġe as
Ġkid s
Ġg l
Ġe ach
Ġser ious
Ġm ust
Ġre ady
ict ure
Ġmov ie
Ġfam ily
it her
ers on
J an
ĠOk ay
Ġm ess
ĠL u
Ġthe se
ĠHell o
Lu c
i b
Ġp ass
ĠC ar
Ġle ast
e ver
Ġwh ile
Ġdis c
Ġs we
maz ing
k y
And rew
Ġhour s
Ġ 9
Ġd ress
H annah
he s
Ġtick ets
A my
B arb
et ty
ent s
Ġex am
Ġm um
G ab
Ġp ost
Ġx D
ĠX D
E l
Ġf ar
is on
us s
E d
s ide
Ġcomp l
Ġunderst and
Ġs ick
C l
Ġd ad
en a
ic s
Ġ: *
ff ee
Ġevery one
Ġdiffere nt
Ġm ove
ĠM on
o le
r ie
w here
Ġin st
Ġsh it
Ġad v
i red
K aren
t on
Ġl unch
Ġex actly
ĠR e
Ġth r
Ġchan ge
Ġc r
d ie
Ġc le
om as
as h
a use
Ġany way
C la
or k
A sh
ide o
b r
Ġin f
Ġwatch ing
Ġen joy
ric ia
Ġwee ks
Ġm at
Ġd es
Ke vin
Ġin ter
ut h
ol a
fr iend
on s
Ġb oy
Ġbe ing
Ġtr ue
s car
K at
Ġd ate
Z oe
if t
Ġqu est
a ur
Ġco ffee
Mart in
E li
N o
Jess ica
A g
n ce
o ld
u al
Ġh ot
ir d
l ing
Ġl ess
b s
h h
Ġa mazing
el ia
an k
ma il
l or
Ġp erson
Ġ1 5
gg est
Ġ own
ar s
Ġsu ggest
I an
Ġp icture
J ason
ion a
Ġwho le
Am anda
Ġn ame
it ion
Ġplan s
f in
Ġa p
Ġc ra
oo oo
Ġs is
Ġx x
Ġshop ping
ic al
B ill
R achel
et te
ick y
Ġtalk ing
w n
es ome
N ancy
re t
Ġbre ak
m e
T ina
T h
Ġis n
f er
Ġad d
ĠS p
Ġus ed
Ġcon c
Ġpro ject
E va
h lo
m ost
o ot
il a
p ris
Ġc oup
Ġsee ms
M ay
Ġre al
Ġtoo k
m er
Ġm et
Ġhe ad
An ne
iz za
he d
Ġgr oup
L iz
S im
er y
Ġr un
Ġcall ed
hlo e
Ġst h
Ġor der
J ay
y le
Ġd ep
H ar
Ġs it
Ġs ince
nt il
ot hy
ri es
T ony
Ġnew s
Ġpr om
Ġ:- )
E ve
a le
o x
D ave
Ġh ol
Ġon ce
ĠD an
en n
Ġw alk
Ġp oint
ĠT r
Ġ ra
nd ay
Ġp a
Ġa v
ĠS am
Ġsp end
Pat rick
Soph ie
Ġop en
Ġab le
b ody
l f
Ġe ver
Ġask ed
Ġm ar
ens ive
Ph il
Ġpres ent
D iana
Ġas s
t en
Ġc ount
ep h
Ġthr ough
Ġs et
Ġdo g
Paul a
Ġsur pris
r s
Ġhe ll
?? ?
Ġhat e
Ġs w
ly n
Ġu ntil
Ġtry ing
Ġt est
Ġwe ar
ite ly
Ġwas n
Ġha nd
Ġwith out
G ina
it a
ĠO f
Ġfeel ing
Ġmonth s
Ġcoup le
t han
ur s
fin itely
a ut
c o
u ll
Ġal most
ĠF ran
ĠE m
Ġwon der
Victor ia
Ġprep are
S ally
v ie
y e
M ag
u el
ve l
o ll
Ġf av
Luc as
d e
an a
Ġcon s
Pat ricia
o k
Ġt er
Ġsp ec
ct or
R ose
Ġt aking
he w
ĠP aul
c es
Ġb ed
Ġlik es
Ġwor ks
Ġany one
Ġsupp osed
p l
Ġfl ight
D or
O scar
g ie
Ġt urn
Ġbe aut
m an
n ot
Ġp izza
it ing
he lle
Ġexp ensive
Ġwr ong
T r
Ġs k
ĠC ool
M om
ot t
Ġim p
ĠSu nday
re am
ĠM ike
Ġag ree
Chris t
r at
Ġw ish
Ġth inks
Ġgirl s
L iam
o ck
Ġs ays
Ġor gan
Ġbab y
Ġli ve
T erry
Ġfun ny
Nat al
Is ab
Ġp ol
ri ble
No ah
ĠJ ack
Ġc ity
ĠP eter
Ġwr ite
S andra
m ore
w en
y n
Ġp oss
Jo an
Ġswe et
ĠMon day
L ou
y an
Ġw ine
an g
ur ing
Ġstart ed
i gh
if er
Ġlea ving
Le o
Ġinterest ing
Ġre d
B rian
Ġsis ter
p s
ile y
un e
ran s
F iona
en e
Ġ3 0
ke y
Ġsu per
d en
Ġu r
ust in
art ment
har d
Ġch ild
Th omas
B etty
Ġw ed
Ġc har
ĠM ary
c ome
ce pt
Char lie
ona ld
ĠA s
Ġ1 2
Ġar rive
Ġplan ning
Ġfin is
Ġbe er
ra id
Ġexp ect
Ġre g
Ġmy self
J on
Ġto wn
ant ha
c ks
Ġm us
Ġha lf
ĠA ll
a is
Ġt ired
Ġg ift
E ric
u ct
ĠK ate
R ick
on t
Ġl ost
ind y
Gr ace
Ġstud y
g ry
D ar
l ot
Ġy a
ĠE x
Ġde al
Ġc ame
ĠL ike
Ġany more
M ad
R on
l in
Ġcan not
Ġchan g
Ash ley
R e
Ġh or
ĠR ob
u z
Ġc ase
Ġwould n
Ġplay ing
ĠNe w
Ġe m
are t
Ġaf raid
Ġear ly
C on
iz e
C hloe
ea k
if ul
Ġph oto
Ġdec id
C am
a i
Ġt rans
ha ha
Ġd uring
Ġinterest ed
v ent
Ġw in
R ic
e w
iss a
Ġwed ding
Ġaw esome
aur ant
Ġcould n
ĠS te
Ġe mail
Ġcle an
- )
N ina
Ġc ost
at es
Jos eph
Ġt imes
Ġon line
ĠO n
Jen n
Ġw ar
Ġtri ed
Sim on
id ent
Ag nes
Ġh on
ĠM art
Char les
ab eth
Ġafter no
Al an
Ġco ld
ail s
Ġcomp any
Will iam
ur t
Ġask ing
Ġeas y
Ġ ?
Ġd ri
ĠS ounds
ĠM ark
K ar
e ad
Ġto t
Br ad
L ily
ent ly
ĠP at
Ġrest aurant
ais y
o gan
Ġd rive
ot e
Ġdo ctor
ig ail
it al
Ġde finitely
Me gan
Barb ara
o or
or n
Ġp ub
os p
Ġafterno on
a z
Ġm other
id er
T ed
Ġs ong
oo se
v an
Ġbeaut iful
Cla ire
urs day
in s
Ġw ow
Ġm ed
Ġg i
ĠW ow
Mar g
Ġclass es
Ġbro ke
f ort
Ġsm all
ĠWh o
Ġconc ert
Ġyour self
ĠP lease
ĠF or
Ġfor get
um p
W end
l and
Ġs n
Carol ine
P am
Ġa ir
Car l
o ke
re nd
ĠA d
os h
ĠM ay
Ġlik ed
Me g
H e
p le
v or
Ġb as
Ġha ir
ĠB e
Ġbr other
Ġcont act
ĠRe ally
Ġ ent
Ġb oss
Ġm aking
Ġf il
Ġfin ish
Ġlist en
o ice
Ġm ine
Ġl ear
ro p
ĠO M
ĠC h
Ġke y
Ġim port
Ġsec ond
E r
Ġte ac
Ġ ...
Ġb u
Ġp ain
ĠN ow
Ġal one
y m
Ġa c
Ġs l
es e
ail able
Ġcra zy
M at
S ean
in ess
Ġhi gh
St an
ĠOM G
ĠO r
ĠC ould
P ete
Ġt ill
Ġquest ion
Ġimport ant
m ed
s w
ĠW ed
Wend y
Ġc ha
Ġd et
ine ma
Ġwe ather
ra b
Sam antha
Ġfin ally
R yan
ĠA t
al s
Ġre t
Ġat t
Ġan n
ate ly
ris t
Ġfl at
Ġinf orm
D onna
J erry
N ic
c ed
ĠA lex
ol og
ore d
Ġte am
c i
ar on
Ġe ither
am ie
Ġex t
Ġco ll
Ab igail
Natal ie
lot te
ran ge
o es
Ġ ve
re en
ve d
ĠY ep
Ġhas n
ĠðŁĺ Ĥ
Am elia
e le
Ġb orrow
or s
et t
it s
Ġin s
ĠS ara
ul ar
ĠJ ul
nes day
J ill
Ġc ard
res a
Jul ie
May a
Ġav ailable
Jenn ifer
Ġ '
ĠA m
Ġout side
Tr acy
Ġdecid ed
Ġsu mm
un k
Ġgl ad
A va
ou ch
Ġm ate
er n
Ġon es
R uth
u ri
Ġdisc uss
Ġs im
Ġg ave
en ce
ĠB en
Ġsu b
Ġwor ries
ĠG r
Ġspec ial
E than
an s
Ġsome where
Ġmom ent
vie w
Ġmus ic
g n
p id
or ing
Ġc ol
Ġd ear
Ġh u
ent ion
Ġproblem s
w ork
re et
V er
ing s
Ġc inema
oo o
te nd
Ġtalk ed
ĠTh ursday
ĠAn na
Nat han
Ġposs ible
c el
m in
le as
Ġne ar
Ġse ason
ma g
Oli ver
e as
Ġo pt
am n
Mic helle
Ġthat s
Dor othy
D on
ay la
ĠK e
Ġstu pid
H A
l ish
Ġre p
Ġfr ont
ues day
Ġp ack
are d
if e
Ġlove ly
ĠWed nesday
L ogan
i ally
y d
Ġan sw
ĠB l
ell e
ðŁĺ Ĥ
Ġhot el
ĠH ope
ĠM ic
ĠE ng
v ious
ĠI m
Ġoff er
Ġpre fer
ag es
a ure
Ġc ute
Ġin c
us h
Ġwor ld
Ġar t
ĠA r
Ell a
ien ce
Marg aret
B eth
k a
m ing
Ġw om
Ġun i
Ġinst ead
L illy
Ġb ooks
en se
Ġknow s
ber t
Ġph ot
Ġgr and
u ce
Ġp op
Ġp ark
Ġst ation
ĠThe n
Ric hard
K yle
ĠT o
ir a
ub y
And re
Ang ela
Mag gie
J ud
Ġb o
ĠH mm
ĠP ol
Ġ1 1
ĠSh ould
is ed
Ġag re
Ġcl ose
ĠWh ich
Ġs ing
Ġm akes
Ġk ill
ec ky
yl er
Ġc ause
ĠT uesday
Ġr ather
ere my
Ġst and
ĠP er
Ġsp eak
Ġrec ently
Ġphot os
as ha
ĠW ould
ter s
li er
Ġv ideo
Ġacc ount
Ġap artment
M olly
Ġst r
ĠB ye
Ġget s
ĠE very
od e
Ġch oose
Ġfinis hed
Ġi ll
Ġd ude
u u
ll ie
ay lor
Mar ie
Ġwat er
Ġde ad
au ght
Ġ Z
Ġm id
ic ally
Ġche ap
Ġtot ally
Ġsumm er
g a
Ġs ort
g o
Ġs al
Ġi mag
Ġg ames
ic ult
Ġre ason
Ġbuy ing
w w
Ġm o
Ġwe ird
Ġwor ried
Ġx d
R os
S uz
Ġexp l
ĠðŁ Ļ
Ġteac her
D aisy
L arry
c is
ic es
Ġh un
Jack ie
Ġhon est
i ed
Ġ â
Ġb ar
at han
Char lotte
Ġinv ited
Ġdet ails
D D
ll ing
Ġsh ort
ind s
Car on
Ġid eas
ress ed
Jim my
rend a
f u
re ct
er v
Ġh osp
Ġex per
Ġcom m
Ġbl ack
Ġear lier
Ġf ix
ro om
Ġsay ing
S he
g r
Ġdiff icult
Ġst ore
Ġal right
Ġgot ta
Ġlong er
yl an
igh b
b ook
am p
Ġdr unk
Ġcat ch
Ġwe l
Ġre qu
ĠJ an
ĠL ook
Ġcl ub
Ġpicture s
in t
Ġg ym
Ġman ag
l ess
Ġne ighb
Mar c
ap t
ir t
ĠR ight
Ġwat ched
ather ine
Ell ie
i ot
ĠC har
Jo anna
ĠðŁ ¤
n et
re vor
Ġg en
om in
Ġbus iness
Ġhosp ital
A aron
K en
i ff
it che
Ġcl ot
we en
J as
Ġ et
an c
Ġh oney
ĠU n
Ġres p
Ġsuggest s
Ġfav our
ĠN ice
ĠP ro
Pat ty
ond on
ĠEng lish
v ideo
Ġha ng
Ġre ce
ĠEx actly
Ġansw er
n er
Ġs ad
Ġto p
Ġf act
it ch
Ġgo es
Ġboy friend
J eremy
Ġ es
ĠO li
Ġsa fe
eb ec
Ġexc ited
J ean
m ber
u ro
ĠL e
ĠL ondon
ob y
ast ic
Ġpro f
Ġc ele
ere k
Ġl au
R uby
c ott
or i
Ġp ast
Ġth ree
ĠM att
ud rey
air s
Ġhol iday
Ġlear n
Ġwel come
i et
Ġm ain
ĠT im
il es
ĠJ im
Ġcom es
li x
Ġsomet imes
Ġstay ing
Ġgirl friend
Ġmiss ed
ik a
Ġan gry
p ec
s s
Ġ Q
Ġth x
ĠW anna
al ph
ĠC he
ĠL ove
ere nce
Ġdec ide
B art
J amie
Ġh mm
Ġchan ce
Ann ie
Ġser ies
Ġchild ren
D am
G ary
on ia
Ġf ly
Ġcan t
ĠN ope
pp y
ĠG od
Ġus ual
Ġet c
Ġcele br
b all
j am
u le
re nt
Ġl and
Ġfor ward
ĠJ ane
Ġbet ween
ĠðŁ ĳ
Ġinv it
Ġxx x
ĠFran k
ou d
Ġs ign
Ġkn ew
ĠG ot
Ġsee ing
Ġfeel s
Ġpr ice
Mel issa
Ġcompl ete
pec ially
C ha
Ġc op
ar is
Ġre nt
Ġdo or
ĠM r
S yl
s y
ï ¼
ow er
Ġre f
Ġre l
ĠD avid
B ecky
Ġt y
Ġe p
ĠJ ess
ol ute
ĠAny way
Ġbot t
H olly
Ġs ound
ĠC ome
Ġmess age
Ġcons ider
l ic
y y
Ġe le
ĠJ ames
Ġman age
ĠðŁĺ Ĭ
ĠHaha ha
V icky
m en
er g
Ġdr inks
Ġserious ly
Nic ole
u ation
z e
Ġb oring
Ġc ent
id ays
ro y
Ġab s
Ġqu ick
Ġinv ite
oint ment
Ġpa id
u gh
Ġb ored
Ġc ake
it ies
ac es
al th
ff ic
Ġimag ine
Ġh op
ace book
Ġsha re
d uct
sh ip
B renda
T aylor
a ly
ï ¸
Ġc ur
Ġe vent
Ġread ing
Ver onica
V al
on es
Ġp leas
Ġnot es
Ġwor th
fu lly
D ad
f lix
Ġa ff
ĠA f
Ġwhat ever
ĠAn n
Ġrun ning
Ġclot hes
ebec ca
C indy
Ġt ouch
et flix
Ġwor se
Am ber
Ġkid ding
D eb
L ee
id ge
ir anda
Ġ; -)
Ġch ick
Ġapp ointment
O wen
Ġm ad
Ġd ou
ĠD ad
ess a
eb ast
Ġacc ident
Ġmar ried
l ed
ĠA b
ĠY our
ĠM om
ild a
c om
y a
Ġo b
Matt hew
Ġbl ue
Ġadv ice
ï¸ ı
Ġ om
Ġy ep
Ġf ull
ĠNot hing
c le
Ġp oor
Ġl ink
ĠS ome
ward s
Ġdri ving
B l
Ġt able
ĠL ol
har on
Dan ny
ĠTr ue
C he
R a
ll a
Ġyou ng
ill a
ĠA g
ect ure
ak en
Ġother s
Ġbook ed
Ġrecommend s
Ġcompl ain
ĠPer fect
J une
Ġs ide
ha m
an ie
ĠD e
che s
Ġsurpris e
R ay
Ġg rab
Ġin t
Ste p
Soph ia
Andre a
i i
z abeth
Ġp ri
ĠT V
Ġas ks
ĠP h
Ġus ually
Ġr id
Ġfuck ing
Ġcount ry
Ġchang ed
Ġexpl ain
ebast ian
A na
D ylan
g ar
Ġw ife
Ġm ention
Ġd rop
Ġg one
Ġis s
ĠT ell
Tom my
Ġch oice
Kim ber
Ġmov ies
Ġconf ir
olute ly
A udrey
Ġf ather
Ġl oc
Ġst uck
ĠM or
Ġsend s
F el
g in
v is
Ġb ag
ĠH arry
ĠM el
ĠJ osh
row n
Ġlook ed
ĠV ery
ov es
Ġhol idays
Ġra in
ĠAd am
itche n
K ris
R alph
b ie
d a
r act
as ter
Ġair port
g le
u ly
v y
Ġsh oes
th ony
un ately
Ġapp re
.... ....
Ġd ra
ud ia
Ġrece ive
r u
Ġs on
ĠA ct
Ġk inda
Ġat tend
ĠO ne
ian e
eor g
Ġmove d
Ġep is
Ġc ut
Ġp ie
Ġk itchen
Ġgo d
ob ody
ĠE ve
ment s
Ġbl ood
O O
T revor
m ith
Ġl apt
is es
ĠT ake
al m
ĠG o
Ġle g
Ġom g
Ġlapt op
E van
r iel
Ġl oves
and er
ĠDo es
Ġwr iting
Ġhor rible
Ġsn ow
B ella
f ast
j a
m ine
t ime
ri l
Ġ5 0
isa pp
og er
Cl ara
Ġret urn
Ġext ra
aure n
Ġrequ est
Ġappre ci
: )
J ustin
n ess
re ne
Ġc li
Ġd ue
Ġl o
Ġn orm
il ia
Ġwor d
ub a
Ġtra ffic
Ġmat ter
Ġmat ch
M r
N e
Ġf ore
ar ling
ĠJ ake
ĠEm ma
Ġter rible
jam in
Syl via
u a
Ġc a
ill e
Ġre port
ace y
ee ee
Bob by
Lou ise
Ġmo ving
M andy
R ebecca
i ol
Ġs ched
Ġd isapp
Ġp os
Ġhe alth
Ġse x
Ġwh ite
pp ed
Ġby e
Ġcheck ed
Ġfavour ite
E S
Ġf ast
ic ia
ill s
ĠG er
Ġwonder ing
Ġwin ter
ĠSara h
S cott
Ġl it
ad s
el ine
Ġare n
Ġal ong
ĠP M
Ġsee m
Ġminut e
Ġtick et
Ġcoll ect
D erek
L ena
O U
W al
Ġm il
Ġst ory
Isab ella
c ri
Ġt aken
Ġm ark
ar ch
ĠY ear
Ġyour s
Ġv ac
Sam uel
Ġ10 0
Ste ven
arent ly
Ġconf erence
Ġadd ress
yd ia
ĠAct ually
Ġlot s
Ad rian
Ġrec ip
ĠSt ill
ord an
Ġsupp ort
Ġop in
Ġquest ions
Ġsit uation
Ġhu ge
p y
Ġw all
Ġwe bs
ĠW as
Ell en
ult s
Kat ie
lor ia
Ġpa per
Ġpresent ation
Stan ley
Kimber ly
at a
ĠM an
ĠB ec
Ġshould n
Ġhome work
ĠJo e
L ola
T oby
in c
ĠJ eff
ur ry
ĠAnd y
av ier
Eli zabeth
Ġfil m
Ġac cept
Ġprof ess
M iranda
Ġc or
Ġc hat
al ian
Ġcan c
Ġpl aces
end s
Bl ake
* *
A ri
L eah
Ġb ath
or ge
ĠW ait
Jan et
oll ow
H ugh
M ason
b t
l s
oo ke
ĠS ha
Ġsu it
ĠD ec
th ur
um e
qu e
lo ad
Ġtra ve
Ġlate ly
Ġinter view
t her
Ġf oot
Ġd ream
ut er
el s
Ġpro per
Ġmean s
vers ity
ĠPol and
A li
L ia
M um
S han
w ise
Ġf an
Ġl ecture
Ġsp ent
Ġbab e
Ġcr oss
Ġbreak fast
F l
I N
R ory
f orm
n ed
om i
st airs
Ġup s
if ic
Ġhaha h
Ġsend ing
Ġcook ing
D omin
O l
O la
S id
k en
t w
y ing
Ġt reat
ĠM onica
ant astic
ĠHe re
ĠF red
ĠE d
ĠK im
Ġpr act
lo ck
Gab rie
Ġhell o
fort unately
B e
B ry
F inn
l er
n or
Ġs ense
ha ps
Ġb ud
ot s
Ġsu n
ĠJ enny
Paul ine
Jess ie
Ġbu ild
Ġgen er
Ġt ast
Ġh it
Ġli br
Ġneed ed
la x
Ġcomp uter
ren ch
ĠLu cy
ĠAf ter
R od
Ġt akes
Ġw ind
or ies
Ġf ight
ow e
us ed
Ġth row
ĠW ith
ĠW ars
Ġre lax
ĠA w
ĠY ea
Ġcon vin
Is la
ret t
Ġkey s
al ia
Ġdo c
ĠB ill
ĠJ ac
un no
ĠF ine
Ġus ing
The o
Ġsw im
Ġstudy ing
inds ay
S ebastian
r id
Ġb ank
ĠS omet
ĠN etflix
Ġtr ust
Ġsurpris ed
rat ul
D onald
S h
Ġd arling
Ġbe ha
Ġfor m
id es
ĠH er
ĠN at
ul a
An thony
em ma
Ġpart ic
ord ing
no ld
Ed ward
Ġarrive d
N ora
a ld
u gg
Ġm od
Ġf ollow
Ġp ics
ĠM um
Ġcon g
ip s
Ġhappen s
Ġwebs ite
Ġlibr ary
A id
D iane
G er
Ġs y
Ġm ist
Ġf re
ĠA my
Ġne ither
ĠG eorge
Ġar g
Ġstart s
Ġrem ind
Ġneighb our
M or
M ona
R oss
r ad
Ġhis t
Car rie
Jul ian
" .
e al
o ver
p ed
Ġof ten
ist s
ert ain
Fran cis
Ġtra vel
Ġprom ise
D ean
G loria
S ha
T yler
Ġf lo
ĠH is
Ġst ra
ĠG reg
Jo y
Ġfind s
Ben jamin
ĠMart ha
He ather
Ġmil k
at hy
ĠG uy
ĠP aris
Ġdrink ing
Ġdel i
Ġcomplete ly
ĠBec ause
L auren
P olly
R oger
S andy
T e
p ril
ĠI nd
Ġp ar
Ġin side
Ġin de
ĠA h
han ie
ĠC l
ĠG l
Rob in
Le on
de red
Ġann oy
Ġes pecially
Ġchick en
B arry
D e
r on
Ġf ig
Ġd amn
Ġp ot
ĠS oph
Ġst reet
il ar
and on
Ġpro duct
Ġ1 9
Ar thur
Ġwom an
Ġbo ard
Ġele ct
Ġnorm al
Wal ter
Z ack
Ġp at
Ġl a
ant s
Ġser v
Ġluck y
Ġappreci ate
Ġinde ed
D en
T am
Ġt ea
ar ing
as ia
id i
un t
ĠIt aly
Ġsa ve
Ġlove d
Ġmin s
ĠDan iel
enn is
Ġpol it
Ġaff ord
G eorg
Ġw is
Ġb and
an n
Ġf it
Ġf ace
ĠM ax
ĠF acebook
ran ce
ĠMar ia
oe be
Er in
ĠWars aw
I rene
T here
k i
p ect
u c
Ã ©
Ġ âĢ
ĠM ad
ĠC ong
ol as
Ġtell ing
Ġdi ed
Is a
Ġinter net
Jud y
D ora
E A
L ydia
R ita
at s
Ġh urt
ĠS im
ri k
ĠL isa
ĠP l
Ġpro p
Ġstart ing
Ġwar m
Ġcol our
Ġm en
ve y
Ġli ght
ĠP e
Ġ2 5
ĠAl ice
ĠCar ol
Gab riel
ale b
ĠMic hael
A ll
a iley
i ent
v i
is abeth
ĠH m
ĠL aura
Ġpl ane
Ġoff ers
Ġcl os
Fred die
car l
Lou is
Pam ela
Ġopin ion
4 5
b o
m it
in es
Ġg reen
oo gle
Ġst range
ell ed
ard en
Dan ie
ĠU S
Ġvisit ing
Ġfav or
ĠJul ia
Ġopt ion
Ġups et
E R
S haron
r or
Ġc ream
Ġh um
Ġli ving
ĠK elly
ĠV ictor
ĠLu ke
Phil ip
ĠEm ily
ok ing
Ġdead line
Suz ie
1 5
H ow
Ġo pp
ĠN O
ĠG et
Ġhim self
Ġcon vers
ĠðŁĺ ī
Ġdec is
Ġbro ken
Ġpost ed
Jon athan
L ea
N ate
R onald
a per
b ably
d le
Ġt em
ot h
Ġbe ach
Ġwhat s
?? ??
ĠNe xt
L enny
ou g
Ġl end
Ġsu cks
op py
ĠL inda
Ġany body
Ġ:) )
ation al
Al f
Al ison
ĠSte ve
Ġuni versity
c ial
e red
n ect
w is
Ġf air
Ġp ic
Ġe y
ad a
Ġse ll
um ent
Ġwr ote
ren ce
Ġsleep ing
Ġent rance
ĠPro bably
L es
m on
Ġf all
Ġl aw
Ġh us
Ġth o
ĠS ame
ĠH elen
ra ph
ian ne
av in
Ġpre gn
Ġfl ow
Mel anie
St acy
Mad ison
Ġepis ode
Ol ga
I t
b and
i as
r ina
Ġt our
Ġm all
Ġevery body
The resa
Ġcop y
K it
s ha
on nie
Ġb ur
Ġy up
at ure
ĠS mith
ĠC la
ĠE uro
um b
Car men
Br ooke
Ġeat ing
Ġtrain ing
Ġsit ting
Jas mine
Ġlau gh
Ġcent re
L indsay
N a
S us
Ġs ize
Ġi ce
Ġf ancy
Ġd ist
Ġp ur
am a
Ġdo ll
ry l
Ġj ack
ĠN ick
ĠIt alian
Ġr ound
ĠHa ppy
Ġturn ed
rat s
ĠRob ert
Ġexper ience
Ġbott le
Ġabs olutely
Ġreceive d
Ġfig ure
g ed
Ġhe art
ĠT ina
ĠAnd rew
Ġplay ed
Ġcont ro
Ġcur rent
Ġpri v
Ġflo or
t t
ã ĥ
Ġ ed
an ia
an ne
Ġy ea
Ġc re
Ġbe gin
Ġcall ing
Ġro ad
Ġsupp ose
Ph oebe
Ġeas ier
Eve lyn
Ġpol ice
He idi
Ġhun gry
Ġfly ing
Ġcelebr ate
Ġdou bt
H ank
J ose
i us
n ight
Ġb other
Ġb ox
Ġc amp
Ġf ell
at ive
Ġme m
ĠY up
th ia
se y
od d
Ġch ill
gg y
Ġres ults
Ġ:- (
Ar nold
aa aa
Ġhus band
V iv
y lie
Ġ $
Ġf ish
Ġf ail
at ha
is ha
ie ld
el t
Ġso l
ĠB er
ĠF rench
Ġar ri
iz ed
Ġen g
Ġtr ou
Ġsc ared
Josh ua
Ġass ign
Ġhist ory
ĠGuy s
C ec
S onia
c ess
t ed
z ie
Ŀ ¤
ou n
Ġb ra
Ġm ath
Ġn obody
is m
ay den
out h
Ġher self
un o
ðŁ ¤
use um
Ġte ach
Br uce
Ġapp ro
Le wis
lle ge
Con nor
uri ous
aught er
iol et
A ustin
Ġd est
Ġn ope
Ġre se
ĠA pp
ĠD ave
Ġch oc
Ġgu est
ĠTh omas
ĠAny thing
Ang el
Ġsl ow
Ġconfir m
Ġsched ule
a ith
in ny
Ġm ood
Ġf ut
Ġh urry
Ġli ves
ĠB ob
ĠJ ason
Al bert
Paul ina
G emma
P e
S eth
o f
Ġs at
Ġf ile
ĠM ag
ĠN ah
ul ous
th ough
ĠE n
ĠK at
St ella
Ġgl ass
Ġgi ving
Ġrecip e
ĠJac ob
carl ett
J ude
r r
re ta
it ive
Ġst ressed
il ip
Ġwon t
Ġ4 0
El isabeth
yn n
Ġart ic
Ġconsider ing
Step hanie
Ġwind ow
Ġstra ight
C atherine
J ordan
M a
^ ^
m ar
Ġ ri
in y
ic ious
Ġe v
ĠY OU
Ġwor st
ĠG u
An ita
Ġshow er
Ġagre ed
Dam ian
Ġinvit es
Ġtrave lling
Ġserv ice
Ġfut ure
Ġ &
Ġ ess
Ġd em
ro c
il ity
ĠE than
ee z
Ġsp ace
Ġtw ice
Ġmiss ing
Ġinf o
olog y
g ina
in o
ĠI d
Ġc reat
el ie
ĠM ia
ĠG ive
Ġpr oud
Ġdown stairs
Ġdel ay
ĠSp ain
Ġgrand ma
Ġlit er
C aleb
L ara
Ġc ash
ac ks
ĠS usan
ĠH enry
ĠB arb
ks on
st em
ĠF uck
ĠK aren
Ġche aper
Ġagain st
Ġgr ad
Ġenjoy ed
Ġless on
Ġprepare d
gr am
Ġmanag ed
Ġcor rect
P enny
t he
z o
Ġf antastic
Ġf elt
Ġl ose
as k
Ġan im
op her
Ġcon nect
Ġafter wards
ĠNe ver
Nick y
Ġpass ed
ang u
Ġinform ation
ĠQ u
ratul ations
Ġconvers ation
Ġpregn ant
e k
m ond
Ġ *
he ad
an essa
Ġp an
Ġin d
am il
ĠA mer
ion al
ĠD amn
Ġco ver
Har per
Ġwom en
Ġpleas ure
ĠDec ember
Be at
ĠAw esome
ĠEuro pe
R oy
h ind
Ġb tw
ing ers
Ġh old
ĠS ue
ĠB re
Car ter
Mart a
gg ie
Ġbre ad
Ġdep ends
ĠKe vin
Ġsy stem
Na omi
Ġchoc ol
E s
R iley
u ary
Ġc ertain
Ġd ro
Ġd aughter
ic ed
ĠP ete
Ġplan ned
Ġsm art
Ġ20 1
Ġve gan
ĠðŁĻ Ĥ
Ġbegin ning
C le
K ai
c ha
k ing
Ġa ge
Ġbe hind
ĠC am
st on
Ġdid nt
ard s
ĠðŁĺ į
Ġdi et
Alex is
Alex ander
ĠAn ne
Ron nie
Ġtrans l
ĠPat rick
Ġinc l
ĠOli via
Ġob vious
Ġbath room
Ġdecis ion
Ġey es
t ney
Ġd ark
Ġme at
Ġst ar
ust r
our tney
Ġup d
Ġwork ed
aul t
Ġen ter
Ġdisc ount
rs ula
ĠðŁĳ į
Ġfoot ball
A ly
R andy
Ġ z
Ġ ris
Ġt v
en cy
oo f
ĠT oo
ĠS er
ter n
ĠJ une
ðŁĺ į
Ġr ing
Ġche ese
Ġpre f
Ġwonder ful
Isab el
Ġswim ming
h ow
i ri
i ant
Ġt ough
Ġt ax
Ġg arden
Ġl angu
ill ie
Ġe gg
ĠH ar
al ity
Ġpro gram
Ġag es
Car o
Dan a
Ġstud ents
Ġwear ing
Ġhand s
Ġmark et
Ġwis hes
Ġtrou ble
2 0
R en
_ -
g ent
o id
an ish
Ġp ress
is ing
ĠT ha
Ġme ant
ĠY ork
ĠL ou
ĠE ric
Ġ1 8
Ġfl u
Ang ie
ĠLu c
Ġtrans fer
ðŁĺĤ ðŁĺĤ
C ol
D oug
T ara
a ff
r ice
x x
ĠT H
el f
ĠB y
un ter
ĠF l
ĠR achel
Ġcon d
ĠðŁĺ ĺ
Fran ces
Ġun fortunately
Ġper form
Cl ark
Ġsk i
Christ ine
ĠBl ack
ĠSoph ie
G reta
L ynn
N or
V iolet
X avier
o j
w in
Ġ ,
Ġd ent
Ġl ine
ie w
Ġe ff
ĠB rian
ĠL iz
Ġpl us
ab rina
ĠR em
ud y
Ġcat s
Ġcle ar
Ġiss ues
Domin ic
Ġbuild ing
How ard
K ayla
e ed
er on
Ġc ry
Ġp iss
Ġl ady
ent y
ore nce
ĠG ab
ĠIt s
Ġor dered
ĠF irst
ain s
Ġv ote
Ġpr int
Ġdi rect
Ġdes ign
Ġset t
Carl os
G wen
P oppy
S carlett
W il
x ic
Ġi gn
Ġm ach
er ve
Ġc am
Ġf ire
us es
id get
ĠH A
Ġst ress
ĠC on
ĠL ast
Ġsh ut
Ġsh irt
ore s
ĠP re
Ġsp ot
Ġsp ort
Ġco llege
sel ves
ĠAl so
?! ?!
Ġkeep s
Ġexam ple
orge ous
Ġpract ice
Ġfavor ite
Ġflow ers
Ġartic le
B ert
r al
Ġt ur
Ġf ault
Ġl at
ill iant
ch ie
Ġfr idge
Ġany where
ĠTom orrow
ĠMart in
Ġsing le
ĠEvery thing
Ġty pe
Danie lle
Ġ ĠčĊ
Ġb oo
Ġc ous
Ġf our
ay ne
Ġare a
Ġas ap
ĠR ose
Ġcom fort
Ġfe ed
Ġr ide
Ste f
ĠðŁ Ĵ
Ġstop ped
ug o
Ġcook ies
ĠOn ly
ĠChar lie
Ġblood y
B illy
I vy
c on
g ing
u an
u be
ou l
Ġc la
Ġf b
Ġp ool
Ġh ost
ie go
Ġas leep
pp ing
An ton
ard o
Ġpre vious
Ġqu it
Ġde v
Ġ- _-
Ġhappen ing
Ġsha me
Ġcanc elled
IN G
g ers
l it
Ġ !
Ġs oup
Ġc up
es us
al ent
Ġsh ock
ab les
Ġar range
Ġid k
Ġtell s
Ġapp ly
ĠAn g
00 0
Ġhahaha ha
Ġgift s
Re gina
ĠAm anda
Ġagre es
Ġrel ation
Ġpie ce
ĠSomet hing
Ġrese arch
Ġchocol ate
L aw
L ayla
O llie
T at
v ier
Ġb ike
Ġm a
Ġm ob
Ġto il
Ġd unno
Ġp ower
Ġhe he
ĠT ony
ĠS end
Ġcan cel
Ġex er
Ġv iew
Em ilia
Ted dy
Ġbas ically
Ġsim ple
Ġstr ong
Fel ix
Ġprofess or
Sus ie
E le
O N
V ic
g y
h ol
Ġs ooo
Ġf at
nd y
Ġg orgeous
Ġn or
Ġhe s
oo per
Ġre view
Ġnot iced
ĠB et
il ary
ĠJ en
Ġsh ift
ur ch
un ny
ðŁ ĳ
ris h
ĠR uss
ĠE s
Tim othy
Ġsha ll
ĠCar l
Cla udia
Ġem b
ĠBer lin
C or
H anna
L L
M iles
T odd
b ox
t f
Ġ @
Ġf oc
ad ies
ĠY ES
um mer
Ġbit ch
Ġres erv
Ab by
Ġprep aring
Jan ice
Kat y
Joan ne
Ġcost s
Jud ith
Ġhonest ly
ĠJan uary
Bry an
Joy ce
Ġess ay
C rist
G avin
H unter
Z ara
h ood
Ġ ..
Ġs elf
or is
Ġd an
Ġl og
ĠS c
ĠH annah
Ġso cial
ri f
Ġhelp ed
itt en
ĠAl right
ien na
Ġdes k
ĠSp anish
Liz zy
Ġdep artment
Ġimp ress
Christ ina
Ġent ire
Ros ie
Ġresp ons
ĠJess ica
Ġdra w
Ġcli ent
Ġcross ed
Ġpriv ate
Ġrelation ship
F ab
G ill
L ore
M il
r am
Ġa h
Ġm ot
Ġf u
at re
ĠP ort
Kat hy
Ġgi ves
Ġve get
Ġopt ions
Ġmanag er
eal ous
V anessa
W anda
h ib
y la
ĠA sh
Ġat e
Ġj u
ĠO m
ĠP r
ee e
Ġlet s
Jac kson
Ġhat es
Ġprom ot
pl ace
yn thia
Ġclean ing
Ġsim ilar
HA T
ĠTo day
Ġpartic ular
R ich
U rsula
i um
t s
ï ½
Ġs us
ĠI an
Ġc orn
Ġc alm
Ġf ab
Ġp ink
at ch
ĠT e
el ma
Ġall ow
Ġbr ought
ist ic
Ġapp arently
Ġimp ro
ai ge
Ġlisten ing
Ġmid dle
erv ous
Val er
Che ryl
Ġvac ation
Te resa
Ġjack et
A le
K ylie
N ad
m p
re es
Ġs oooo
Ġb ody
Ġy o
Ġc row
nd ler
Ġd ating
Ġd anc
Ġg oogle
Ġp age
Ġk ick
Ġj ealous
Ġnot ice
ĠJ os
ĠE ven
Ġ2 1
ĠTh x
Br uno
itt any
Ġpick ing
ĠMar ch
oint ed
Christ ian
She ila
Ġproduct s
Ren ee
C athy
G l
M on
g ue
l ene
Ġ .
Ġi mm
Ġme al
Ġre ach
Ġso ld
ĠY e
ĠM olly
Ġj our
Ġpl enty
Ġsp lit
Ġother wise
Ġfin al
Ġbig ger
Ġsec ret
Ġdel icious
El ena
Ġhead ing
Ġchar ac
Ġexpect ed
Ġreg ular
Ġmist ake
Les lie
Ġassign ment
Ġmob ile
B ri
M er
R om
g es
h m
p a
r uct
Ġ vers
Ġm ount
Ġm useum
Ġc aught
Ġp ity
Ġp sy
le e
ill ary
Ġbe come
ĠH all
Ġst yle
ust om
ĠB ar
ĠL uck
ra ig
Ġfr u
Ġfr iday
ĠG ina
Ġpl s
res h
Ġr ad
Ġbr and
ere na
Nat asha
Ġdes cri
Ġflight s
Ġorgan iz
Natal ia
Mad die
Ġem p
iff any
Ġrid ic
Ġcous in
S il
s ing
w ell
x it
z z
Ġ owe
Ġt it
re ad
ll en
Ġd ance
Ġn ervous
Ġo per
as c
ĠT w
ĠT ry
ir ley
ter y
ĠC ha
... ?
Mar io
Ġid iot
ious ly
Br andon
Ġstud ent
Ġaw ful
ug s
Ġwalk ing
Isab elle
Ġposs ib
Ġâ ĺ
Gabrie lle
Ġannoy ing
Ġcontro l
ĠEn joy
T roy
u ff
Ġc ap
ic y
Ġth ird
Ġwe ight
im a
ĠH as
ĠM ore
ĠN ancy
ĠJ on
ra ham
Ġex hib
Ġ1 7
ian o
Ġevery where
Al icia
Ġun cle
ĠDid n
ĠAny one
Ġfam ous
ĠWill iam
Ġexc han
Ġsong s
ls ea
Mor gan
Ġlangu age
Ġdent ist
Ġcrow d
( (
M ick
c ise
f a
o h
r it
w ord
es ides
as y
as per
al a
ĠB ab
Ġwhe ther
ĠE l
ĠE va
Ġv ot
Ġwhen ever
Ġhelp s
Ġpr ices
Ġadv ises
Ġless ons
Ġcra p
Ġmed ia
ĠMay a
ĠAb out
ĠGl ad
Ġreserv ation
ĠOm g
M ila
l an
Ġ Â
Ġy og
Ġm ater
en c
Ġha ll
ĠT ed
ĠS andra
ĠD r
ĠL ily
ĠR ic
ĠR ick
Ġ1 6
Ġv ia
ĠK ing
Ġdec ent
Ġsur ger
El s
Ġboy s
Ġdog s
ĠFran ce
Er ica
Ġtop ic
K enn
O W
Ġa haha
Ġs ess
er a
ing er
Ġf ingers
at oes
is f
Ġe ye
al ie
ĠM er
Ġpro v
Ġr u
hy s
ĠU K
Ġcheck ing
ĠIs n
pt ion
ĠMar ie
ĠMe xic
ĠIn st
Ed gar
Cl are
Har vey
Ġreg ret
Joseph ine
Ġpub lic
Ġmention ed
Aid en
ĠSim on
Kit ty
Ŀ¤ ï¸ı
Ġdest roy
Ġmach ine
Ġtoil et
Ġpsy ch
D rew
K atherine
K asia
T ess
b um
u ry
Ġw ake
Ġf ill
Ġp ap
le pt
ut s
ut ion
ac ha
Ġof c
Ġme mber
ir k
ĠC hloe
ĠL ooks
Ġsh oot
Ġal though
ĠP oor
ĠR os
ove red
ear l
ĠWe ndy
ub b
oss ible
Ġper haps
Ġjoin ing
Greg ory
Ġexc iting
ĠSh it
hh h
Jay den
ĠPaul a
Dar ia
Ġsub ject
ĠQ ue
ĠPe ople
Ġfoc us
F aith
H illary
I ng
R E
S of
he m
Ġf ive
Ġg roc
Ġo cc
ĠS w
ĠS at
Ġst ate
Ġat m
ri et
ĠL illy
ĠF eb
Car son
Oli vier
we et
Ke ith
Ġexam s
Ġgi ven
Ġcha p
ĠLe o
Ġint ro
Ġhealth y
inc ent
Isa ac
bo ard
Ġpref ers
Ġegg s
Ġcorn er
Ġridic ulous
A A
G ail
H ugo
o ly
in ing
in ese
Ġb all
an ny
Ġc ustom
Ġd ry
Ġg row
ĠA pril
ir ing
ra p
ĠE r
Lu is
Ġle vel
Ġde g
Ġnight s
Ġsc reen
Ġshow s
Ġav oid
Ġmed ic
Ġhop ing
Ġrain ing
Ġword s
ĠRem ember
C al
O t
S abrina
Ġa unt
he art
Ġw oke
Ġs aturday
ĠI T
Ġb ill
Ġc urious
Ġf ed
ĠH oney
Ġj oking
ĠO key
ĠC om
ĠC all
ĠC uba
Ġsome how
ĠG irl
un ity
Ġ1 4
ily n
!!!! !!!!
Ġap olog
co hol
Cam illa
ĠJul ie
Ġpack age
Ġpark ing
Marc us
ĠDe finitely
Ġdisapp ointed
Ġdeli very
Georg ia
Ġdoll ars
Ġguest s
Ġliter ally
Ġincl ud
ĠLuc as
Ġdanc ing
Ġyog a
D ennis
K rist
e es
i vers
o on
Ġthe atre
Ġc os
Ġl ow
Ġwith in
Ġwas hing
ĠJ enn
ĠJ uly
âĢ Ŀ
ind er
ðŁ ı
Ġv ol
ct ion
Ġsp are
Ġcl osed
av y
Ġrec ord
Br idget
Ġwr itten
Ġdec or
Ġvisit ed
ĠMe g
any a
Joe y
Ar t
ĠBr ad
Ag atha
Dar ren
ĠChe ck
Ġfail ed
ĠGu ess
ĠId k
ĠBre xit
iri am
Ġcla im
C ourtney
E vie
I r
K ay
L ind
M o
c ast
i ves
i ola
m ark
o ff
r d
Ġ ran
Ġs il
ha lie
ar r
es co
Ġp air
Ġl adies
it ar
ust ing
ick i
ec e
Ġal bum
ays on
Ġ2 4
Ġr out
em ent
Ġqu e
ide os
Ġch urch
ĠSt reet
ĠFr om
ĠMe gan
Fred er
cept ion
Ġchang es
Ġdri ver
Ari a
ĠSer iously
Ġdan ger
C h
P M
R icky
T iffany
b ur
s is
v al
Ġ Zoe
Ġa ut
in i
Ġs ir
Ġm ail
ic an
ĠT alk
ĠT erry
Ġre ck
Ġk iss
el ess
Ġse lling
ro at
ĠO scar
ĠN Y
!! !!!
Mar sha
ĠWhat s
Ġbr illiant
Ġhelp ing
Ġte ch
Tim my
Ġsc ary
ĠIn ter
Ġcont ract
aa a
ĠBr it
iv al
Ġap art
Mat ilda
Ġcoll ea
Ġrep ly
Ġlau nd
ĠPh il
ĠVictor ia
Ġopp ort
ĠCla ire
ĠApp arently
Ġlat est
1 0
B ar
N ik
T ori
h op
s es
u cks
Ġa head
Ġw ha
Ġw tf
Ġs illy
Ġb an
Ġb lock
Ġp pl
Ġl im
en ter
Ġha ird
id ia
Ġst ep
ry st
ĠD ar
ĠL a
ĠE U
Ġv et
Ġv ideos
ĠK ar
Ġsa le
ag ed
Ġcall s
Ġqu ality
inn ie
Ġke pt
Jess e
Ġacc ess
Jac qu
Ġmess ages
Ġpass word
Ġchar ge
Ġchang ing
ĠPol ish
Ros a
ĠOli ver
Ġiss ue
ĠGer man
ĠâĢ ľ
Es me
C ora
S erena
W ayne
b on
b ed
re me
Ġyou re
Ġst ick
ĠM rs
Ġse ver
ant ic
Ġsu d
ĠF in
ĠR ome
pl oy
HA HA
ĠMic helle
Ġinvit ation
Sh irley
Law rence
ĠRic hard
Ġsurger y
B ea
H ilary
l ay
Ġ er
Ġ ^^
Ġs har
Ġf resh
Ġd ie
ic ks
Ġre act
il ing
art h
Ġal cohol
ĠF iona
ĠE li
um ents
Ġ2 2
Ġ2 00
Ġfe ver
Ġr om
ag ram
Mart y
Ġinv ol
Har old
Ġorgan ize
Ġfinis hing
ĠGr and
Cha ndler
Ġloc al
Ġwall et
Ġla zy
Ġpress ure
F ilip
I ris
J ax
d ison
i que
j ah
r ing
ha l
Ġc as
ow s
ĠS weet
ĠM at
Ġj oke
ĠC o
Ġall erg
Ġpro file
ĠR o
Ġoff ic
ap an
Ġstay ed
Ġbring ing
ĠAn nie
Ġpay ing
Ġrecommend ed
ky pe
Ġprom ised
Ġspec ific
Ġur gent
Kar l
Suz anne
Ġpast a
Ġgener al
Ġpiss ed
ĠAsh ley
Ġmater ial
M illie
P et
Q u
S k
c her
u h
Â °
Ġd am
at or
is hing
ed i
Ġha vent
ĠS ean
ĠA S
ĠO ur
ĠJ erry
Ġfr ustr
un g
Ġv al
ĠK en
Ġlet ter
iss ion
ĠðŁĺ Ģ
ail a
Jen na
Br ittany
ĠAl ways
Ar chie
Dar cy
She lly
Ġpos ition
Ġthrow ing
ĠMag gie
Ġexhib ition
A lly
B et
B rett
H ayden
J uan
K amil
P aige
W es
d in
l et
n ow
n el
Ġs qu
Ġb lo
Ġm ag
Ġc red
Ġh y
ĠS ally
ĠY o
Ġu g
ia h
ĠB as
ĠB ro
ant a
ĠD ay
il er
Mar ion
are ly
li es
Ġ; /
ĠðŁĺ ľ
ĠTh ink
Le x
Ġdown load
Ġdiffere nce
rs ly
Christ opher
Ġann ivers
ĠKe ep
ush i
Ġconvin ced
ĠCong rats
Tat iana
Sil via
Kenn eth
Ġsever al
Ġannivers ary
D ee
K on
M acy
R am
S asha
V incent
r oss
Ġy e
Ġm ill
Ġm ix
Ġd ates
ri b
ĠB el
te mber
ĠR yan
if y
Ġsa ving
John ny
Ġcomp et
ĠX mas
ĠMar c
Ġacc ording
Ġcont in
rey a
Ġmost ly
Gr ant
Ġtext ing
Ġpost p
Ġtot al
Mat hew
Ġcol or
Ġsing ing
ĠðŁ¤ £
Cha d
Ġsat isf
Ġcomfort able
ĠBet ter
Ġju ice
Ġsess ion
Sof ia
Ġdanger ous
5 0
D iego
J ared
L ori
M al
Y uri
y ou
Ġb at
Ġc ode
Ġp ages
it ter
Ġbe l
.. ...
ĠA va
han y
ĠB eth
ĠN or
Ġsome body
Ġany ways
Ġno on
li ke
ian s
ĠNo ah
Ġde f
ich olas
ap s
Alex andra
ition al
Ġimp ossible
Ġlear ning
Deb bie
ches ter
Kris ten
Ġlaund ry
B oris
H ailey
N elly
Ġb ake
Ġe h
Ġe qu
Ġj am
ĠB etty
ĠN ina
ĠJ amie
ĠJ apan
ur iel
ig in
od ation
Ġoff ered
ĠHa ven
Ġpart ner
Ġpr ot
Ġgu itar
Ġrem inds
Ġpick ed
ĠSt an
Ġcare ful
Ġfuck ed
Ġpres ents
Ġperson al
Sim one
Ġsw ear
ĠJack ie
Con nie
ru ary
Sid ney
Ġcond ition
ĠFeb ruary
ĠJenn ifer
Ġsud den
" ?
) )
) .
: (
B er
J ade
T ab
i res
y er
Ġt en
Ġb ull
Ġp et
Ġp ort
ĠA nt
Ġbut ter
Ġsu ff
Ġsee med
ðŁ Ļ
ĠR uth
Ġsp o
Ġcar s
Ġsha res
Ġspend ing
oll ie
Ġexpect ing
Ġext reme
ĠGr ace
ss a
Ġty p
com ing
Che lsea
........ ........
Ġca fe
Tam ara
Ġobvious ly
Ġsport s
4 0
I van
S u
T essa
U la
e z
Ġ 0
Ġ ??
Ġb ak
Ġc ast
Ġg ara
Ġg oss
Ġbe ers
ĠT esco
ĠW ar
Ġne cess
ir ty
Ġknow n
ĠD onna
ĠD iana
ĠJ ill
and om
ĠP am
Ġany time
ure s
Car ly
Ġpre tend
Ġle ad
Ġad mit
ĠIs ab
sh it
Ġdis g
Ġshop s
Ġold er
Gab i
Ġturn s
Ġatt ention
iot r
Ġloc ation
Ġtast e
Den ise
Ġcre ate
ĠBarb ara
Ġvers ion
Ġmount ains
A P
A pril
B ro
C asper
G il
J ust
L y
P i
T anya
d d
k es
k et
n zo
in ed
in ation
Ġb arely
or der
Ġf ield
Ġd umb
ic ated
Ġis land
ĠH ad
ri en
ĠD aisy
ra vis
ook lyn
An ette
Ġor igin
Ġcon st
ub rey
ĠJo an
Ġro ck
Ġhope fully
Ġ:- /
St acey
Ġstud ies
ug ust
ĠTr acy
ĠTr ump
DD DD
Ġland ed
Ola f
Ġdoc ument
Ġclos er
ĠÂ £
Ġpap ers
Ġug ly
; )
C ynthia
K ath
M indy
P earl
b h
d i
f it
Ġs ite
Ġm is
Ġf est
Ġg ay
ĠA ww
ĠM ost
Ġgo ld
ur ora
Ġup load
un ion
Jo dy
Ġ1 3
li ed
Ġ; (
od ka
Ġche er
Ġdi vor
Ġsoon er
cc ess
Nat halie
ĠSt op
ache d
Ġend ed
Ġworks hop
ĠPat ricia
ĠCh inese
Ġins ane
yd ney
uu uu
ĠAg nes
Ġpos itive
Ġbud get
Beat rice
ĠPre tty
Ġemp ty
Ġexchan ge
C ole
K ier
Z ach
a f
b a
c an
i or
k ward
l u
Ġthe sis
Ġm ass
Ġc ab
Ġd ata
at o
Ġst aff
Ġgo ver
Ġwas te
ĠL iam
ol f
ĠP ark
ðŁ Ĵ
ĠR om
ĠR ed
Ġsure ly
Ġv oice
la w
Lu k
Sam my
Ġtr ack
Le ila
ĠTom my
Ġbelie ves
Ġforgot ten
Eli jah
oot h
Ġopen ed
Ġsweet ie
Ġatt ack
Ġfix ed
Ġresp ect
ĠInd eed
Alf red
Ġdelay ed
Col in
ĠTH E
Ġperform ance
ĠEs pecially
ĠJos eph
Gl en
ryst al
C raig
F reya
M an
M ac
R ap
V E
i od
p ack
s ter
t ain
Ġb unch
Ġc ir
Ġc enter
Ġp u
id a
ĠA M
Ġso ft
ĠB oth
ĠC ent
Ġwas h
Ġsu ck
ĠG re
un ning
ep tember
ee ch
ian ca
Ġsp eech
Ġr andom
Ġtr uth
og n
Will ow
Frank lin
ĠSee ms
ĠSu per
Jeff rey
Eli as
Ġquick ly
Ġfore ver
ĠNat alie
ĠCarol ine
Valer ie
Nad ia
Ġimm edi
Ġocc as
Ġintro d
Ot to
Ġcred it
Ġgara ge
E E
H en
M iriam
Y ann
i ver
p ly
p icture
v on
Ġs lept
Ġs ushi
Ġd ig
at ic
Ġli ft
ĠD or
ob ias
ĠR on
ure d
Ġlet ting
Ġfind ing
Ġper iod
The a
Frank ie
ash ion
Eli za
No el
ott ie
Ġatt ract
ĠEvery one
ĠChar les
erg io
Ġproper ly
Sha wn
ĠCong ratulations
Ġdem and
Cle m
Ġjour ney
Ġtit le
Ġtech n
Ġopport unity
Bet hany
Kon rad
A llie
L il
M itch
i ving
j or
z ra
Ġt ips
Ġb f
Ġb ast
Ġb orn
Ġf acebook
es ter
Ġp ull
Ġhe avy
ĠA bs
ĠC al
ĠD ear
Ġal ive
ĠP L
Ġpart ies
Ġhelp ful
ary l
Ġde ath
Ġgr ound
Ġapp les
cc ording
The y
Ġacc omm
Ġaw kward
Ġpoint s
ĠSam antha
Ġorgan ise
Ġsuper mark
Ġhor ror
Cam eron
Ġbas ket
Ġcard s
ĠHope fully
Ġcomm on
ĠMor ris
ĠMor ning
Fl orence
Ġbud dy
owe en
Ġdeli ver
Crist ina
ĠPort ug
Mon ika
acha ry
Ġhaird ress
Ġrom antic
L ib
T an
c ing
g ress
m b
z ing
Ġa ud
er al
Ġc u
Ġc al
Ġc hris
Ġg rey
it te
Ġfor t
Ġre place
ĠM c
ul ed
ĠJ ay
ĠJ ean
ĠL ist
ĠG ary
Ġpl ays
ur ance
ove mber
Ġv odka
ca pe
od es
Ġam ount
Ġpr ay
Ġapp le
Ġun less
Ġact iv
Mic key
orm an
Ell is
Ġhead ache
Ġopen ing
Ġsw itch
ump ed
rist an
Ġsal ad
iff er
Ġcomplain ing
Step hen
Ne il
ĠSha ll
Fl ora
Rod ney
Ġtem p
Ġlaugh ing
Ġtax i
Ġfu nd
Ġfru it
Lind sey
A Y
G arry
K el
M uriel
T rish
V ince
d ers
m ie
m are
Ġ ???
ou ra
Ġs and
ha h
Ġb ow
Ġb ills
Ġd a
Ġg as
Ġl oo
it es
ed y
Ġha h
ĠW or
ĠW ant
Ġre ception
Ġ: '
ĠM s
ĠM ine
ri x
Ġse m
ĠC ol
ĠD ep
pp er
Jo el
ph one
Ġevery day
Ġqu iet
Ġrec ogn
Ġhahaha h
Ġperfect ly
Ġswe ater
Mag da
vel op
Ġem ploy
Cam ille
ĠSte p
Ġteac hing
Ġbu cks
Ġins urance
Ġpack ed
Ġpop ular
** **
Ġconvin ce
Ġpartic ip
Ġpolit ical
Ġanim al
Ġski ing
Stef an
Ġatm osp
Ġgoss ip
ĠAbs olutely
Ġhairdress er
A ubrey
B onnie
H a
K la
K end
S E
T er
V icki
n est
n ment
Ġb out
Ġb rown
Ġp en
Ġp ill
Ġn ails
ĠS e
Ġe mer
Ġst e
Ġst age
Ġst ories
Ġse arch
Ġse ats
Ġcan d
ĠO ct
ĠB ra
ĠN ovember
ĠD unno
ĠJ esus
ĠL ea
ĠL arry
Mar ianne
Mar ilyn
ĠE llie
Ad a
Ann ette
atur al
Ġsur v
ĠJohn son
Ġadv ance
Ġenjoy ing
Ġinter n
Ġmed ical
gr ound
ĠMan chester
Ġbeha vi
Ġeff ect
Ġemb arr
Ġextreme ly
E la
K ing
L aila
N icholas
R ox
S p
b ing
g ues
n on
o is
Ġt ut
Ġt ask
Ġt bh
Ġa uth
he l
in ston
or o
Ġd irty
Ġl os
Ġl ake
Ġn ames
Ġn oooo
et ed
ĠM ac
ĠM andy
Ġnot e
ĠO ther
ĠC r
ĠC ause
Ġsu gar
ĠN ic
ĠN athan
ĠD ude
ell ent
Mar ge
Ġor an
ĠE u
Ġv ar
Ġ; *
Lu ca
ĠðŁĺ ģ
Ġde velop
Ġpr in
ĠV icky
Ġinv est
ĠAl an
Ġbir d
Ġeat en
Ġput ting
Ġconf used
Ġphoto g
Ġtrans port
Ġfil es
ĠAr ound
Ġmid night
Ġneighb or
Ġlo ads
Ġaccept ed
Ari anna
Shan e
ĠFred die
Ġelect ric
ĠKat ie
Ġupd ate
Ġris k
Rom an
Ġorganiz ing
ĠMexic o
Ing rid
ĠInter net
Just ine
Ġimmedi ately
Ġsupermark et
Ġchris t
ĠList en
" ,
1 1
A s
A urora
B ern
C ate
D om
S ienna
c lock
Ġ +
an or
Ġg ate
Ġp hys
Ġl ock
om y
ĠT oby
ĠS O
ĠS ince
id ers
am ed
ĠA N
Ġst at
ĠM al
Ġsu ccess
ĠD ub
âĢ ĳ
ĠR oss
ĠWhat ever
um n
Ġthem selves
ðŁĺ Ĭ
ĠK yle
Ġwere n
Ġthought s
Ġbad ly
ond a
Ġres ched
ĠWh ite
Ġpay ment
ĠCar on
Ġdress es
Ġadd ed
enn on
Ġter m
Dor is
Kar ol
ern and
Ġsim ply
ĠLook ing
Ġhop es
ĠGo ing
Ġreport s
De x
Den is
ĠPl us
raph y
Ġev ents
Ġdro pped
Ġcry ing
Ġsus pect
Ġimpro ve
ĠBrit ish
ĠAS AP
Ġaccomm odation
Ġembarr ass
Ġoran ge
A T
D ina
E rik
K ian
M ira
P en
Z achary
e y
r ay
w h
z zy
â Ļ
Ġt ree
Ġs ight
Ġs li
Ġd ick
is hed
Ġit em
as ks
le en
ac hael
ĠS haron
ĠH el
ĠH ouse
ri a
ro ll
ĠL ogan
un te
se e
ect or
Alex a
Ġnight mare
ĠCan ada
Ġact ion
Ġrecommend ations
Ġexc use
Ġuse ful
Ġtext ed
Gab e
Gab y
Ed die
Ġsk in
Meg han
Ġborrow ed
Ġsub way
Ġbo at
ĠMatt hew
ĠJim my
Ġdou ble
Ġcli ents
Ġpolit ics
Ġhum an
ĠQue en
Ġdisg usting
Ġgover nment
ĠGre ece
Ġatmosp here
C ody
C ath
D aryl
H ans
L or
V iola
c han
v ille
y att
Ġ row
in er
Ġs ens
er ies
ar c
Ġg f
ot a
ill er
ĠT ur
ĠT ime
ĠS eptember
ĠH on
al ks
ad ays
ĠM il
Ġj ud
ir am
ĠB ost
Ġsh out
Ġpro cess
te k
Ġex cept
ĠE lla
li g
Car la
Mart ina
Ġad m
ĠU r
Ġfun eral
ĠHaha haha
Ġeas ily
Ġproject s
Ġhand le
Ġsweet heart
Ġem ot
ĠSte ven
Ġac ross
Ġhu h
Ġcomm un
Ġsign ed
Ġyoung er
Ġfre aking
Georg ina
oj tek
ĠHall oween
Ġdeg rees
Ġvol unte
Freder ick
Sk yler
Ġcompet ition
ĠEu rop
ĠBost on
) ,
1 2
C ass
H etty
I T
L idia
N el
O mar
P ab
S T
g ency
i est
l ight
n an
u ing
u ed
â Ķ
â Ĺ
Ġy ell
Ġm ent
Ġto wards
Ġc ult
Ġf ake
Ġd ish
Ġn ose
it ney
ay ley
ĠS har
id s
im ent
Ġre union
el ope
ver t
ea ks
ĠO wen
ĠB o
Ġsu its
il s
Ġv ill
Ġr ush
Lu na
ĠHow ever
ase y
itt ed
Ġro ll
Ġbl ond
Ġdis hes
Ġkeep ing
Ġsha red
El isa
Ġsuggest ions
Ġdep art
ok en
Ġbeaut y
Ġrep air
Ġstr ugg
ĠUn i
ĠUn fortunately
ii ii
Ġneighbour s
Ġprop os
Pe ggy
Ġcertain ly
Ġhands ome
Ġsett led
Wil son
E zra
I da
J ar
T y
Â ´
on ed
on so
Ġb aking
Ġy um
Ġg am
Ġg ig
Ġp un
Ġp ounds
Ġp ump
Ġl ar
Ġl ying
ĠS anta
ĠA ir
ĠA mazing
al t
Ġwill ing
Ġne arb
ĠM ake
ro ad
ĠO ut
ent ial
ĠD erek
ore en
ob er
Mar isa
ðŁ į
Ġcom ment
Ġr ude
Ġche ers
ag er
Ġch ose
Ġco at
Ġen c
ap a
Ġtra iler
Ġmeeting s
Ġbook ing
Ġ8 0
ĠDon t
Ġear n
ik o
Ġcompl icated
Ġshit ty
Ġgroup s
Ġinform s
Ġins p
ĠAm elia
ĠChe ers
Ġevent ually
ĠSomet imes
Ġmod el
Ġcong ratulations
Ġcurrent ly
Ġglass es
ĠQu ite
enc er
Ġsatisf ied
Ġemer gency
Ġnearb y
G inny
H el
J orge
K uba
M rs
S ummer
T ristan
a pp
d o
i ar
on ny
Ġb al
Ġb day
Ġb reat
Ġm ir
Ġyou t
Ġl u
le nd
Ġbe at
ĠT revor
ĠS an
Ġe con
Ġe arth
ĠW HAT
Ġre leas
ĠA ugust
ĠM a
ĠM iss
ĠN obody
Ġas sh
Ġsh y
An ia
te red
te rest
ear s
ðŁĺ ľ
ĠHi gh
Ad dison
mm m
Jul es
Ġ6 0
ord on
Ġsc ore
Ġshow ed
Ke ira
Ġinst all
Ġcr it
ĠCh ina
Ġsl ight
Ġkill ed
Ġca f
Caro lyn
Ġshock ed
Ġrad io
Ġvot ed
Cal vin
ĠGirl s
Lex i
Ġfest ival
Rap hael
King a
E w
E st
K a
K irst
M aur
M iley
V ik
Y u
b n
c ut
j o
m any
n ces
r ation
ï ģ
re ll
Ġb i
er ved
or ah
Ġd ow
Ġd ying
Ġg osh
Ġg raph
Ġn one
en ger
is ty
ill ip
Ġbe g
Ġre lie
ĠA ven
all ie
Ġan t
ea red
ĠB ella
ĠD ylan
ra ke
ol i
ast y
Ġv an
Ġsp oke
Ġr ice
Ġch oo
Ġtr ad
Ġlea ves
sh irt
ĠSt arb
Ġinv iting
Ġinv oice
Ġsm ell
rian a
ĠNe ed
Ġprom ises
Ġcount ries
ok es
Ġimp ressed
Ġpain t
Ġinc red
Ġepis odes
ĠGer many
Ġcong rats
Ġbra in
Ġconnect ion
ĠAmer ican
ðŁĺį ðŁĺį
Ġrespons ible
Ġpossib ly
ĠInst agram
hem ian
Ġchap ter
Ch uck
Ġinvol ved
Ġoccas ion
B ianca
C ris
C rystal
D ak
G i
H er
M s
N orman
P r
P iotr
R I
R achael
T ravis
a ks
b an
f l
h o
i ara
m et
p ose
u ise
Ġs ix
Ġb urn
Ġc ouch
Ġn er
Ġn ah
et y
it z
Ġo bs
Ġst om
Ġse at
ĠO b
ĠC V
op s
ate ful
ess ert
ĠP C
ard ing
ĠHa h
Ġpart s
ĠðŁĺ İ
ark er
Ġtr uly
gg ing
Ġjob s
ĠMar g
Ġaw are
Helen a
maz on
ĠBr ing
Ġnumber s
Ġown er
Ġsuggest ed
Ġconc ern
Ġsurpris ing
Ġsk ip
rab ella
Ġspeak ing
Ġâ Ŀ¤ï¸ı
ĠGot ta
ĠSome one
Ġri ver
ĠAmer ica
Ġenter tain
Ġexer cis
Els ie
Ġclaim s
Ġcollea gues
Ġcir c
ĠDor othy
Ġbast ard
Ġsurv ive
Ġyout ube
H ope
K ale
L ila
P arker
R and
T obias
W ojtek
a o
c ase
e g
m ission
n ov
Ġt im
Ġw ild
Ġs rsly
ha mm
Ġb on
Ġb arb
Ġc arry
Ġf la
Ġf ishing
ar i
Ġl ugg
et ch
ed ro
ic ity
Ġo key
Ġh ig
ĠT ot
ĠS outh
id ence
Ġe ve
ĠW ork
ĠB art
ĠD en
ĠL ong
st an
ris on
ĠF e
Jo die
Ġcom ments
um es
qu el
ðŁĺ ģ
Ġcl im
Ġch o
oy d
Ġpe ace
ict ion
Ad ele
Ġchan nel
Ġsc an
Ġsc rew
by e
Jan ette
Har riet
ĠDan ny
Ġset ting
Con or
Con rad
az z
Ġsmall er
ĠðŁĺĤ ðŁĺĤ
Jas per
Ġbott les
ĠAg ain
Ġgener ally
Ġmod ern
ĠNO T
Ġlaw yer
Ġarri ving
Ġanim als
Nor ma
Ġcam era
Ġma jor
Ġveget ables
Kla udia
C andy
G raham
K erry
L in
L ora
S ergio
T F
W yatt
c ent
Ġt end
ha med
er ing
Ġc ale
Ġd essert
ar f
Ġg lo
Ġp ills
Ġl oud
Ġn atural
om b
it or
us sel
ĠT aylor
ĠW il
Ġu gh
Ġu ber
Ġse a
Ġab road
ĠD am
il and
Ġsh ot
Ġthere s
ĠG oogle
ĠP al
ast s
ep end
if ied
Ġ2 6
Ġ2 7
ig el
Ġsp a
Ġr um
ĠShe ila
av annah
Ġde ep
Anna b
Jul i
Jul iet
Am elie
Ġbed room
ĠPat ty
Ġsn acks
ĠHmm m
Ġkill ing
Bart ek
ĠMel issa
Ġcanc er
Ġarg ument
ãĥ »
Ġcre ep
Ġmath s
ĠTha i
ĠTha iland
Ġeff ort
Ġmot iv
Ġoper ation
Ġcrowd ed
Ġdestroy ed
Ber nie
Ġnecess ary
Ġorigin al
Kier an
ĠStarb ucks
A very
A isha
F anny
I F
K ent
U l
W inston
j ust
re lla
on se
Ġb oot
Ġy ess
Ġf ac
Ġg ra
Ġg ather
Ġp ure
Ġn ational
it er
it ions
it ude
Ġh m
Ġbe c
ĠS m
ĠW on
Ġso fa
Ġj um
Ġli f
Ġpl ants
are k
ran k
Ġ2 3
Ġ2 8
ph ones
Ġam b
end ing
Em il
Ġco ck
Ġde b
Jen son
Ġcomp an
Ġun f
Ġ4 5
ĠIs land
Ġ7 0
Ġsc rat
Ġshow ing
Ke v
Ġfam il
Robert a
Ġroom s
Gr ayson
Cl ar
aur ie
Ġter rif
Ġchar ger
Re ese
Ġpain ting
Ver a
Ġanswer ing
Ġes cape
Ġsun ny
Ġtast y
Ġmen u
All en
All ison
Ġfall ing
Ġpur pose
Ġsol ve
Ġslow ly
Ġstar ving
Ele anor
ï½ ŀ
Ġcharac ter
ĠLuck y
Ġbull shit
Ġsand w
ĠOct ober
Ġauth or
ĠEurop ean
Ġlugg age
Ġcale nd
! ?
' .
/ /
A M
B la
B ailey
H ector
I zzy
O M
_ _
a el
m ut
p ar
s ung
Ġt ight
in ating
Ġb esides
Ġd iss
Ġp anc
Ġl em
Ġn etflix
id ed
Ġe uro
ĠA na
ĠA li
Ġse min
ch it
ĠB ry
ĠB rown
ĠJ ordan
âĢ į
ra ine
Ġpl ant
ĠP S
Ġpro d
nt own
Ġnow adays
ran ny
Ġr ich
Ġhad n
ĠYes terday
Ġen vy
Ġrec over
ĠTh ought
ĠU gh
Ġapp lic
Ġun s
Ġro le
Ġprob s
Ġsm oke
Ġhard ly
Ġadv ent
Ġinf lu
Tr udy
Ġdecid es
Ġfil ms
Ġcha llen
ĠðŁĺĤ ðŁĺĤðŁĺĤ
Ġnear ly
ĠChar lotte
yy yy
Deb orah
Fel icia
ĠMel anie
Ġsched uled
Ġprofess ional
Gabrie lla
Ger ald
ĠAng ela
Ġcharac ters
ĠTw o
ĠOther wise
Ġchrist mas
A R
E rick
F in
K ira
M ate
g s
k in
m oro
n ite
â Ī
Ġ est
Ġt iny
Ġt asks
Ġb order
an i
Ġf ol
Ġf urn
Ġf ashion
Ġd are
Ġp iano
Ġn uts
it ure
Ġh ob
ill ed
ĠS ay
Ġre he
ĠA fr
Ġ: <
ĠM o
Ġj er
Ġnot eb
ĠB ir
ĠB ig
Ġwas ted
ĠD omin
Ġsomet ime
ĠðŁĺ ĥ
Jen iffer
Ġfriend ly
Rob bie
Br itney
Ġplay ers
gg ed
Ġbl ank
Ġfree zing
ier ra
Ġpres ident
pe i
Ġcook ed
ever ly
Ġswe ets
Ġinst ruct
Ash ton
Ġsuper vis
Ric ardo
Ġbas ed
Ġcha ir
Ġcha mp
cel ona
Ġresp ond
Ġref uses
Ray mond
Ġconfir med
Fel icity
Shan non
Ġdoc uments
Ġfre ak
Ġpar cel
Ġmem ories
Angel ina
Ġ201 9
Mil ena
ĠBar celona
Ġgroc ery
Ġcustom er
Jacqu eline
ĠFin ally
Ġmill ion
ĠShar pei
bn b
Ġdow ntown
ĠMarg aret
âĢį âĻ
ĠAfr ica
= )
H az
I v
L iv
V ER
b ack
f y
f ord
l ink
â ĺ
Ġb le
nd a
Ġp us
Ġl ay
om a
Ġit self
Ġin j
ĠT ra
ĠT yler
ĠS kype
Ġme chan
ĠW ha
ir gin
ent in
ĠB T
ĠC indy
ĠL is
ĠL ee
ec ue
ðŁ İ
ĠF B
Ġex ha
ive red
ee gan
Ġback pack
har m
Ġsa ved
ĠHi ya
iz z
Fran c
Ġgr ateful
ĠV er
ĠJo anna
Ġres ign
ĠNe ither
Ġdel ivered
Luc ia
Ġdes erve
Ġdep ressed
Ġmar ch
Ġlive d
Brad ley
Er nest
ĠBl ake
Ġstand ing
Ġsort ed
Ġexper ien
Dam on
Ġref ere
Ġpie ces
Ġneighbour hood
Ġprop osed
Ġopp os
Ġtem per
Viv ian
Cec ilia
Angel ica
Ġcreat ed
Ġdirect ly
Ġtur ning
Wes ley
ĠBas ically
Ġbat tery
Ġspo il
ĠPortug al
Ġresched ule
Pen elope
Ġcommun ic
Ġyell ow
Ġreleas ed
ĠTot ally
Ġbec ame
A rabella
L ana
L ottie
O D
O R
O ct
R h
S elma
Z e
g iving
u f
ï ¾
Ġt ap
he tt
Ġw ays
er ge
Ġc ris
ar ian
Ġl ent
Ġl oose
Ġo oo
Ġo ven
ĠT HAT
ac o
ĠS yl
Ġme as
ĠW atch
Ġst unning
ri g
Ġj o
Ġkn ock
han t
ĠB ang
ĠB tw
ĠB esides
ĠC or
ĠC roat
her ry
ĠD el
ĠL eah
Ġwh om
ur ity
Mar ika
Ġpro gress
Ġout fit
ĠE aster
Ġr n
ĠThat s
Ġte en
Ġtr ash
Ġdr ama
Ġres ult
Ġend s
Gr and
Ġtext s
Ġreal ised
Ġra re
Ġcons iders
Ġsk ills
Ġbaby s
Ġchar ity
Jon ah
ĠEx c
Mad eline
Ġdiscuss ing
OO OO
Ġcollect ion
Ġrecip es
Bry ce
Aid a
Ġarg ue
Ġpot atoes
ilar ious
Ġboard ing
Ġhurt s
ðŁ¤ £
Aly ssa
ĠLou is
ĠRos ie
Ġshar ing
Ġoffic ial
Ġcontin ue
Ġsudden ly
Man uel
Ġenc oura
lend id
Ġassh ole
A ld
C ory
D ale
H iram
I n
J uly
K az
N ed
P ay
S avannah
b i
b elie
m other
v able
z il
Ġt ab
Ġs ake
Ġb row
Ġb ase
or ate
Ġf ant
Ġf asc
nd red
Ġl ic
Ġl ab
ill ian
ĠH ugh
Ġre nov
ĠA mazon
Ġj ew
ia o
ĠB u
ĠB ecky
Ġsh ip
Ġwh is
ĠThe ir
ĠG eez
ĠP et
ab ility
ĠHe he
Ġno ise
est or
ber ry
hn e
Al ba
Ġch ips
Ġ3 5
Ġx mas
Ġpr inc
Ġmean ing
Br and
ĠV en
Ġper f
Ġro omm
Ġbl ess
Mic hal
rest on
Ġsupp er
Ġsm oking
Ġdel ete
Ġcr uise
Cla ir
Re y
Ġclean er
Ġhair cut
Ġsub mit
Marc in
Ġhmm m
Ġdream s
All an
Ġeng aged
Ġappro ach
ĠFl orence
Ġboo ze
Ele on
LL Y
Ġsqu are
Ġprin ter
Ġsight see
Ġconcern ed
Juli ette
Ġfurn iture
? !!
D i
F ay
G is
I m
M ort
M ollie
R uss
S erge
T onia
b ut
e h
r ite
r ich
y s
ï ¿
Ġ ing
Ĥ ¬
Ġt m
Ġt ennis
ha nd
Ġto w
Ġc ow
Ġc ig
Ġc uz
Ġf ro
ot ter
us z
us ing
oo p
ĠT am
ĠW ish
ĠW TF
ld a
ld on
Ġre ma
ome k
ĠA ust
ad em
Ġk k
ri anna
ri age
Ġj okes
ĠO l
ĠO oo
ent le
ant ly
ĠC le
ĠL es
Ġshe l
pp e
ĠThe resa
ĠG ame
ĠG reen
ĠG eorg
ur al
ĠHe ad
ain a
Ġsp ir
ĠAnd re
Ġar m
Ġar ran
ag a
iss y
Ġx ox
Ġour selves
ap hne
ĠU ber
ĠV alent
Ġsm ooth
Ġadv ise
br idge
Ġmat ters
oooo oooo
Ġreal ity
Ġass ume
Ġtest s
Ġreg arding
ĠRob in
Ġemail s
Ġrestaurant s
ĠAm ber
ĠZ ara
ĠðŁĻ Ħ
Ġhang ing
Ġhang over
Jean ette
Cha se
aris se
Ġrent ing
ĠDoes n
Ġsex y
Ġbeha ve
Ġcolour s
Alf ie
ĠLou ise
ĠRuss ian
ĠCarl os
Ġimpress ion
Ġrespons ib
Ġâĺ º
Ġreck ons
Marsha ll
ĠDep ends
ĠHon est
Ġexercis es
Oct av
; -)
C oll
C asey
H ayley
J ad
P ier
S al
S mith
c ious
f ess
g est
Ġ #
Ġ ïģ
Ġt iring
Ġs our
ĠI D
Ġm iles
Ġto r
Ġc ell
Ġc overed
Ġg ar
Ġp o
Ġl ines
Ġn amed
is her
ot ic
as mine
Ġbe ar
Ġth ursday
ĠS al
ĠA ccording
ad ie
Ġst re
Ġso re
ĠB ea
ĠB renda
ĠC ost
Ġsu bs
ra k
ol en
ĠThe se
ur os
ce ed
Ġno vel
est iny
ĠR ita
ĠE van
Ġcom b
Ġus eless
li ve
li ff
ig ning
ĠK ind
ous and
ag ger
Al vin
ĠðŁĺ ħ
Ġad op
Ġrem em
Ste ph
Ġtri es
ild e
ĠAny ways
ache s
ĠHaha h
oc o
Michael a
ĠSh ow
Ġconf ident
Dor ian
Ġorgan ising
Re ggie
Ġclean ed
urt her
Ġansw ers
Ġreason able
Ġcent ral
Ġleg s
Ġsnow ing
cri ption
Ġcong ratul
Ġelect ion
Ġgrad u
Frances ca
Ġstress ful
ĠAng el
Ġhes it
Ġreview s
Ġpromot ion
Ġcap ital
Ġgroc eries
Ir ma
Mo ira
Ġfrustr ated
Ġpostp one
Ġtyp ical
Lib by
Ġtut or
ĠDub lin
Pab lo
Ġincred ible
Ġcalend ar
ĠCroat ia
ï¿ £
ĠHonest ly
A N
B ec
D irk
G ia
J am
L aurie
M ack
P ad
P edro
T ania
\ \
e off
l us
m o
n am
s ac
w are
Ġ ow
Ġs ch
Ġi ve
Ġi ron
Ġy ay
Ġm ur
Ġf aster
Ġd ia
Ġg oo
Ġp harm
Ġl ie
Ġn et
et a
Ġha m
Ġh ilarious
Ġbe e
ĠS H
ĠS ir
ĠS cott
Ġme als
Ġne ck
ĠM ust
Ġj ump
ust ed
ĠO ld
ĠC ount
ĠD ean
ĠD eb
il t
Ġher s
Ġex agger
ĠE llen
Ġcom fy
ain t
Ġtom atoes
Ġche ated
Ġwat ches
ĠJust in
Ġ:( ((
Ġdec l
og en
Ġcare s
Ġacc om
Ġend ing
Ġstud io
!!!! !!
Ġmess enger
Ġdress ed
Ġpost s
Ġorder ing
Ġass ist
Kar ina
ĠBe fore
Ġhu ndred
Ġgrand mother
ĠPer haps
ĠLe on
ï¼ ¿
duct ion
Deb ra
Ne va
Ġannoy ed
Ġmem ory
Cec il
Ale c
Ġprov ide
Ġmember s
ĠCom ing
Ġdecor ations
Pet ra
Ġdivor ce
Ġactiv ities
Ter rence
ĠNic ole
Ġjud ge
Ġslight ly
Ġchoo sing
Ġcreep y
A riana
B everly
D ec
D rake
E N
G us
H al
L ane
M ak
M ade
P al
S ky
S ydney
T ory
h ny
y on
Ã Ĺ
Ġt alent
re ed
Ġb ik
er ri
or able
Ġf ired
Ġf urther
nd um
Ġg rown
Ġp ers
Ġp ock
Ġl as
en zie
at form
is ter
Ġwe ed
ĠS andy
ĠW H
ĠH olly
al og
Ġ: >
Ġne got
ro l
ĠC U
ĠC ity
Ġsu nday
ĠD is
ĠD onald
il ities
ul es
ĠG al
ĠG osh
Ġpl ot
ĠP otter
Mar got
ĠF el
ĠF air
ĠR ory
Ġcon ven
Ġv iol
Ġsp ring
Ġr ough
Ġar chit
ne w
Ġche ating
ass y
Ġco z
Ġco ach
Ġde fin
Ad rien
Ġparty ing
ĠTh r
Ġweekend s
Oli ve
Ġsc en
ens ion
ĠMe et
Ġstud ied
Ar nie
aw n
Ġstop s
Ġrecommend ation
Ġdel eted
ĠCar rie
El ise
Cl arisse
Ag ata
Ġpa ink
ĠSam sung
ĠFran cis
Jon as
Mad dy
Ġbas ic
Ġpain ful
Ġpack ing
Ġexper t
Dam ien
Ġref used
ĠJess ie
Ġfore cast
haps ody
Ġmist akes
ĠMad rid
Ġprop ose
Ġcreat ive
ĠCam bridge
Ġâĺ ¹
Els a
Ġinclud ing
Art ur
Ġallerg ic
ĠRo ad
Ġintrod uce
Ġda ily
Ġsem ester
Ġbehavi our
Sp encer
ernand ez
Est her
Ġbarb ecue
Haz el
Ġoppos ite
Ġsightsee ing
Dec lan
2 5
: /
A h
B C
C K
D ustin
G uy
J az
K eegan
N estor
P apa
S ven
f its
k ok
l ist
y ah
â Ŀ¤ï¸ı
Ġa hh
ou cher
Ġs am
Ġs ym
ĠI K
ĠI ll
Ġb la
Ġb ene
Ġm ic
Ġm uff
Ġto oth
ing o
Ġd ump
Ġd rank
ar m
Ġg inger
Ġp ants
Ġl ack
Ġn asty
at an
it ty
le g
Ġhe ating
ill ers
Ġth ousand
ĠT inder
id en
ĠH ome
Ġst orm
Ġst ock
Ġu na
ver se
ry n
Ġan g
Ġli p
Ġshe s
our se
ĠP izza
Ġup stairs
ĠF antastic
ĠR uby
Ġus es
be red
Ġv oucher
ig uel
Ġsp am
Ġsa uce
Car lie
ĠðŁĺ ±
Ġdr ug
Ġke en
Ġplay er
Ġro b
og raphy
ĠAl ready
ony a
Ġmiss es
Ġbig gest
Ġaw ww
Maria h
Ph illip
Ġbab es
ien ne
Ġdep ress
ĠDan ie
Ġra il
Ġhigh ly
Nic olas
olog ist
Ġhotel s
Ġagre ement
Ġlearn ed
Ġcelebr ating
Ġrel ated
Ġpleas ant
Ġbag s
Ġleg al
Ġreturn ed
Ne ville
ĠEd ward
Ġhit ting
Ġfollow ing
Ġlight s
Ġind epend
Ġtransl ation
Ġexer cise
Ġallow ed
ĠLuck ily
asc al
bur g
Ġblock ed
Qu inn
Ġval ue
rib ly
Ġfort une
ĠBra zil
ĠBo hemian
Ġstom ach
Rand all
Ġcho ices
Ġpanc akes
ĠLis bon
Ġrefere ndum
ĠBang kok
belie vable
) (
A S
B oj
D er
D oreen
N ell
N igel
O L
R ow
U T
m ade
r om
r and
r ict
u bert
Å Ĥ
he t
Ġs na
ĠI re
Ġm ult
er o
Ġf its
Ġf lies
ar o
Ġg entle
Ġp ad
Ġl oss
Ġn ap
as m
le ct
ĠT y
ĠT urn
ĠS ebastian
ĠW al
Ġre pe
Ġst ole
os en
ir an
ro be
ĠO nce
ĠC ooper
ĠD one
ĠL aw
Ġpl umber
Ġpl atform
Mar la
Mar lene
te en
ĠR hapsody
ma le
ber to
if a
if i
ne x
ous es
end er
Ġpre cise
Ġch osen
Ġour s
Ġad ult
Ġtw ins
Ġexp ress
Ġper mission
Jane k
Ġact ive
ĠAn other
ĠðŁ į
Ġsc arf
Ġdis ag
Ġhi king
Ġbre aking
Ġsec urity
Ġunderstand ing
Ġdes p
Kat ia
Ġhead s
Ġdep os
Ġcons ult
Ġsk irt
Ġdeal s
orn elia
Ġatt itude
Ġann oun
aure en
Ġsal ary
Ġland s
led ge
ĠAb igail
Ġexplain s
Mum my
Ġform al
Julian na
ĠInd ia
Ġbur ger
Ġcamp us
ðŁĳ į
Ġimpress ive
Ġsus p
Ġinclud ed
Ġblo g
Luk as
von ne
Ha ley
Hel mut
Ġnoteb ook
ĠBT W
ĠIK EA
3 3
B rend
C in
C all
C ooper
E T
G ordon
G eoff
H ilda
K ane
L ennon
M ica
O T
P reston
R aul
S is
U n
b ell
d am
d al
r as
r im
r os
w hat
ou nce
ĠI S
ĠI rene
Ġm aster
Ġm outh
er oy
or ter
Ġc ough
Ġc oun
Ġf ans
es a
Ġp red
ic ian
le ine
ke a
Ġwe ak
ĠS us
ĠS leep
ĠW OW
ĠA udrey
Ġst ays
Ġso ci
ĠM iranda
ĠM useum
ĠO p
her n
ĠD es
ĠL ena
Ġsh ots
st and
ĠF all
ĠF inn
Ġex act
Ġhow ever
Ġag ency
Ġsp eaks
ĠWe re
red ith
Ġhapp iness
Ġcl ick
Ġch ip
way ne
ub en
Ġad ults
Br ooklyn
Ġmon day
Ġact ing
ĠSt ay
ĠAl though
ĠAny body
Ell iot
ms ter
Ġexc ellent
ib ly
ĠSam my
Ġfinis hes
urt is
Kar in
ĠAd rian
ett ie
Nathan iel
HA N
Ġreason s
Ġshort ly
Ġrece ip
Ġpleas ed
Ġattend ing
Ġfore st
Ger ard
ĠSoph ia
pect ed
ĠâĢ ĵ
Ġclos ing
Ġpur cha
Ġsol ution
Ġdev ast
ĠRuss ia
Bri anna
Ġapolog ize
Su zy
Kath ryn
Ġbasket ball
Ġglo ves
âĪ Ģ
Ġtemper ature
Ġfant asy
Ġgar lic
Ġremem bered
Ah med
Ġdepos it
) /
> ,
C ara
C elia
E ug
G erry
R yl
a fe
b el
b our
e x
k ins
l as
m ates
n s
p es
p et
Ġ >
Ġ ver
Ġs oo
Ġm mm
Ġg eez
Ġn urs
en na
om er
ac hing
id y
ĠW el
ĠH R
ad ette
el est
Ġso cc
ĠM ason
ĠM aur
ri z
Ġse es
Ġse par
Ġkn ee
ĠO llie
ĠB us
ĠJ ud
ĠJ ose
ĠL at
Ġlike ly
st orm
pp a
Mar ry
one ly
ĠR ly
ĠR alph
ĠR EA
Ġthem e
Ġr oof
ĠK ris
ag hett
Ġqu iz
iz es
Ġ3 00
Ġpr oof
Ġte as
ĠThanks giving
Ġdi v
Rob yn
Ġrem ove
Ġph ones
ĠU s
Ġtw ist
Ġapp ear
Ġun us
ĠV al
Ġbl ind
Ġmor on
Ġinte nd
.... ..
Ġsm ile
ĠIn terest
Ġadd itional
Ġmar riage
ĠPaul ine
Ġpol ish
Ġcost ume
Ġmed s
ĠEvery body
ï¼ ī
Ra oul
Ra quel
ĠWait ing
Ġsuit case
Ġfight ing
Sh ona
Ġpat ient
Beat rix
Ġtransl ate
Ġupd ated
Ġclear ly
Ġview s
Fab ian
Lore nzo
Ġmedic ine
Ġreck on
ĠNY C
Ġdam age
ĠBel g
ĠMarc us
Ġbak ed
Ġcult ure
Ġvill age
Ġyum my
Maur ice
Ġtrad itional
hamm ad
Ġhig her
ĠFe el
Ġsemin ar
Ġapplic ation
Ġsupervis or
ĠVer onica
Ġfasc inating
Ġing red
Ġpaink illers
ĠIre land
Ġsocc er
aghett i
A la
D el
K enny
L i
L illian
M iguel
O r
P er
S ol
W ar
b it
i ents
m orrow
n al
r ot
u k
Ġt ag
Ġt ip
Ġt alks
Ġw et
Ġw ard
Ġs ry
Ġs outh
ĠI ve
Ġm aps
Ġf old
Ġg ang
Ġp ush
it ting
Ġo dd
Ġh om
Ġh ide
Ġhe ld
Ġbe coming
Ġfor g
Ġth roat
ĠT a
ac ow
ĠS ry
ĠH E
ĠA le
ĠA aron
ĠA ustr
ĠA RE
Ġk m
ĠY a
Ġu mb
Ġse ction
Ġcan teen
ia ble
ĠB at
ĠC han
ĠN ooo
art y
ĠL ife
ĠL auren
Ġpl astic
ĠP a
ĠP ra
Mar i
ce lyn
ĠR a
ĠR am
ĠR oger
ĠE hh
Ġv ir
Ġ2 9
Ġfe male
Ġsp oken
Ġr ubb
em ar
Ġdoes nt
Ġsa f
Ġsa us
ag ne
Ġch ores
Ġover s
Sam ara
ere m
Ġad vert
Jack y
Ġtr ick
Ġapp lied
Ben ny
Ġbl ame
ĠAn gie
Ġcare er
Ġdis aster
Ġres erve
Ġbre aks
Barb ie
Ed ith
Ġcr uel
ling s
ĠSte f
ĠBe en
Ġac adem
Ġinform ed
ĠBl ue
Ġsal es
Ġsal mon
Ra f
Ġfore ign
eeee eeee
Ġdist ance
Ġarri ves
Ġconfirm ation
Ġpan ic
Wil ma
Ġdraw er
Ġmot or
Rich ie
Ġfab ulous
ðŁı »
Ram ona
ĠCent ral
Yann ick
Stefan o
ĠCr acow
Ġvar ious
ĠAN D
Ġembarrass ing
Ġlar ge
met ics
Ġrehe ars
Im ogen
Ġspir it
Ġarran ged
ĠThr ones
Ġmuff ins
Ġunus ual
A pp
C y
D aphne
D estiny
G ar
H am
J ada
L eroy
M alia
b ab
o z
r ings
u um
w hel
z em
ã Ĥ
Ġt all
Ġt att
Ġw ood
re l
Ġs om
Ġs kype
ha ppy
Ġm ax
or ks
Ġf ear
Ġf ee
Ġf rench
Ġf etch
Ġp oll
Ġn p
en er
at ives
Ġhe els
Ġin it
ĠS T
ĠS k
ĠS ec
id ing
ie f
im it
ĠH un
Ġre pl
ĠA hh
Ġst or
ĠM ight
ĠM any
Ġbut ton
Ġj ean
ĠO ff
ĠB est
ĠB uy
ĠC y
art en
ĠL ots
ra in
ĠP olly
ĠP enny
Mar vin
ce y
ĠF ri
ĠF IF
ĠR oy
ĠE h
Ġcom edy
qu in
ðŁĺ Ģ
ðŁĺ Ķ
ðŁĺ ĺ
ct ic
Ġr ate
em ary
Ġam ong
ĠHa w
Ġche m
Ġche es
end ed
Ġco ke
Ġad ding
Ġrec ent
Ġph il
ĠU hm
Ġun c
Ġbring s
ĠAl most
ĠX xx
ĠChrist ian
St u
Ġsha pe
Ġcont ent
Ar iel
ath on
ĠJohn ny
Ġbab ies
Ġsleep y
ĠSh op
ĠBr ussel
Ġcr ack
Ġenjoy s
Ġdes per
Ġreal ize
Ġmet al
Ġhead phones
Ġter ms
Dar rell
Marg o
ĠBe at
Ġcontact s
Mat ilde
ĠEng land
Ġgen ius
ĠðŁĳ ı
Ġbott om
ru ctor
Ġcollect ing
Ġopin ions
Ġpat ience
ĠUS A
ĠCla udia
Ġsett le
Anton ia
ðŁĳ ı
Ġshar p
Ġprot est
ĠAww w
Ġpu ppy
Ġlos ing
Cath ie
Ġstrugg ling
Ew a
ĠSyl via
Ġmeas ure
Ġjo gging
Ġroomm ate
Ġcig aret
Ġrail way
Ġannoun ced
dal ene
zem ek
Ġtatt oo
ĠFIF A
ĠBrussel s
B unny
C oco
C ornelia
C elest
E D
J ol
L ar
L ars
L aure
P rit
T on
a ah
a ign
f ree
g itte
h i
h ost
i ate
i ja
m ate
n ia
p ro
s en
t le
u na
y ear
Ġt re
Ġa in
he red
Ġs oul
ĠI kea
ing e
Ġc art
Ġf ool
Ġd eter
Ġp al
Ġl inks
Ġn ite
Ġo il
as hed
ut ter
ac on
ĠS qu
ie k
ĠW est
ĠH I
ĠH ot
ad o
Ġso cks
ĠM erry
Ġj et
Ġj un
ĠO F
ĠO N
ĠO la
ĠO oh
Ġknow ing
Ġknow ledge
ĠB ad
ĠB ur
ĠN ational
ĠD I
ĠJ eremy
ĠL ets
ĠL ew
ĠL ydia
ra g
ink ing
Ġal tern
ĠG old
Mar ly
ook ed
ĠF U
Ġpro ced
ĠR ep
Ġnow here
ace k
ara oke
ee v
alk er
ig i
Ġsp eed
Ġsp aghetti
Ġr ly
ĠK ore
ĠK ai
Ġsa fer
Lu isa
Ġbuy s
Ġover whel
ub lic
Ġrec all
Ġrem ote
ĠU k
Ġdr ill
Ġcour t
ĠV iv
ean ne
ĠAn thony
Ġjoin ed
Ġdis like
Is sac
Max ine
ix ie
ĠBr ooke
Ġdisc overed
Ġ9 0
Ġcr ush
Zoe y
ĠSp ot
ĠSp eak
Ġwalk ed
Ġorgan ized
cel and
Ġpark ed
ĠJan et
Ġclub s
Jas na
ĠLove ly
Ġland ing
Ġaff ect
Ġob ject
ĠPh ilip
ru pt
Ġnorm ally
Ġdisapp eared
Ġremind ing
Ġbur gers
Ġdist ur
Ġeng ine
Ġliter ature
Ġgrad es
Ġprogram me
Ġign oring
ĠHA HAHA
Ġtur key
Ġapply ing
Ġpromot ed
Bri gitte
ĠBab e
ĠBab y
Ġcos metics
Ġban ana
Ġlim it
Â° )
Tab by
ĠIsab el
Ġbow ling
Ġcand id
Dex ter
wh ile
Ġitem s
ĠHel p
ĠTur key
Ġemot ional
Ġecon omy
Ġamb ul
Ġfamil ies
ĠBry an
Ġinflu ence
Ġfol ks
irgin ia
ï¾ Ł
Ġprinc ess
ĠAndre a
ĠValent ine
Ġïģ Ĭ
Ġstre ets
ï¼¿ ï¼¿
Sky e
Ġconven ient
nex pected
Un cle
Ġjean s
Prit i
' ?
- (
H or
J ord
L ois
O din
S ash
S adie
T omek
Y vonne
b urn
c ony
p ot
u nd
y ton
Ġ !!
Ġt rees
he ro
in ity
Ġs lot
Ġthe ra
Ġm ap
Ġto ol
er ves
Ġc oin
Ġg reet
Ġg ees
Ġl onely
Ġn on
ic ja
Ġhe ro
Ġin duction
Ġth reat
ĠT HAN
ut en
ĠS han
ĠS ur
ĠS uch
ĠS onia
ĠH an
ĠH al
ĠH ard
am an
Ġre lig
Ġst ream
ĠM ean
ri on
Ġab ove
ĠD iego
il ty
ĠL ara
ĠL ola
st e
Ġal arm
ĠP en
ĠP ick
ĠP oppy
Mar co
Jo hny
Jo celyn
Ġcom mer
Ġtom ato
Ġsp ots
Ġr ule
ĠK ay
em i
od s
ag ing
iend s
Ġton ite
Fran co
Ġtr icky
Ġgr am
Ġcour ses
Ġ10 00
ĠV ienna
Ġser ve
Le igh
Ġclass ic
ĠMar io
ĠLO VE
Ġhat ed
ĠBr uce
ĠBr ooklyn
Ġdel ight
Ġunderst ood
Jan ine
ĠLu na
Ġdress ing
Ġfar m
Ed na
Ġinst ructor
Ġreal ized
Ġfeeling s
uz z
Ġdoctor s
Ġcontact ing
Ġcol ors
Ġrep lied
vious ly
ĠAr t
erg y
Ġhop eless
Ġpri or
Ġsuit able
Ġlecture s
ĠCl ara
ĠPl ay
Ġ:)) )
Ġbox es
Ġarri val
Ma ja
Ġhold ing
ĠGab riel
Ġign ore
Ġhost el
Ġshift s
Ġveget arian
Ġkick ed
Ġjour nal
Ġcas ual
ĠStan ley
Luk ass
Ġaud ience
Ġblond e
Ġpump kin
ĠOb viously
Ġjum ping
Ġcompan ies
Ġinstruct ions
ðŁİ ī
Rh onda
Ġshel ter
Neva eh
Ġdevast ated
Ġingred ients
Ġfold er
Ġumb rella
ĠPra gue
ĠTHAN K
Ġcommer cial
. "
1 9
6 0
A f
B o
C a
C az
D ot
E C
E ma
F lo
K as
K urt
L Y
M ir
S i
S her
T rey
Y Y
h us
i j
i ott
i pping
l t
u nder
w ia
y b
z en
Ġ ven
Ġa maz
ĠI celand
Ġc y
Ġc ried
Ġf ond
Ġf urious
ar ily
Ġp izz
Ġn ic
is ine
it ched
ed ora
Ġh ouses
Ġfor ce
ĠT on
ac ed
ĠS ydney
Ġe uros
ĠH urry
ĠA c
ĠM ona
Ġli qu
ĠB ud
ĠB oy
ĠC ertain
ĠN ate
ĠD O
il ah
ĠL A
ĠL ia
ood y
st ance
ess ed
ĠG ib
ob al
ob bs
An ny
Ġor ders
Jo jo
ĠR ich
Ġgot ten
ðŁĺ ±
ðŁĺ Ń
if orn
Ġfe et
Ġback ground
Tom as
Ġwon dered
act ion
Ġco ast
ĠðŁĺ Ń
ree k
Ġad orable
ĠU h
Ġtr ous
Br ayden
Ġun happy
ĠSt ar
ĠSt ud
Ġsc ience
Ġhi red
?! ?
Ġhar sh
Nick i
Ġfound ation
Ar lo
Ġkind erg
ĠSh ut
Ġtrip s
Ġpass ing
ĠCar men
Barb ra
Har ris
Ġra ise
ĠAs k
Ġmus h
Dar cey
Ġair bnb
Ġteacher s
Ġrequ ire
ĠUn less
Ġsafe ly
Ġcop ies
Ra fa
ĠMor gan
Ger i
unt ie
Ġpan ick
ĠLiz zy
Ġregular ly
Mer yl
Ġfru its
Ġpossib ility
Ġsil ent
Ġrout e
Ġcollea gue
Jacqu i
Bea u
Ġmaterial s
Ġprot ect
................ ................
Ġdocument ary
Kath leen
Ġmass age
Tan ner
Ġphotog rap
As ia
ĠMil an
Ġroll s
Jar od
Ġgam ing
Ġbal cony
Ka ja
Ġcirc um
ĠWil son
Ġboot s
Ġunf air
Ġscrat ch
Mack enzie
Ġpharm acy
Made leine
Ġarchit ecture
Ġdesp ite
Cin thia
Mica h
Ġpred ict
ĠREA LLY
Ġrubb ish
Ġstor age
iforn ia
3 4
8 0
> .
A ry
C iara
C urtis
D elia
D wayne
E lie
J avier
M isty
M aureen
P P
P a
P ascal
R ad
Y ou
Z u
a at
c orn
k la
l ad
p r
r ome
t r
v ir
v ant
â ĸ
Ġa im
in ic
Ġs la
Ġc it
Ġf inger
Ġg ain
Ġg if
es h
om s
it ha
ic ide
Ġh ub
ĠT or
ĠT odd
ac ie
Ġe c
im ate
im istic
ĠW es
ĠH ang
Ġre lease
Ġk araoke
Ġst one
Ġu nd
ĠM A
ust av
ĠC as
ĠC alm
Ġab ort
ĠD iane
ĠD ON
Ġas hamed
il i
ell ery
ĠJ oy
ĠL indsay
ol o
Ġshe lf
ĠHe ather
ĠF ingers
Jo ona
te o
Ġex ist
ĠR onald
ĠR ebecca
Ġwork out
ĠE VER
ee k
ðŁĺ »
ðŁĺ ī
Ġman ual
ica go
Ġpre cious
eter ia
ist ics
act ose
Em man
ĠðŁĺ Ħ
ere nces
ip e
Ġcomp are
Ġtr am
Ġdr ugs
gg ies
ĠV iet
ĠAre n
ĠIs la
Ġro ads
Ġser ved
ĠSt art
Ġsc ene
Ġclass room
ĠAl bert
ĠMar ion
up s
Ġhar m
Me redith
Ġaw w
Ġaw ake
Ġluck ily
Ġpass port
Ġswe at
Ġpost ing
ĠxD DD
Tr acey
ĠAs ia
lin es
ump y
Ġcontact ed
ĠCh icago
Ġann ounce
ĠBen jamin
Ġsub st
Ġsing er
Ġstr ate
ĠZ ack
Ġfact ory
ĠAb by
com fort
ĠAg atha
ĠDe al
Ġlo ad
ĠSha me
Ġ19 9
ĠGet ting
Ġfigure d
Ma e
Ġconnect ed
Ġris e
Doug las
Tat um
Gill ian
Ġdescri ption
Ġgrow ing
Nik ki
Ġreact ion
Ġequ ip
ĠJapan ese
ĠPL EA
Ġelectric ity
arc os
Nel son
Ġbreat h
Ġmir ror
Ġlu v
Ġcaf eteria
Kirst en
ĠAven gers
Ġner d
Kale igh
Clar ice
âĢįâĻ Ģ
Ġinj ured
Pay ton
Ġperf ume
Ġxox o
Ġow es
Boj ana
Call um
ĠInterest ing
ĠAustr alia
ĠSqu are
ĠLew is
ĠCertain ly
Ġmush room
Emman uel
1 00
> <
B ret
G ert
L inn
S ierra
T ilda
T ube
W olf
^ )
c ul
c les
f i
f ield
g u
k k
m el
p re
s p
Ġw ise
on ment
ll ed
Ġy r
Ġm arry
Ġf lex
Ġf ries
Ġp y
Ġp in
Ġp ig
Ġn oo
en ces
is ol
as min
Ġh ugs
Ġhe at
Ġin ten
am b
Ġre ve
Ġne g
ĠM Y
ĠM ick
ro id
ĠB ack
ĠB illy
Ġsu p
ĠN ora
ĠN icky
ĠJ ones
ol an
Mar issa
ast asia
ĠYou Tube
ris ha
ĠF ood
te m
ĠR ay
ĠR od
ĠE ll
ĠE le
Ġnew est
ðŁĺ Ļ
Ġsp read
John son
ist ration
arry l
Ġ5 00
Chris sy
Pat t
ĠTh ose
Jul ius
Ġgr oss
Ġgr ade
Ġoh h
Ġoh hh
Ġun believable
Ġact ual
Ġsc are
ĠAny time
ĠMar co
Ke iran
zy mon
Carol ina
Ġsur f
Ġfuck in
Ġprep ar
Ġpass ion
uss y
ĠMon t
ĠMon ika
Ġ15 0
ĠSp ider
Ġreal ise
Ġorgan is
Ġpol icy
ĠMart y
Kar la
ple as
Ġent hus
Ġseason s
Ġpop corn
Ġsal t
ĠðŁ¤ Ĺ
ĠðŁĳ Į
ï¼ ı
yy y
Ġmanage ment
Ġhop ed
Ġcur ry
Ġvac uum
ĠWas hing
Ġtreat ment
Ġrelax ed
ĠNat alia
Ġarg uing
Ġremind er
ĠInd ian
ĠCl are
Ġpot ential
Tam my
Ġbur nt
Ġpur ple
Ġed uc
ĠBob by
ĠKat y
Ġwindow s
Ġign ored
Cor in
ĠSc ot
ruct ion
ĠTw itter
ĠJon athan
Ġahaha h
Ġru ined
ubb les
Ġsil ver
ĠWhats App
ĠGrand ma
Qu entin
Ġfrustr ating
Ġmix ed
Ġbel ong
Bro dy
Ġmis er
Ġattract ive
Ġcu isine
ĠMc Donald
ĠWor ld
ĠStep hen
ĠStep hanie
Ġcand les
Ġsens itive
Ġshout ing
Ġcrit ic
Ġbi ology
Ġrelie ved
ĠWon der
Ġadvent ure
Ġjer k
Ġexha usted
Ġcommunic ate
Fay e
ĠAust ria
Coll in
fess or
Ġtutor ial
Ġgoo g
Ġbee f
Pal oma
Ġbla h
Ġang el
Ġrepe at
Sis i
ĠBat man
Gar rett
Celest e
Ġthera py
yb ille
Ġtrous ers
Ġkinderg arten
vir onment
ĠPLEA SE
Ġinten se
A ggie
B onny
D ol
D ella
H allie
H ubert
H omer
K irk
L onnie
L eanne
N ia
O n
O leg
P ip
S zymon
T H
Z uri
c liff
f s
f red
h ouse
i at
i qu
j e
l ord
v o
w as
Ġ ....
Ġt ou
an ces
Ġm att
or ia
Ġf o
Ġf uel
Ġyou ll
Ġl ame
Ġl actose
Ġn ick
Ġn ooo
en g
ed s
ed ay
le ur
Ġh o
Ġth n
ĠT hing
ut ions
id an
ie ce
ĠW he
ĠH or
ĠH ank
Ġre ached
ĠA v
ĠA mster
al ine
Ġu nexpected
ĠM uch
Ġgo in
Ġan aly
Ġse ven
ĠB ert
ĠC ast
ĠC ourse
ĠD ot
ĠD av
ĠL ater
ra el
our s
ile en
Mar ina
ge on
ge nd
An ca
ĠF ox
Ġgood bye
ĠR el
ĠR ec
Ġwork ers
ĠE ither
ak i
Ġr ac
la v
Ġsa iling
ty l
Ġcl ue
Ġche st
Ġwait ed
Ġwon ders
ag na
Ġqu al
oin ting
Ġpr os
Ġen ergy
ail ed
ment ine
Ġmin i
Ġdi alog
Jen nie
Pat rik
mm mm
Ġun comfort
Matt ie
Char ity
ĠSt acy
ĠChrist ine
Mel vin
Ġsha d
ĠSu zie
ĠBr illiant
Susan ne
Ġtrain s
Ġcr ash
Ġdes erves
Ġperson ally
oooo o
Ġadd ict
ĠDan a
Ġorgan ised
Ġatt ached
olog ical
mag ine
Don nie
ĠKe v
Ġinc on
Ġstr ict
Ros emary
Ġtop ics
ï¼ Ī
Ġcent ury
Val ent
Ġcomplain t
Ġcountry side
Ġdra g
Ġappreci ated
Wal t
Ġtast es
ĠNO W
Ġtour ists
Ġed iting
Ġcamp aign
Ġincl ude
Fab io
eee y
Ale ks
Ġru in
Ġrecord ed
Ġque en
Ġkiss es
Ġoffic ially
Ġsaving s
Ġpostp oned
ĠAnt on
Ġbak ery
Ġdivor ced
ĠCal ifornia
ĠPL N
Kel sey
Ġparticip ate
Ġbird s
Bern adette
Karol ina
Dak ota
Ġprod uc
Ġuns ure
ĠGeorg ia
Mak ayla
Ġlip st
Ġreceip t
ĠWel come
War ren
Ġward robe
Ġforg ive
Ġacadem ic
Ġnic er
Ġequip ment
ĠAmster dam
: ÃĹ
A be
B uba
C H
C ait
D arek
D imit
F isher
F edora
I P
J em
L ona
L onya
M icky
M innie
N i
P lay
R ash
S ana
b u
b ooks
b elle
d on
e ber
f or
f ish
k ed
k ah
l oyd
m ins
o vers
r ant
r ound
u ced
v ol
w ar
â ľ
Ġ )
Ġt ar
Ġt ro
he he
Ġw ore
Ġi Ph
ĠI rish
ĠI magine
Ġb ars
Ġthe ory
Ġc ities
Ġc ya
Ġf i
Ġf erry
Ġd iner
Ġg e
Ġg rew
Ġp ets
Ġp arent
Ġl ower
Ġn ar
en ing
it ius
Ġit alian
Ġh int
Ġwe b
Ġon to
ĠT er
ĠS il
ĠS rsly
im i
Ġre ject
ad en
ad ise
Ġk ett
os c
ĠY ay
ĠM E
ri ff
ri ka
ia go
ĠB arry
ĠC ec
ĠC ard
ĠC aleb
ĠC iao
Ġwas nt
ĠJ od
ĠL en
Ġfr ank
Ġshe et
st r
ĠThe o
ff y
ĠF ort
ĠF ire
Ġgood ness
um ing
ber ries
ian na
Ġfe min
Ġsp ect
Ġsp ons
Ġr ace
Ġright s
Ġar rest
Ġcl inic
Al icja
Ġbr unch
Ġco ff
Ġpe an
Ġ5 5
Ġad min
Chris ty
Ġgu ilty
Ġwhere as
att le
ĠU ntil
ĠV ince
Ġact or
Ġact ress
to gether
ĠMar vel
Ell iott
Ke en
Ġworry ing
Helen e
!!!! !!!
Ab d
Ab i
Ab raham
Ang ella
Jan ny
Ġinst agram
Ġadv ised
Ġcle ver
Ġav oc
ĠSam uel
Ġmar athon
pl ay
Ġsk ating
Ġreg ards
Cam ila
ĠMart a
rop ri
ĠCh ick
Ġkey board
ĠAlex is
Ġspeak er
Ġexper iment
Ġcomm it
Ġneighb ors
ebec a
Ġland lord
Ġaccident ally
Ra ven
ĠAg reed
vis ion
Ġattend ed
Ġpaper work
Ġtrave ling
Ġpract ical
Ġremind ed
Ġdoubt s
Ġeng age
Ġeng lish
Ġpan el
Ġdirect ion
Ġshut tle
?!?! ?!
Ġsoooo o
Ġpsych ology
Ġmedic ation
Ġque ue
Ġcast le
ĠPam ela
Ġisland s
Mac iek
Ġdemand ing
Kel vin
Ġsearch ing
Ġlock ed
Ġpropos es
Pr zemek
Ul rich
Ġsandw ich
Ġhob by
Ġexperien ced
Ġrare ly
Ġlic ense
Ġtm r
ĠOl ga
Ġresponsib ility
Octav ia
ĠCost a
Ġnet work
Ġtalent ed
Ġmult ip
ĠSus ie
Ġpurcha se
Eug ene
ĠMaur itius
Ġphil os
ĠUk raine
Ġphotograp her
Ġuncomfort able
Ġincon ven
Sana z
! )
. ?
7 0
: -)
C hant
H ell
J acek
K erri
L andon
N ola
O s
P ola
R ee
S har
T o
a ired
b et
b oy
c l
c ard
g ently
k le
l ara
n us
p ool
p any
u ke
u ana
v et
w ig
â Ĥ¬
Ġt ha
Ġt ie
Ġt rend
Ġw ire
re ads
Ġs igning
on zo
Ġi r
Ġb right
Ġb ang
Ġthe r
Ġm er
Ġm eth
Ġm ode
Ġc ert
Ġd en
Ġd ed
Ġd read
ar ies
ar io
Ġp ath
Ġn a
it o
ic ing
ic hes
Ġo ooo
Ġbe ll
Ġfor ced
ĠT ara
ĠT roy
ĠS un
Ġe ld
im s
ĠW ood
ĠH ilary
ĠH uh
Ġre fu
ĠA L
ĠA p
Ġdo able
Ġst ro
Ġst ood
Ġst ran
Ġst ates
ĠY ess
ĠM all
ĠM arry
Ġan kle
Ġj oy
ĠB t
ĠB ook
ĠC D
ĠC ra
il o
il ian
ell ing
ĠJ eez
ĠJ udy
ĠJ uan
ĠJ asmine
ĠL o
ra h
ol ton
th ias
Ġwh ose
pp ers
ĠG P
ĠP ad
ĠP res
Mar isol
ce an
Ġthey re
ðŁ ĩ
ĠF ab
ĠF unny
Ġpro ve
ĠE ls
ĠE asy
Ġcom ic
ma o
be y
be kah
ðŁĺ İ
ðŁĺ ł
Ġv o
Ġsp icy
ĠK athy
ph is
ph onse
ne ver
Ġoff ended
ist ry
uck y
Em my
iss on
ĠðŁĺ ķ
Ġover night
Ġde bt
Ġnice ly
Ġad s
Ġrec ording
che ck
Ġun pleas
ax y
Ġbl ow
Nat ty
Ġcare fully
Ġdis li
lle y
ĠMar ge
The od
ĠNe il
ĠSh oot
ĠBr idget
Ġcr ime
Ġsuggest ion
Ġsit u
Ġpoint less
ĠTr ust
Ġspend s
Ġmar ks
Mag dalene
ok ed
Ġter ribly
Ġorgan ic
Ġsuper hero
Ġur gently
Ġhor se
Ġwar ning
ĠFor get
land er
uu u
Ġbar g
erv ative
ĠUn ited
Ġresp onse
Che t
Ġpri ze
ĠPh D
ĠJosh ua
Ġcli p
Ġca used
Ġvac c
Ġsupport ive
Ġchat ting
Ġtreat ing
Gabrie la
Ġrelax ing
Ġmod els
Ġfollow ed
Leon ard
ĠMad ison
ĠMad die
Isa iah
Alf onso
Pe yton
Ġgrad uation
Ġind ust
Nor ah
ĠGab rie
Ġboo bs
Law rie
Ġnor th
Ġentire ly
Gl enn
Tess y
Ir win
ĠEli zabeth
ĠCo ffee
Ġbel ow
ĠNor th
Ġlead er
Ġupload ed
Lil ah
Ġpray ers
Ġ:' (
Ġsuspect s
Cass ie
Ġmir ac
Ġscrew ed
Ġlem on
Franc ine
uf us
Ġbase ball
ĠLes lie
ĠFel ix
Ġindepend ent
Brend on
Ġrehears al
Ġsom eday
Ġdesper ate
Jol ene
Ġproced ure
Ġambul ance
Zu za
Ġreve al
ĠSpider man
Ġmiser able
ĠiPh one
Ġkett le
Ġspect ac
4 3
A J
A ccording
D r
D ianne
E nzo
G u
G igi
J ayson
L ance
M ash
M itche
O p
R ia
S ant
S eb
T ia
T rent
T risha
V en
X X
Z ac
b ag
c ol
d own
i be
l ict
r ate
r iting
s a
s ed
t op
u it
v ana
Ã ³
â Ŀ¤
Ġt ent
Ġw ave
Ġs b
on to
Ġi rr
ĠI ng
Ġb inge
Ġthe rap
an ca
Ġm ac
Ġm ale
Ġm ock
Ġc ope
Ġc iv
Ġf art
ar ter
ar ks
Ġp ed
Ġp il
Ġp airs
Ġn ut
at on
at ima
ot he
ed ing
Ġh ug
Ġh ips
Ġwe ars
ĠT ill
ĠT ab
ut ing
ut es
ut iful
ĠS id
ĠS aw
Ġe ast
im um
ĠW roc
ĠH am
Ġre new
Ġdo pe
ad os
Ġst ri
Ġst olen
ĠY uri
Ġat tem
ĠM ir
ri ett
Ġj unk
Ġj azz
ĠO uch
ĠB ible
ĠB ull
ĠC omm
ĠC oll
op old
ĠD inner
ĠD arling
ĠD ennis
ĠL em
ra w
ore y
Mar cel
un can
An astasia
ĠR ock
ĠR iley
Ġcom in
Ġcom ed
ure k
Ġv om
Ġv it
Ġv oc
Ġr ug
Ġr ules
ĠK N
ĠK inda
ph y
ort hern
Ġ; >
Ġcould nt
Ġche at
Ġid ent
ĠðŁĺ Ĩ
ĠðŁĺ ı
Ġen vironment
irl ines
Jul iana
Jul io
Jul ien
inn ers
Ġfun ction
Ġgr ant
Ġun like
ĠV eg
Ġfin anc
ĠAn ita
ĠSt ella
ord in
Ġvisit s
yl ar
Ġhi re
Ġres ol
Ġres ist
Ġres erved
ĠX avier
Will y
Ġeat s
Ġbot hered
ens on
Ġhear ing
oc key
Ar lene
Ġconf lict
Luc ie
Ġpass es
Ġinst r
Ġthr illed
Ġmet ro
Liz zie
Eve line
Ġcount ing
Ġsw ing
Mag nus
Ġchild hood
Ġexpect ations
Ġcost umes
Ġlisten ed
ĠCould n
Nic ola
ced es
Ġve ggies
Ġdiscuss ion
Ġrep aired
Ġpop ul
Ġcheap est
ĠðŁĻ Ī
ĠðŁĻ Į
Marc iano
apt ain
Ġref use
ship s
com es
Ġcomplain s
Ġrid ing
ific ation
Rod ger
Ġhist or
Ġtravel s
Sha un
Ġpar adise
ĠCl ub
Ġla unch
Ġafford able
ĠâĢ ĺ
Ġdecis ions
Ġchill ing
Ġdest ination
ĠApp le
Ġev il
Ġdem oc
Ġdro ve
ĠHar vey
Ġmeant ime
Ġdraw ing
ĠTe xt
ĠTe resa
Nad ine
ĠCha d
ĠMexic an
riet ta
AA AA
Ġdeg ree
Art uro
Freder ic
Ġaut umn
Ġstep s
ĠRo om
Ġsuff ering
Ġconst antly
ĠMost ly
Ġreplace ment
Ġtemp ting
Ġintern ational
ĠUni versity
Ġinstall ed
Kirst y
Vik i
Ġsetting s
Ġcock t
Bla ir
Ze lda
Eleon ore
yon ce
Ġpock et
asm us
ĠWal ter
stand ing
ĠBelg ium
Ġgram mar
Ġcit iz
ĠScot land
Ġlipst ick
Hell en
Ġunpleas ant
Ġspectac ular
Ġattem pt
ĠVeg as
1 7
? :
A ut
B ab
B ran
B ren
C at
D aw
D arryl
E ar
E lly
F air
G w
G ale
H an
I S
M illy
R ene
S e
S issy
S ybille
T elma
U L
U ma
W ade
a e
b l
b les
c r
i os
m al
p ea
p hew
u i
u j
w ood
Ġ Í
Ġ âĢ¦
Ġ range
Ġt ables
Ġt ires
Ġa hah
re al
Ġs als
Ġi ma
Ġb ark
Ġb achel
er ning
Ġf are
Ġd ut
Ġd ye
Ġg all
Ġl y
Ġn ature
om en
it ute
Ġh omet
Ġh ip
Ġh ockey
oo re
Ġme l
im age
ĠH ist
ĠA I
ĠA ha
ĠA rab
Ġne phew
Ġst airs
Ġso ber
ĠM akes
ir ation
ea ble
ĠO ver
ĠO ops
ĠB E
ĠB BC
ĠD uh
ĠL ittle
ĠL ora
ĠL ennon
Ġsh iny
Ġshe d
pp le
ĠG emma
ĠP op
ab out
ab el
ast e
Ġ:) .
ĠR ad
Ġhow s
ber g
ðŁĺ ĥ
ig er
Ġsp lendid
ak er
ĠK ayla
ĠK rak
ĠHa iley
Al ene
ist an
Ġqu id
iz ing
iz zy
ĠðŁĺ ©
Ġton s
Ġdi re
Ġrec ru
lo ise
ĠU p
Ġdr am
Ġdr um
Br ie
ĠV ic
Am ka
ĠAl ison
Ġres c
Ġres ort
Ġmiss ion
Will ie
Mel inda
Ġhar ass
Ar on
ĠBr andon
Ġtrain er
Ġgl obal
ĠxD D
Ġmat es
ird re
ĠSp lendid
Ġconc erning
Ġnews p
Ġreg ion
ais ie
Ġhor ses
Ġwin ning
Ġwar mer
Ġsl ides
Mat s
Mat thias
Ġins ists
ĠJul ian
ĠKe ith
ĠBl oody
Ġsal on
Ġmo on
ĠðŁĻ ı
Ġâ ľ
Ġcatch ing
iet y
Ġmain ly
jam as
Ġinvit ations
ĠFrank ie
ĠHahaha h
Ġabs olute
Ġexplain ed
Ġcut ie
Ġsex ual
ĠJoe y
Ġtreat ed
ĠKim ber
ĠJac kson
Aid an
Ġarg ued
ĠPl ace
Ġdist ract
Ġed it
Ġassign ments
Cec ily
Ġbra ve
ask ia
Cle o
Ġpref erences
Ġlangu ages
ĠCon nor
Ġfeed back
Ġshock ing
ĠJen na
ï½ ¥
Ġdescri be
ĠEl ena
Ġcustom ers
Ġaunt ie
Krist el
Ġrout er
Ġrout ine
ĠLa os
Ġcas es
ĠMat ilda
ĠCo llege
Ġhy p
Lex ie
ĠIsab ella
Bro ck
ĠRom ania
Ġtemp or
Ġeffect s
Ġinvest ig
Ġsuccess ful
Ġvolunte ers
Ġdepart ure
Ġecon om
Dak i
Ġobs essed
Ġsurprising ly
Ġmotiv ation
Ġdeb ate
Ġsandw iches
ĠDomin ic
Grand pa
Ġbabys it
ĠExc ellent
Ġjew el
ĠVen ice
Ġdisag ree
ĠJud ith
Del ilah
Laure l
Ġdelight ed
Sher idan
ij uana
ĠTon ight
Ġabort ion
Ġflex ible
Ġneg ative
ĠWashing ton
war ming
Ġindust ry
ĠKN OW
Ġsals a
Ġhomet own
$ .
( ^
3 5
B erry
C orey
D ay
D av
E n
E lle
G H
G ene
G iles
G ino
H ernandez
I C
I I
J esus
K lara
M A
M other
M isha
N olan
S ome
S and
T erence
U te
Y o
f ia
f ol
g ic
g al
g ant
h in
j on
l ol
l ace
n ic
p arents
r ots
s up
s ters
v s
w atch
y ond
y ush
z el
Ð Ķ
â ī
Ġt an
Ġt ail
Ġt tyl
Ġw it
Ġw ra
Ġw ings
ou red
re ck
Ġs ink
Ġs ky
Ġi phone
ĠI N
Ġb b
Ġb t
Ġb ite
Ġb omb
an o
Ġy t
or ation
or ough
ing ton
Ġc ater
Ġc rew
Ġf ir
Ġd y
Ġd at
Ġd umped
Ġg ranny
Ġg host
Ġp ra
Ġp od
Ġp int
Ġl ob
Ġl ag
is er
ic io
as ide
Ġh ike
Ġin fect
Ġbe ans
Ġth in
Ġon ion
ĠT O
ac os
ĠS ad
ĠS ummer
im p
im in
ĠH oly
ĠA G
el in
ĠM ed
ĠM hm
Ġgo al
Ġan x
Ġan ime
