{
  "version": "1.0",
  "truncation": null,
  "padding": null,
  "added_tokens": [
    {
      "id": 0,
      "content": "<SOS>",
      "single_word": false,
      "lstrip": false,
      "rstrip": false,
      "normalized": false,
      "special": true
    },
    {
      "id": 1,
      "content": "<EOS>",
      "single_word": false,
      "lstrip": false,
      "rstrip": false,
      "normalized": false,
      "special": true
    },
    {
      "id": 2,
      "content": "<PAD>",
      "single_word": false,
      "lstrip": false,
      "rstrip": false,
      "normalized": false,
      "special": true
    },
    {
      "id": 3,
      "content": "<UNK>",
      "single_word": false,
      "lstrip": false,
      "rstrip": false,
      "normalized": false,
      "special": true
    },
    {
      "id": 4,
      "content": "<MASK>",
      "single_word": false,
      "lstrip": false,
      "rstrip": false,
      "normalized": false,
      "special": true
    }
  ],
  "normalizer": null,
  "pre_tokenizer": {
    "type": "ByteLevel",
    "add_prefix_space": false,
    "trim_offsets": true,
    "use_regex": true
  },
  "post_processor": {
    "type": "ByteLevel",
    "add_prefix_space": true,
    "trim_offsets": false,
    "use_regex": true
  },
  "decoder": {
    "type": "ByteLevel",
    "add_prefix_space": true,
    "trim_offsets": true,
    "use_regex": true
  },
  "model": {
    "type": "BPE",
    "dropout": null,
    "unk_token": null,
    "continuing_subword_prefix": null,
    "end_of_word_suffix": null,
    "fuse_unk": false,
    "byte_fallback": false,
    "ignore_merges": false,
    "vocab": {
      "<SOS>": 0,
      "<EOS>": 1,
      "<PAD>": 2,
      "<UNK>": 3,
      "<MASK>": 4,
      "!": 5,
      "\"": 6,
      "#": 7,
      "$": 8,
      "%": 9,
      "&": 10,
      "'": 11,
      "(": 12,
      ")": 13,
      "*": 14,
      "+": 15,
      ",": 16,
      "-": 17,
      ".": 18,
      "/": 19,
      "0": 20,
      "1": 21,
      "2": 22,
      "3": 23,
      "4": 24,
      "5": 25,
      "6": 26,
      "7": 27,
      "8": 28,
      "9": 29,
      ":": 30,
      ";": 31,
      "<": 32,
      "=": 33,
      ">": 34,
      "?": 35,
      "@": 36,
      "A": 37,
      "B": 38,
      "C": 39,
      "D": 40,
      "E": 41,
      "F": 42,
      "G": 43,
      "H": 44,
      "I": 45,
      "J": 46,
      "K": 47,
      "L": 48,
      "M": 49,
      "N": 50,
      "O": 51,
      "P": 52,
      "Q": 53,
      "R": 54,
      "S": 55,
      "T": 56,
      "U": 57,
      "V": 58,
      "W": 59,
      "X": 60,
      "Y": 61,
      "Z": 62,
      "[": 63,
      "\\": 64,
      "]": 65,
      "^": 66,
      "_": 67,
      "`": 68,
      "a": 69,
      "b": 70,
      "c": 71,
      "d": 72,
      "e": 73,
      "f": 74,
      "g": 75,
      "h": 76,
      "i": 77,
      "j": 78,
      "k": 79,
      "l": 80,
      "m": 81,
      "n": 82,
      "o": 83,
      "p": 84,
      "q": 85,
      "r": 86,
      "s": 87,
      "t": 88,
      "u": 89,
      "v": 90,
      "w": 91,
      "x": 92,
      "y": 93,
      "z": 94,
      "{": 95,
      "|": 96,
      "}": 97,
      "~": 98,
      "¡": 99,
      "¢": 100,
      "£": 101,
      "¤": 102,
      "¥": 103,
      "¦": 104,
      "§": 105,
      "¨": 106,
      "©": 107,
      "ª": 108,
      "«": 109,
      "¬": 110,
      "®": 111,
      "¯": 112,
      "°": 113,
      "±": 114,
      "²": 115,
      "³": 116,
      "´": 117,
      "µ": 118,
      "¶": 119,
      "·": 120,
      "¸": 121,
      "¹": 122,
      "º": 123,
      "»": 124,
      "¼": 125,
      "½": 126,
      "¾": 127,
      "¿": 128,
      "À": 129,
      "Á": 130,
      "Â": 131,
      "Ã": 132,
      "Ä": 133,
      "Å": 134,
      "Æ": 135,
      "Ç": 136,
      "È": 137,
      "É": 138,
      "Ê": 139,
      "Ë": 140,
      "Ì": 141,
      "Í": 142,
      "Î": 143,
      "Ï": 144,
      "Ð": 145,
      "Ñ": 146,
      "Ò": 147,
      "Ó": 148,
      "Ô": 149,
      "Õ": 150,
      "Ö": 151,
      "×": 152,
      "Ø": 153,
      "Ù": 154,
      "Ú": 155,
      "Û": 156,
      "Ü": 157,
      "Ý": 158,
      "Þ": 159,
      "ß": 160,
      "à": 161,
      "á": 162,
      "â": 163,
      "ã": 164,
      "ä": 165,
      "å": 166,
      "æ": 167,
      "ç": 168,
      "è": 169,
      "é": 170,
      "ê": 171,
      "ë": 172,
      "ì": 173,
      "í": 174,
      "î": 175,
      "ï": 176,
      "ð": 177,
      "ñ": 178,
      "ò": 179,
      "ó": 180,
      "ô": 181,
      "õ": 182,
      "ö": 183,
      "÷": 184,
      "ø": 185,
      "ù": 186,
      "ú": 187,
      "û": 188,
      "ü": 189,
      "ý": 190,
      "þ": 191,
      "ÿ": 192,
      "Ā": 193,
      "ā": 194,
      "Ă": 195,
      "ă": 196,
      "Ą": 197,
      "ą": 198,
      "Ć": 199,
      "ć": 200,
      "Ĉ": 201,
      "ĉ": 202,
      "Ċ": 203,
      "ċ": 204,
      "Č": 205,
      "č": 206,
      "Ď": 207,
      "ď": 208,
      "Đ": 209,
      "đ": 210,
      "Ē": 211,
      "ē": 212,
      "Ĕ": 213,
      "ĕ": 214,
      "Ė": 215,
      "ė": 216,
      "Ę": 217,
      "ę": 218,
      "Ě": 219,
      "ě": 220,
      "Ĝ": 221,
      "ĝ": 222,
      "Ğ": 223,
      "ğ": 224,
      "Ġ": 225,
      "ġ": 226,
      "Ģ": 227,
      "ģ": 228,
      "Ĥ": 229,
      "ĥ": 230,
      "Ħ": 231,
      "ħ": 232,
      "Ĩ": 233,
      "ĩ": 234,
      "Ī": 235,
      "ī": 236,
      "Ĭ": 237,
      "ĭ": 238,
      "Į": 239,
      "į": 240,
      "İ": 241,
      "ı": 242,
      "Ĳ": 243,
      "ĳ": 244,
      "Ĵ": 245,
      "ĵ": 246,
      "Ķ": 247,
      "ķ": 248,
      "ĸ": 249,
      "Ĺ": 250,
      "ĺ": 251,
      "Ļ": 252,
      "ļ": 253,
      "Ľ": 254,
      "ľ": 255,
      "Ŀ": 256,
      "ŀ": 257,
      "Ł": 258,
      "ł": 259,
      "Ń": 260,
      "Ġt": 261,
      "čĊ": 262,
      "Ġa": 263,
      "he": 264,
      "in": 265,
      "Ġw": 266,
      "ou": 267,
      "re": 268,
      "Ġs": 269,
      "ha": 270,
      "on": 271,
      "Ġi": 272,
      "ĠI": 273,
      "Ġb": 274,
      "Ġthe": 275,
      "ll": 276,
      "an": 277,
      "Ġy": 278,
      "Ġm": 279,
      "Ġto": 280,
      "er": 281,
      "or": 282,
      "ing": 283,
      "Ġc": 284,
      "Ġf": 285,
      "Ġyou": 286,
      "nd": 287,
      "Ġd": 288,
      "ar": 289,
      "Ġg": 290,
      "es": 291,
      "Ġp": 292,
      "Ġl": 293,
      "Ġn": 294,
      "en": 295,
      "om": 296,
      "at": 297,
      "is": 298,
      "et": 299,
      "it": 300,
      "ay": 301,
      "ot": 302,
      "ve": 303,
      "Ġit": 304,
      "hat": 305,
      "ow": 306,
      "ed": 307,
      "ic": 308,
      "Ġand": 309,
      "Ġo": 310,
      "Ġha": 311,
      "as": 312,
      "le": 313,
      "'s": 314,
      "Ġh": 315,
      "Ġhe": 316,
      "Ġin": 317,
      "us": 318,
      "ill": 319,
      "ke": 320,
      "Ġbe": 321,
      "oo": 322,
      "Ġis": 323,
      "Ġfor": 324,
      "Ġth": 325,
      "Ġwe": 326,
      "Ġon": 327,
      "ĠT": 328,
      "ut": 329,
      "ac": 330,
      "ĠS": 331,
      "id": 332,
      "'t": 333,
      "ie": 334,
      "..": 335,
      "Ġe": 336,
      "Ġof": 337,
      "Ġme": 338,
      "im": 339,
      "ĠW": 340,
      "ĠH": 341,
      "ld": 342,
      "am": 343,
      "Ġre": 344,
      "gh": 345,
      "Ġthat": 346,
      "ome": 347,
      "ĠA": 348,
      "ly": 349,
      "al": 350,
      "Ġwill": 351,
      "out": 352,
      "Ġdo": 353,
      "Ġ:": 354,
      "ad": 355,
      "Ġk": 356,
      "Ġne": 357,
      "el": 358,
      "Ġst": 359,
      "Ġso": 360,
      "all": 361,
      "Ġhave": 362,
      "os": 363,
      "ĠY": 364,
      "Ġat": 365,
      "Ġu": 366,
      "ĠM": 367,
      "ith": 368,
      "ght": 369,
      "ver": 370,
      "Ġgo": 371,
      "Ġare": 372,
      "ry": 373,
      "ri": 374,
      "Ġwith": 375,
      "Ġan": 376,
      "Ġbut": 377,
      "ould": 378,
      "Ġj": 379,
      "Ġse": 380,
      "Ġcan": 381,
      "ia": 382,
      "Ġnot": 383,
      "ĠčĊ": 384,
      "ust": 385,
      "ir": 386,
      "ro": 387,
      "Ġkn": 388,
      "han": 389,
      "ter": 390,
      "ea": 391,
      "ch": 392,
      "ĠO": 393,
      "Ġli": 394,
      "Ġknow": 395,
      "ent": 396,
      "ĠB": 397,
      "ant": 398,
      "ĠC": 399,
      "'m": 400,
      "ion": 401,
      "Ġwas": 402,
      "Ġmy": 403,
      "Ġab": 404,
      "her": 405,
      "Ġsu": 406,
      "op": 407,
      "ĠN": 408,
      "ĠD": 409,
      "Ġas": 410,
      "ks": 411,
      "ally": 412,
      "Ġdon": 413,
      "il": 414,
      "Ġabout": 415,
      "ul": 416,
      "Ġwhat": 417,
      "art": 418,
      "'ll": 419,
      "ell": 420,
      "ĠJ": 421,
      "ĠL": 422,
      "Ġher": 423,
      "âĢ": 424,
      "ra": 425,
      "Ġsh": 426,
      "ink": 427,
      "ood": 428,
      "Ġwor": 429,
      "na": 430,
      "day": 431,
      "Ġthis": 432,
      "ake": 433,
      "ol": 434,
      "ate": 435,
      "th": 436,
      "Ġfr": 437,
      "ick": 438,
      "...": 439,
      "Ġjust": 440,
      "Ġsome": 441,
      "Ġshe": 442,
      "Ġlike": 443,
      "st": 444,
      "ine": 445,
      "ec": 446,
      "ack": 447,
      "Ġthere": 448,
      "Ġwant": 449,
      "Ġyour": 450,
      "and": 451,
      "Ġal": 452,
      "ess": 453,
      "!!": 454,
      "Ġwh": 455,
      "our": 456,
      "pp": 457,
      "âĢĻ": 458,
      "ore": 459,
      "ĠThe": 460,
      "ĠG": 461,
      "Ġpl": 462,
      "ile": 463,
      "ĠP": 464,
      "ur": 465,
      "Ġget": 466,
      "ab": 467,
      "Ġthink": 468,
      "ight": 469,
      "ice": 470,
      "ob": 471,
      "ind": 472,
      "ime": 473,
      "Mar": 474,
      "Ġsee": 475,
      "Ġup": 476,
      "ce": 477,
      "Ġthey": 478,
      "un": 479,
      "se": 480,
      "Ġ<": 481,
      "Ġgoing": 482,
      "Ġany": 483,
      "ook": 484,
      "ge": 485,
      "Ġtime": 486,
      "ĠIt": 487,
      "Ġdid": 488,
      "one": 489,
      "eah": 490,
      "ðŁ": 491,
      "ast": 492,
      "very": 493,
      "Ġwhe": 494,
      "Ġtoo": 495,
      "Ġneed": 496,
      "ĠHe": 497,
      "are": 498,
      "Ġok": 499,
      "ck": 500,
      "Ġone": 501,
      "ĠYou": 502,
      "ff": 503,
      "Ġno": 504,
      "Ġ:)": 505,
      "ris": 506,
      "est": 507,
      "An": 508,
      "Ġhas": 509,
      "Ġor": 510,
      "Ġall": 511,
      "ĠF": 512,
      "Jo": 513,
      "Ġfrom": 514,
      "Ġpro": 515,
      "Ġgood": 516,
      "Ġout": 517,
      "'re": 518,
      "te": 519,
      "file": 520,
      "uy": 521,
      "other": 522,
      "Ġif": 523,
      "Ġex": 524,
      "ĠR": 525,
      "row": 526,
      "Ġwork": 527,
      "ĠE": 528,
      "nt": 529,
      "hing": 530,
      "Ġhim": 531,
      "Ġcom": 532,
      "ĠWhat": 533,
      "um": 534,
      "ound": 535,
      "ven": 536,
      "Ġreally": 537,
      "Ġhis": 538,
      "ma": 539,
      "Ġ1": 540,
      "ure": 541,
      "ep": 542,
      "Ġnow": 543,
      "ny": 544,
      "Ġwould": 545,
      "Ġthan": 546,
      "Ġwee": 547,
      "Ġus": 548,
      "ays": 549,
      "Ġmeet": 550,
      "li": 551,
      "Ġcome": 552,
      "Ġthem": 553,
      "ace": 554,
      "ain": 555,
      "Ġhow": 556,
      "Ġnew": 557,
      "ation": 558,
      "orrow": 559,
      "ber": 560,
      "reat": 561,
      "ard": 562,
      "ara": 563,
      "Ġgot": 564,
      "ove": 565,
      "Ġcon": 566,
      "be": 567,
      "ive": 568,
      "ear": 569,
      "ee": 570,
      "Ġsure": 571,
      "qu": 572,
      "res": 573,
      "ite": 574,
      "ina": 575,
      "ian": 576,
      "ran": 577,
      "ðŁĺ": 578,
      "Ġv": 579,
      "if": 580,
      "right": 581,
      "Ġ2": 582,
      "Ġthen": 583,
      "ud": 584,
      "Ġshould": 585,
      "Ġwhen": 586,
      "Ġag": 587,
      "ble": 588,
      "alk": 589,
      "ig": 590,
      "Ġfe": 591,
      "ect": 592,
      "ct": 593,
      "Ġtom": 594,
      "Ġsp": 595,
      "xt": 596,
      "omet": 597,
      "ak": 598,
      "Ġyes": 599,
      "hn": 600,
      "Ġr": 601,
      "'ve": 602,
      "Ġaf": 603,
      "ĠK": 604,
      "use": 605,
      "Ġtomorrow": 606,
      "ĠAnd": 607,
      "ong": 608,
      "ost": 609,
      "ĠNo": 610,
      "ame": 611,
      "Ġback": 612,
      "hris": 613,
      "ers": 614,
      "uch": 615,
      "ph": 616,
      "ĠWe": 617,
      "red": 618,
      "Ġsomet": 619,
      "ca": 620,
      "Ġright": 621,
      "Ġhome": 622,
      "em": 623,
      "ort": 624,
      "Ġmuch": 625,
      "Ġar": 626,
      "la": 627,
      "thing": 628,
      "ue": 629,
      "aybe": 630,
      "ool": 631,
      "ne": 632,
      "Ġ;": 633,
      "od": 634,
      "Ġam": 635,
      "ĠShe": 636,
      "Tom": 637,
      "ĠThan": 638,
      "har": 639,
      "Ġdoes": 640,
      "aul": 641,
      "ĠBut": 642,
      "Ġoff": 643,
      "ous": 644,
      "Ġlook": 645,
      "ĠOk": 646,
      "Ġlet": 647,
      "Ġbeen": 648,
      "Ġhad": 649,
      "ait": 650,
      "ĠYes": 651,
      "Ġcould": 652,
      "Ġafter": 653,
      "Ġtake": 654,
      "Ġtoday": 655,
      "ĠYeah": 656,
      "ĠHa": 657,
      "Ġwell": 658,
      "ike": 659,
      "Ġsomething": 660,
      "oto": 661,
      "Ġsa": 662,
      "ough": 663,
      "ady": 664,
      "Ġtalk": 665,
      "Ġevery": 666,
      "Ġmore": 667,
      "ily": 668,
      "ty": 669,
      "Ġhapp": 670,
      "anna": 671,
      "Ġcl": 672,
      "Lu": 673,
      "ĠHow": 674,
      "Ġche": 675,
      "Ġman": 676,
      "Ġpart": 677,
      "end": 678,
      "Ġby": 679,
      "ĠSo": 680,
      "ica": 681,
      "Car": 682,
      "av": 683,
      "ĠThat": 684,
      "orry": 685,
      "ose": 686,
      "ass": 687,
      "Ġgreat": 688,
      "Ġyeah": 689,
      "??": 690,
      "Ġwait": 691,
      "ving": 692,
      "Ġpre": 693,
      "Ġwon": 694,
      "Ġlove": 695,
      "ag": 696,
      "ĠThey": 697,
      "Ġask": 698,
      "ĠOh": 699,
      "Al": 700,
      "Ġbr": 701,
      "Ġnext": 702,
      "John": 703,
      "Ġlast": 704,
      "eter": 705,
      "Ġcall": 706,
      "ist": 707,
      "ning": 708,
      "Ġeven": 709,
      "Ġqu": 710,
      "ought": 711,
      "Ġbet": 712,
      "Ġbuy": 713,
      "Ġstill": 714,
      "ase": 715,
      "Ġmake": 716,
      "my": 717,
      "act": 718,
      "Ġwhy": 719,
      "iend": 720,
      "Ġhel": 721,
      "ĠHi": 722,
      "Ġdidn": 723,
      "Ġvery": 724,
      "Ġhelp": 725,
      "photo": 726,
      "Ġwat": 727,
      "ish": 728,
      "hy": 729,
      "ies": 730,
      "ide": 731,
      "per": 732,
      "uck": 733,
      "cause": 734,
      "Ġwho": 735,
      "Ġch": 736,
      "cy": 737,
      "ary": 738,
      "Ġbecause": 739,
      "iz": 740,
      "Ġid": 741,
      "ope": 742,
      "Ġguy": 743,
      "Ġhere": 744,
      "Ġweek": 745,
      "oin": 746,
      "Em": 747,
      "Paul": 748,
      "Ġthing": 749,
      "Ġ;)": 750,
      "lex": 751,
      "Dan": 752,
      "Ġco": 753,
      "Ġhaha": 754,
      "Ġle": 755,
      "Ġplace": 756,
      "ane": 757,
      "oy": 758,
      "Ġyear": 759,
      "Ġthanks": 760,
      "iss": 761,
      "Ġpe": 762,
      "ĠðŁĺ": 763,
      "Ġtry": 764,
      "Ġtell": 765,
      "Ġ3": 766,
      "ree": 767,
      "Kate": 768,
      "Ġover": 769,
      "Ġx": 770,
      "Sam": 771,
      "Ġwere": 772,
      "ict": 773,
      "Ġother": 774,
      "Ġfeel": 775,
      "own": 776,
      "ople": 777,
      "Ġway": 778,
      "ress": 779,
      "ere": 780,
      "Ġde": 781,
      "lie": 782,
      "Ġsay": 783,
      "Ġday": 784,
      "Ġwants": 785,
      "ting": 786,
      "Ġour": 787,
      "Ġpr": 788,
      "way": 789,
      "get": 790,
      "Ġdoesn": 791,
      "ert": 792,
      "Ġnice": 793,
      "ĠHey": 794,
      "Ġpeople": 795,
      "Ġen": 796,
      "ub": 797,
      "Ġmaybe": 798,
      "ail": 799,
      "arry": 800,
      "Ġte": 801,
      "blem": 802,
      "ways": 803,
      "Ġsorry": 804,
      "ment": 805,
      "And": 806,
      "ich": 807,
      "Ġonly": 808,
      "so": 809,
      "Ġfind": 810,
      "Ġproblem": 811,
      "ĠThanks": 812,
      "Ġton": 813,
      "Ġmin": 814,
      "Ġ5": 815,
      "ĠWell": 816,
      "ity": 817,
      "ip": 818,
      "Ġcoming": 819,
      "Ġbetter": 820,
      "gan": 821,
      "ĠDo": 822,
      "Ġlot": 823,
      "Mart": 824,
      "Ġad": 825,
      "ready": 826,
      "Ġdi": 827,
      "oss": 828,
      "Mary": 829,
      "Chris": 830,
      "Jen": 831,
      "Peter": 832,
      "here": 833,
      "Pat": 834,
      "Ġmean": 835,
      "ap": 836,
      "Ġalready": 837,
      "Ad": 838,
      "au": 839,
      "Ġgu": 840,
      "Ġwhere": 841,
      "Ġsend": 842,
      "Ġagain": 843,
      "att": 844,
      "Alex": 845,
      "Ġrec": 846,
      "Ġparty": 847,
      "Ġtonight": 848,
      "Ġplan": 849,
      "Anna": 850,
      "ater": 851,
      "Ġfriend": 852,
      "lo": 853,
      "Ġstart": 854,
      "Rob": 855,
      "Ġbit": 856,
      "Jack": 857,
      "mm": 858,
      "irst": 859,
      "ames": 860,
      "Ġrem": 861,
      "Ġph": 862,
      "Ġnight": 863,
      "ason": 864,
      "lease": 865,
      "ĠTh": 866,
      "Mike": 867,
      "ach": 868,
      "irl": 869,
      "Ġanything": 870,
      "Ġcomp": 871,
      "ĠU": 872,
      "Fran": 873,
      "ark": 874,
      "Ġalways": 875,
      "Ġbus": 876,
      "Ġwatch": 877,
      "onna": 878,
      "Ġcar": 879,
      "'d": 880,
      "Sara": 881,
      "Ġidea": 882,
      "lly": 883,
      "ather": 884,
      "Ġgive": 885,
      "Ġtr": 886,
      "Ġlong": 887,
      "ĠCan": 888,
      "ĠNot": 889,
      "fore": 890,
      "ise": 891,
      "Jul": 892,
      "ĠSure": 893,
      "Ġ-": 894,
      "age": 895,
      "Ġtheir": 896,
      "ah": 897,
      "Ġcheck": 898,
      "Ġdr": 899,
      "Ġalso": 900,
      "Ġguys": 901,
      "inn": 902,
      "ious": 903,
      "Br": 904,
      "Ġtw": 905,
      "Ġke": 906,
      "Ġhappen": 907,
      "Ġplay": 908,
      "gg": 909,
      "Ġwr": 910,
      "iel": 911,
      "Ġbefore": 912,
      "Ġfun": 913,
      "Ġgr": 914,
      "itt": 915,
      "!!!": 916,
      "isa": 917,
      "ually": 918,
      "Ġfine": 919,
      "Ġcour": 920,
      "Ġoh": 921,
      "ley": 922,
      "che": 923,
      "Ġapp": 924,
      "Ġ10": 925,
      "Jos": 926,
      "Ġlea": 927,
      "Ġstay": 928,
      "Ġim": 929,
      "Ġhour": 930,
      "Ġaround": 931,
      "Ġun": 932,
      "Ġbring": 933,
      "Ġsoon": 934,
      "ric": 935,
      "Ġgirl": 936,
      "Ġtra": 937,
      "sel": 938,
      "ĠV": 939,
      "Ġfirst": 940,
      "Ġ4": 941,
      "Ġthought": 942,
      "ember": 943,
      "ĠAre": 944,
      "Ġchan": 945,
      "Am": 946,
      "Ġyet": 947,
      "Ġexp": 948,
      "able": 949,
      "Ġlate": 950,
      "Mark": 951,
      "oney": 952,
      "Ġfin": 953,
      "Ġcourse": 954,
      "ĠIs": 955,
      "ov": 956,
      "ounds": 957,
      "cc": 958,
      "Ġper": 959,
      "Ann": 960,
      "onica": 961,
      "Ġbad": 962,
      "Ġmeeting": 963,
      "ax": 964,
      "iday": 965,
      "kend": 966,
      "Ġguess": 967,
      "Ġmon": 968,
      "ĠJo": 969,
      "Ġweekend": 970,
      "sh": 971,
      "Ġro": 972,
      "pt": 973,
      "Ġfl": 974,
      "Ġlater": 975,
      "Ste": 976,
      "Jane": 977,
      "Ġact": 978,
      "via": 979,
      "ĠJust": 980,
      "Ġdoing": 981,
      "Ġpick": 982,
      "Oli": 983,
      "Ġlol": 984,
      "Ġ:(": 985,
      "les": 986,
      "Ġjob": 987,
      "ĠChris": 988,
      "der": 989,
      "erry": 990,
      "Ben": 991,
      "Tim": 992,
      "eor": 993,
      "vin": 994,
      "Ġ\"": 995,
      "Ġ7": 996,
      "Ġser": 997,
      "inda": 998,
      "ĠHave": 999,
      "ooks": 1000,
      "Ġminut": 1001,
      "ean": 1002,
      "Ġtri": 1003,
      "Ġhope": 1004,
      "oup": 1005,
      "ount": 1006,
      "Ġstu": 1007,
      "Ġbook": 1008,
      "Jim": 1009,
      "ft": 1010,
      "self": 1011,
      "Matt": 1012,
      "ĠGood": 1013,
      "Char": 1014,
      "Ġdec": 1015,
      "Ġ6": 1016,
      "Ġbl": 1017,
      "Ġplease": 1018,
      "va": 1019,
      "ĠAn": 1020,
      "ĠWhy": 1021,
      "eth": 1022,
      "ĠĊ": 1023,
      "Mic": 1024,
      "Ġnever": 1025,
      "Ġtwo": 1026,
      "Nat": 1027,
      "Ġbest": 1028,
      "Jess": 1029,
      "ond": 1030,
      "ĠðŁ": 1031,
      "Ġvis": 1032,
      "ĠSt": 1033,
      "Ġmonth": 1034,
      "Ġinv": 1035,
      "Ġseen": 1036,
      "ave": 1037,
      "rew": 1038,
      "reg": 1039,
      "fe": 1040,
      "we": 1041,
      "ord": 1042,
      "Ġremember": 1043,
      "Le": 1044,
      "rest": 1045,
      "Ġtold": 1046,
      "Ġdown": 1047,
      "og": 1048,
      "ĠFr": 1049,
      "ĠOK": 1050,
      "Ġcare": 1051,
      "anda": 1052,
      "aking": 1053,
      "avid": 1054,
      "Ġkid": 1055,
      "ade": 1056,
      "Ġjoin": 1057,
      "Ġvisit": 1058,
      "Ġcool": 1059,
      "chool": 1060,
      "iam": 1061,
      "Ġsc": 1062,
      "Ġmight": 1063,
      "ory": 1064,
      "yl": 1065,
      "Ġ8": 1066,
      "Ġdays": 1067,
      "Ġmor": 1068,
      "ably": 1069,
      "Ġclass": 1070,
      "Ġgonna": 1071,
      "Ġdis": 1072,
      "ĠMaybe": 1073,
      "Ġlooking": 1074,
      "ĠAl": 1075,
      "Ġhi": 1076,
      "gif": 1077,
      "ona": 1078,
      "ĠThank": 1079,
      "Ġeverything": 1080,
      "ild": 1081,
      "Adam": 1082,
      "ody": 1083,
      "eb": 1084,
      "Ġread": 1085,
      "lle": 1086,
      "Ġshow": 1087,
      "Ġsame": 1088,
      "Ġschool": 1089,
      "ony": 1090,
      "atur": 1091,
      "Ġwent": 1092,
      "ittle": 1093,
      "mas": 1094,
      "terday": 1095,
      "nder": 1096,
      "Ġwhich": 1097,
      "gether": 1098,
      "Ġhappy": 1099,
      "to": 1100,
      "ictor": 1101,
      "Ġdiff": 1102,
      "ire": 1103,
      "Ġprob": 1104,
      "eorge": 1105,
      "hael": 1106,
      "Ġsaid": 1107,
      "orm": 1108,
      "Ġbir": 1109,
      "ĠDid": 1110,
      "Ġminutes": 1111,
      "ouse": 1112,
      "ets": 1113,
      "ĠDon": 1114,
      "Ġshop": 1115,
      "ng": 1116,
      "Ġold": 1117,
      "Ġinte": 1118,
      "Ġlittle": 1119,
      "hen": 1120,
      "Ġthough": 1121,
      "Ġres": 1122,
      "Ġmorning": 1123,
      "Ġhey": 1124,
      "Ġtogether": 1125,
      "Sarah": 1126,
      "ions": 1127,
      "ĠX": 1128,
      "arent": 1129,
      "aura": 1130,
      "Ġfew": 1131,
      "Ġmiss": 1132,
      "ĠAny": 1133,
      "ĠMar": 1134,
      "oph": 1135,
      "inner": 1136,
      "Ġyesterday": 1137,
      "Ell": 1138,
      "port": 1139,
      "Will": 1140,
      "Ġthings": 1141,
      "The": 1142,
      "Ġ:-": 1143,
      "Ġneeds": 1144,
      "olly": 1145,
      "elly": 1146,
      "Ġeat": 1147,
      "Ġbot": 1148,
      "arb": 1149,
      "ial": 1150,
      "Ġacc": 1151,
      "ĠTom": 1152,
      "Ġwanted": 1153,
      "fect": 1154,
      "Josh": 1155,
      "....": 1156,
      "Ġunder": 1157,
      "Ġsupp": 1158,
      "Ġmoney": 1159,
      "ĠFriday": 1160,
      "ache": 1161,
      "Ġinterest": 1162,
      "Is": 1163,
      "ĠIf": 1164,
      "aturday": 1165,
      "ens": 1166,
      "Ġleft": 1167,
      "00": 1168,
      "Ġbirth": 1169,
      "Ġfree": 1170,
      "ella": 1171,
      "ves": 1172,
      "Ġbig": 1173,
      "Ġwaiting": 1174,
      "?!": 1175,
      "Ġgetting": 1176,
      "Greg": 1177,
      "Ġmom": 1178,
      "Frank": 1179,
      "James": 1180,
      "Ġsm": 1181,
      "Ġkeep": 1182,
      "ren": 1183,
      "Ġits": 1184,
      "ĠThere": 1185,
      "ĠChrist": 1186,
      "ĠMe": 1187,
      "oint": 1188,
      "Ġbro": 1189,
      "nes": 1190,
      "rian": 1191,
      "Jake": 1192,
      "ĠSee": 1193,
      "Ġdone": 1194,
      "Jac": 1195,
      "Ġdinner": 1196,
      "Emma": 1197,
      "ĠNe": 1198,
      "elen": 1199,
      "eff": 1200,
      "urn": 1201,
      "Ġbirthday": 1202,
      "Ġheard": 1203,
      "Ġear": 1204,
      "ĠMy": 1205,
      "Ġquite": 1206,
      "ful": 1207,
      "ĠIn": 1208,
      "Mel": 1209,
      "Kim": 1210,
      "ĠHaha": 1211,
      "any": 1212,
      "Ġthinking": 1213,
      "Ke": 1214,
      "zy": 1215,
      "Ġworking": 1216,
      "Ġmov": 1217,
      "Ġlik": 1218,
      "ward": 1219,
      "omm": 1220,
      "no": 1221,
      "Ġactually": 1222,
      "ms": 1223,
      "actly": 1224,
      "Ġstuff": 1225,
      "by": 1226,
      "leep": 1227,
      "Ġhappened": 1228,
      "Ġhouse": 1229,
      "Ġmany": 1230,
      "up": 1231,
      "Ġend": 1232,
      "got": 1233,
      "Ġsounds": 1234,
      "ier": 1235,
      "rive": 1236,
      "acy": 1237,
      "Ġel": 1238,
      "Ġrest": 1239,
      "Ġprobably": 1240,
      "30": 1241,
      "ora": 1242,
      "ancy": 1243,
      "Monica": 1244,
      "Victor": 1245,
      "Ġtick": 1246,
      "David": 1247,
      "enry": 1248,
      "Ġhaven": 1249,
      "ĠSaturday": 1250,
      "ĠWh": 1251,
      "Carol": 1252,
      "St": 1253,
      "tty": 1254,
      "Ġhar": 1255,
      "Ġnothing": 1256,
      "Alice": 1257,
      "Ġstud": 1258,
      "George": 1259,
      "Ġsha": 1260,
      "ete": 1261,
      "Me": 1262,
      "Ġcont": 1263,
      "Martha": 1264,
      "Ġpay": 1265,
      "âĢ¦": 1266,
      "Emily": 1267,
      "Nick": 1268,
      "Ġaw": 1269,
      "Joe": 1270,
      "Daniel": 1271,
      "Ġfound": 1272,
      "usan": 1273,
      "ult": 1274,
      "Ġbre": 1275,
      "Ġfood": 1276,
      "Laura": 1277,
      "ĠWhere": 1278,
      "Ġleave": 1279,
      "iana": 1280,
      "ĠWhen": 1281,
      "nie": 1282,
      "oe": 1283,
      "Ġfam": 1284,
      "Ġhear": 1285,
      "Ġelse": 1286,
      "Ġfriends": 1287,
      "Ġcat": 1288,
      "Jenny": 1289,
      "oc": 1290,
      "ĠLet": 1291,
      "annah": 1292,
      "Ġbusy": 1293,
      "Ar": 1294,
      "rick": 1295,
      "za": 1296,
      "ĠWill": 1297,
      "Ġsur": 1298,
      "ath": 1299,
      "illy": 1300,
      "Mia": 1301,
      "Harry": 1302,
      "unch": 1303,
      "Ġmay": 1304,
      "Andy": 1305,
      "ĠJohn": 1306,
      "Max": 1307,
      "inks": 1308,
      "Fred": 1309,
      "car": 1310,
      "Ġkind": 1311,
      "air": 1312,
      "imes": 1313,
      "Maria": 1314,
      "Ġoffice": 1315,
      "ĠChristmas": 1316,
      "Ġworry": 1317,
      "aren": 1318,
      "ik": 1319,
      "io": 1320,
      "ude": 1321,
      "Olivia": 1322,
      "Linda": 1323,
      "ated": 1324,
      "Ph": 1325,
      "Ġfuck": 1326,
      "Ġbelie": 1327,
      "Soph": 1328,
      "aw": 1329,
      "Ġsomeone": 1330,
      "Ġhahaha": 1331,
      "Ġpretty": 1332,
      "Ġsuch": 1333,
      "Lucy": 1334,
      "Ġstop": 1335,
      "Bob": 1336,
      "Ġpres": 1337,
      "Ġop": 1338,
      "Ġforgot": 1339,
      "Ġphone": 1340,
      "ject": 1341,
      "andy": 1342,
      "Lisa": 1343,
      "Ġbab": 1344,
      "Ġbought": 1345,
      "arents": 1346,
      "Ġpm": 1347,
      "andra": 1348,
      "son": 1349,
      "Ġhaving": 1350,
      "Ġthank": 1351,
      "Ġwanna": 1352,
      "Ġanother": 1353,
      "ding": 1354,
      "Ġlooks": 1355,
      "Ġevening": 1356,
      "ince": 1357,
      "ĠLO": 1358,
      "ĠGreat": 1359,
      "Ġokay": 1360,
      "Helen": 1361,
      "aa": 1362,
      "Ġmind": 1363,
      "Ġ(": 1364,
      "ĠSu": 1365,
      "maz": 1366,
      "line": 1367,
      "Luke": 1368,
      "ix": 1369,
      "umber": 1370,
      "Ġhat": 1371,
      "Ġ:/": 1372,
      "Robert": 1373,
      "Ġdiffere": 1374,
      "ta": 1375,
      "Ġyears": 1376,
      "pe": 1377,
      "Ġparents": 1378,
      "Ġ20": 1379,
      "Ġinto": 1380,
      "ien": 1381,
      "ping": 1382,
      "ela": 1383,
      "vers": 1384,
      "achel": 1385,
      "Henry": 1386,
      "ign": 1387,
      "Ġsleep": 1388,
      "Julia": 1389,
      "Michael": 1390,
      "dy": 1391,
      "ible": 1392,
      "rey": 1393,
      "Ġrecomm": 1394,
      "Ġmost": 1395,
      "Ġrecommend": 1396,
      "Ġaway": 1397,
      "Ġexc": 1398,
      "joy": 1399,
      "!!!!": 1400,
      "ance": 1401,
      "ute": 1402,
      "Ġroom": 1403,
      "Ġmade": 1404,
      "Ġsec": 1405,
      "Ġdont": 1406,
      "Jeff": 1407,
      "ĠHell": 1408,
      "Ġago": 1409,
      "ĠSh": 1410,
      "akes": 1411,
      "Ġuse": 1412,
      "Ġhard": 1413,
      "ched": 1414,
      "fr": 1415,
      "Ġput": 1416,
      "Ġdrink": 1417,
      "Jacob": 1418,
      "Ġsaw": 1419,
      "Ġperfect": 1420,
      "ger": 1421,
      "Ġtrip": 1422,
      "pm": 1423,
      "Ġlife": 1424,
      "ations": 1425,
      "Ġlist": 1426,
      "ĠBr": 1427,
      "Ġboth": 1428,
      "Ġsent": 1429,
      "Sue": 1430,
      "ating": 1431,
      "Ġdel": 1432,
      "Steve": 1433,
      "ited": 1434,
      "Ab": 1435,
      "ug": 1436,
      "Ġluck": 1437,
      "ĠThis": 1438,
      "Ġcook": 1439,
      "osed": 1440,
      "Ġbelieve": 1441,
      "Gr": 1442,
      "Susan": 1443,
      "Ang": 1444,
      "Ġtrain": 1445,
      "Ġunderst": 1446,
      "ues": 1447,
      "Ġthose": 1448,
      "Kelly": 1449,
      "ried": 1450,
      "Ġprep": 1451,
      "Ġenough": 1452,
      "ĠLOL": 1453,
      "Ġnumber": 1454,
      "Ġconf": 1455,
      "ney": 1456,
      "Ġgame": 1457,
      "Ġtext": 1458,
      "iv": 1459,
      "ĠSorry": 1460,
      "enny": 1461,
      "Ġeas": 1462,
      "Ġkids": 1463,
      "Ġgl": 1464,
      "Ġeach": 1465,
      "Ġserious": 1466,
      "Ġmust": 1467,
      "Ġready": 1468,
      "icture": 1469,
      "Ġmovie": 1470,
      "Ġfamily": 1471,
      "ither": 1472,
      "erson": 1473,
      "Jan": 1474,
      "ĠOkay": 1475,
      "Ġmess": 1476,
      "ĠLu": 1477,
      "Ġthese": 1478,
      "ĠHello": 1479,
      "Luc": 1480,
      "ib": 1481,
      "Ġpass": 1482,
      "ĠCar": 1483,
      "Ġleast": 1484,
      "ever": 1485,
      "Ġwhile": 1486,
      "Ġdisc": 1487,
      "Ġswe": 1488,
      "mazing": 1489,
      "ky": 1490,
      "Andrew": 1491,
      "Ġhours": 1492,
      "Ġ9": 1493,
      "Ġdress": 1494,
      "Hannah": 1495,
      "hes": 1496,
      "Ġtickets": 1497,
      "Amy": 1498,
      "Barb": 1499,
      "etty": 1500,
      "ents": 1501,
      "Ġexam": 1502,
      "Ġmum": 1503,
      "Gab": 1504,
      "Ġpost": 1505,
      "ĠxD": 1506,
      "ĠXD": 1507,
      "El": 1508,
      "Ġfar": 1509,
      "ison": 1510,
      "uss": 1511,
      "Ed": 1512,
      "side": 1513,
      "Ġcompl": 1514,
      "Ġunderstand": 1515,
      "Ġsick": 1516,
      "Cl": 1517,
      "Ġdad": 1518,
      "ena": 1519,
      "ics": 1520,
      "Ġ:*": 1521,
      "ffee": 1522,
      "Ġeveryone": 1523,
      "Ġdifferent": 1524,
      "Ġmove": 1525,
      "ĠMon": 1526,
      "ole": 1527,
      "rie": 1528,
      "where": 1529,
      "Ġinst": 1530,
      "Ġshit": 1531,
      "Ġadv": 1532,
      "ired": 1533,
      "Karen": 1534,
      "ton": 1535,
      "Ġlunch": 1536,
      "Ġexactly": 1537,
      "ĠRe": 1538,
      "Ġthr": 1539,
      "Ġchange": 1540,
      "Ġcr": 1541,
      "die": 1542,
      "Ġcle": 1543,
      "omas": 1544,
      "ash": 1545,
      "ause": 1546,
      "Ġanyway": 1547,
      "Cla": 1548,
      "ork": 1549,
      "Ash": 1550,
      "ideo": 1551,
      "br": 1552,
      "Ġinf": 1553,
      "Ġwatching": 1554,
      "Ġenjoy": 1555,
      "ricia": 1556,
      "Ġweeks": 1557,
      "Ġmat": 1558,
      "Ġdes": 1559,
      "Kevin": 1560,
      "Ġinter": 1561,
      "uth": 1562,
      "ola": 1563,
      "friend": 1564,
      "ons": 1565,
      "Ġboy": 1566,
      "Ġbeing": 1567,
      "Ġtrue": 1568,
      "scar": 1569,
      "Kat": 1570,
      "Ġdate": 1571,
      "Zoe": 1572,
      "ift": 1573,
      "Ġquest": 1574,
      "aur": 1575,
      "Ġcoffee": 1576,
      "Martin": 1577,
      "Eli": 1578,
      "No": 1579,
      "Jessica": 1580,
      "Ag": 1581,
      "nce": 1582,
      "old": 1583,
      "ual": 1584,
      "Ġhot": 1585,
      "ird": 1586,
      "ling": 1587,
      "Ġless": 1588,
      "bs": 1589,
      "hh": 1590,
      "Ġamazing": 1591,
      "elia": 1592,
      "ank": 1593,
      "mail": 1594,
      "lor": 1595,
      "Ġperson": 1596,
      "Ġ15": 1597,
      "ggest": 1598,
      "Ġown": 1599,
      "ars": 1600,
      "Ġsuggest": 1601,
      "Ian": 1602,
      "Ġpicture": 1603,
      "Jason": 1604,
      "iona": 1605,
      "Ġwhole": 1606,
      "Amanda": 1607,
      "Ġname": 1608,
      "ition": 1609,
      "Ġplans": 1610,
      "fin": 1611,
      "Ġap": 1612,
      "Ġcra": 1613,
      "oooo": 1614,
      "Ġsis": 1615,
      "Ġxx": 1616,
      "Ġshopping": 1617,
      "ical": 1618,
      "Bill": 1619,
      "Rachel": 1620,
      "ette": 1621,
      "icky": 1622,
      "Ġtalking": 1623,
      "wn": 1624,
      "esome": 1625,
      "Nancy": 1626,
      "ret": 1627,
      "Ġbreak": 1628,
      "me": 1629,
      "Tina": 1630,
      "Th": 1631,
      "Ġisn": 1632,
      "fer": 1633,
      "Ġadd": 1634,
      "ĠSp": 1635,
      "Ġused": 1636,
      "Ġconc": 1637,
      "Ġproject": 1638,
      "Eva": 1639,
      "hlo": 1640,
      "most": 1641,
      "oot": 1642,
      "ila": 1643,
      "pris": 1644,
      "Ġcoup": 1645,
      "Ġseems": 1646,
      "May": 1647,
      "Ġreal": 1648,
      "Ġtook": 1649,
      "mer": 1650,
      "Ġmet": 1651,
      "Ġhead": 1652,
      "Anne": 1653,
      "izza": 1654,
      "hed": 1655,
      "Ġgroup": 1656,
      "Liz": 1657,
      "Sim": 1658,
      "ery": 1659,
      "Ġrun": 1660,
      "Ġcalled": 1661,
      "hloe": 1662,
      "Ġsth": 1663,
      "Ġorder": 1664,
      "Jay": 1665,
      "yle": 1666,
      "Ġdep": 1667,
      "Har": 1668,
      "Ġsit": 1669,
      "Ġsince": 1670,
      "ntil": 1671,
      "othy": 1672,
      "ries": 1673,
      "Tony": 1674,
      "Ġnews": 1675,
      "Ġprom": 1676,
      "Ġ:-)": 1677,
      "Eve": 1678,
      "ale": 1679,
      "ox": 1680,
      "Dave": 1681,
      "Ġhol": 1682,
      "Ġonce": 1683,
      "ĠDan": 1684,
      "enn": 1685,
      "Ġwalk": 1686,
      "Ġpoint": 1687,
      "ĠTr": 1688,
      "Ġra": 1689,
      "nday": 1690,
      "Ġpa": 1691,
      "Ġav": 1692,
      "ĠSam": 1693,
      "Ġspend": 1694,
      "Patrick": 1695,
      "Sophie": 1696,
      "Ġopen": 1697,
      "Ġable": 1698,
      "body": 1699,
      "lf": 1700,
      "Ġever": 1701,
      "Ġasked": 1702,
      "Ġmar": 1703,
      "ensive": 1704,
      "Phil": 1705,
      "Ġpresent": 1706,
      "Diana": 1707,
      "Ġass": 1708,
      "ten": 1709,
      "Ġcount": 1710,
      "eph": 1711,
      "Ġthrough": 1712,
      "Ġset": 1713,
      "Ġdog": 1714,
      "Paula": 1715,
      "Ġsurpris": 1716,
      "rs": 1717,
      "Ġhell": 1718,
      "???": 1719,
      "Ġhate": 1720,
      "Ġsw": 1721,
      "lyn": 1722,
      "Ġuntil": 1723,
      "Ġtrying": 1724,
      "Ġtest": 1725,
      "Ġwear": 1726,
      "itely": 1727,
      "Ġwasn": 1728,
      "Ġhand": 1729,
      "Ġwithout": 1730,
      "Gina": 1731,
      "ita": 1732,
      "ĠOf": 1733,
      "Ġfeeling": 1734,
      "Ġmonths": 1735,
      "Ġcouple": 1736,
      "than": 1737,
      "urs": 1738,
      "finitely": 1739,
      "aut": 1740,
      "co": 1741,
      "ull": 1742,
      "Ġalmost": 1743,
      "ĠFran": 1744,
      "ĠEm": 1745,
      "Ġwonder": 1746,
      "Victoria": 1747,
      "Ġprepare": 1748,
      "Sally": 1749,
      "vie": 1750,
      "ye": 1751,
      "Mag": 1752,
      "uel": 1753,
      "vel": 1754,
      "oll": 1755,
      "Ġfav": 1756,
      "Lucas": 1757,
      "de": 1758,
      "ana": 1759,
      "Ġcons": 1760,
      "Patricia": 1761,
      "ok": 1762,
      "Ġter": 1763,
      "Ġspec": 1764,
      "ctor": 1765,
      "Rose": 1766,
      "Ġtaking": 1767,
      "hew": 1768,
      "ĠPaul": 1769,
      "ces": 1770,
      "Ġbed": 1771,
      "Ġlikes": 1772,
      "Ġworks": 1773,
      "Ġanyone": 1774,
      "Ġsupposed": 1775,
      "pl": 1776,
      "Ġflight": 1777,
      "Dor": 1778,
      "Oscar": 1779,
      "gie": 1780,
      "Ġturn": 1781,
      "Ġbeaut": 1782,
      "man": 1783,
      "not": 1784,
      "Ġpizza": 1785,
      "iting": 1786,
      "helle": 1787,
      "Ġexpensive": 1788,
      "Ġwrong": 1789,
      "Tr": 1790,
      "Ġsk": 1791,
      "ĠCool": 1792,
      "Mom": 1793,
      "ott": 1794,
      "Ġimp": 1795,
      "ĠSunday": 1796,
      "ream": 1797,
      "ĠMike": 1798,
      "Ġagree": 1799,
      "Christ": 1800,
      "rat": 1801,
      "Ġwish": 1802,
      "Ġthinks": 1803,
      "Ġgirls": 1804,
      "Liam": 1805,
      "ock": 1806,
      "Ġsays": 1807,
      "Ġorgan": 1808,
      "Ġbaby": 1809,
      "Ġlive": 1810,
      "Terry": 1811,
      "Ġfunny": 1812,
      "Natal": 1813,
      "Isab": 1814,
      "Ġpol": 1815,
      "rible": 1816,
      "Noah": 1817,
      "ĠJack": 1818,
      "Ġcity": 1819,
      "ĠPeter": 1820,
      "Ġwrite": 1821,
      "Sandra": 1822,
      "more": 1823,
      "wen": 1824,
      "yn": 1825,
      "Ġposs": 1826,
      "Joan": 1827,
      "Ġsweet": 1828,
      "ĠMonday": 1829,
      "Lou": 1830,
      "yan": 1831,
      "Ġwine": 1832,
      "ang": 1833,
      "uring": 1834,
      "Ġstarted": 1835,
      "igh": 1836,
      "ifer": 1837,
      "Ġleaving": 1838,
      "Leo": 1839,
      "Ġinteresting": 1840,
      "Ġred": 1841,
      "Brian": 1842,
      "Ġsister": 1843,
      "ps": 1844,
      "iley": 1845,
      "une": 1846,
      "rans": 1847,
      "Fiona": 1848,
      "ene": 1849,
      "Ġ30": 1850,
      "key": 1851,
      "Ġsuper": 1852,
      "den": 1853,
      "Ġur": 1854,
      "ustin": 1855,
      "artment": 1856,
      "hard": 1857,
      "Ġchild": 1858,
      "Thomas": 1859,
      "Betty": 1860,
      "Ġwed": 1861,
      "Ġchar": 1862,
      "ĠMary": 1863,
      "come": 1864,
      "cept": 1865,
      "Charlie": 1866,
      "onald": 1867,
      "ĠAs": 1868,
      "Ġ12": 1869,
      "Ġarrive": 1870,
      "Ġplanning": 1871,
      "Ġfinis": 1872,
      "Ġbeer": 1873,
      "raid": 1874,
      "Ġexpect": 1875,
      "Ġreg": 1876,
      "Ġmyself": 1877,
      "Jon": 1878,
      "Ġtown": 1879,
      "antha": 1880,
      "cks": 1881,
      "Ġmus": 1882,
      "Ġhalf": 1883,
      "ĠAll": 1884,
      "ais": 1885,
      "Ġtired": 1886,
      "Ġgift": 1887,
      "Eric": 1888,
      "uct": 1889,
      "ĠKate": 1890,
      "Rick": 1891,
      "ont": 1892,
      "Ġlost": 1893,
      "indy": 1894,
      "Grace": 1895,
      "Ġstudy": 1896,
      "gry": 1897,
      "Dar": 1898,
      "lot": 1899,
      "Ġya": 1900,
      "ĠEx": 1901,
      "Ġdeal": 1902,
      "Ġcame": 1903,
      "ĠLike": 1904,
      "Ġanymore": 1905,
      "Mad": 1906,
      "Ron": 1907,
      "lin": 1908,
      "Ġcannot": 1909,
      "Ġchang": 1910,
      "Ashley": 1911,
      "Re": 1912,
      "Ġhor": 1913,
      "ĠRob": 1914,
      "uz": 1915,
      "Ġcase": 1916,
      "Ġwouldn": 1917,
      "Ġplaying": 1918,
      "ĠNew": 1919,
      "Ġem": 1920,
      "aret": 1921,
      "Ġafraid": 1922,
      "Ġearly": 1923,
      "Con": 1924,
      "ize": 1925,
      "Chloe": 1926,
      "eak": 1927,
      "iful": 1928,
      "Ġphoto": 1929,
      "Ġdecid": 1930,
      "Cam": 1931,
      "ai": 1932,
      "Ġtrans": 1933,
      "haha": 1934,
      "Ġduring": 1935,
      "Ġinterested": 1936,
      "vent": 1937,
      "Ġwin": 1938,
      "Ric": 1939,
      "ew": 1940,
      "issa": 1941,
      "Ġwedding": 1942,
      "Ġawesome": 1943,
      "aurant": 1944,
      "Ġcouldn": 1945,
      "ĠSte": 1946,
      "Ġemail": 1947,
      "Ġclean": 1948,
      "-)": 1949,
      "Nina": 1950,
      "Ġcost": 1951,
      "ates": 1952,
      "Joseph": 1953,
      "Ġtimes": 1954,
      "Ġonline": 1955,
      "ĠOn": 1956,
      "Jenn": 1957,
      "Ġwar": 1958,
      "Ġtried": 1959,
      "Simon": 1960,
      "ident": 1961,
      "Agnes": 1962,
      "Ġhon": 1963,
      "ĠMart": 1964,
      "Charles": 1965,
      "abeth": 1966,
      "Ġafterno": 1967,
      "Alan": 1968,
      "Ġcold": 1969,
      "ails": 1970,
      "Ġcompany": 1971,
      "William": 1972,
      "urt": 1973,
      "Ġasking": 1974,
      "Ġeasy": 1975,
      "Ġ?": 1976,
      "Ġdri": 1977,
      "ĠSounds": 1978,
      "ĠMark": 1979,
      "Kar": 1980,
      "ead": 1981,
      "Ġtot": 1982,
      "Brad": 1983,
      "Lily": 1984,
      "ently": 1985,
      "ĠPat": 1986,
      "Ġrestaurant": 1987,
      "aisy": 1988,
      "ogan": 1989,
      "Ġdrive": 1990,
      "ote": 1991,
      "Ġdoctor": 1992,
      "igail": 1993,
      "ital": 1994,
      "Ġdefinitely": 1995,
      "Megan": 1996,
      "Barbara": 1997,
      "oor": 1998,
      "orn": 1999,
      "Ġpub": 2000,
      "osp": 2001,
      "Ġafternoon": 2002,
      "az": 2003,
      "Ġmother": 2004,
      "ider": 2005,
      "Ted": 2006,
      "Ġsong": 2007,
      "oose": 2008,
      "van": 2009,
      "Ġbeautiful": 2010,
      "Claire": 2011,
      "ursday": 2012,
      "ins": 2013,
      "Ġwow": 2014,
      "Ġmed": 2015,
      "Ġgi": 2016,
      "ĠWow": 2017,
      "Marg": 2018,
      "Ġclasses": 2019,
      "Ġbroke": 2020,
      "fort": 2021,
      "Ġsmall": 2022,
      "ĠWho": 2023,
      "Ġconcert": 2024,
      "Ġyourself": 2025,
      "ĠPlease": 2026,
      "ĠFor": 2027,
      "Ġforget": 2028,
      "ump": 2029,
      "Wend": 2030,
      "land": 2031,
      "Ġsn": 2032,
      "Caroline": 2033,
      "Pam": 2034,
      "Ġair": 2035,
      "Carl": 2036,
      "oke": 2037,
      "rend": 2038,
      "ĠAd": 2039,
      "osh": 2040,
      "ĠMay": 2041,
      "Ġliked": 2042,
      "Meg": 2043,
      "He": 2044,
      "ple": 2045,
      "vor": 2046,
      "Ġbas": 2047,
      "Ġhair": 2048,
      "ĠBe": 2049,
      "Ġbrother": 2050,
      "Ġcontact": 2051,
      "ĠReally": 2052,
      "Ġent": 2053,
      "Ġboss": 2054,
      "Ġmaking": 2055,
      "Ġfil": 2056,
      "Ġfinish": 2057,
      "Ġlisten": 2058,
      "oice": 2059,
      "Ġmine": 2060,
      "Ġlear": 2061,
      "rop": 2062,
      "ĠOM": 2063,
      "ĠCh": 2064,
      "Ġkey": 2065,
      "Ġimport": 2066,
      "Ġsecond": 2067,
      "Er": 2068,
      "Ġteac": 2069,
      "Ġ...": 2070,
      "Ġbu": 2071,
      "Ġpain": 2072,
      "ĠNow": 2073,
      "Ġalone": 2074,
      "ym": 2075,
      "Ġac": 2076,
      "Ġsl": 2077,
      "ese": 2078,
      "ailable": 2079,
      "Ġcrazy": 2080,
      "Mat": 2081,
      "Sean": 2082,
      "iness": 2083,
      "Ġhigh": 2084,
      "Stan": 2085,
      "ĠOMG": 2086,
      "ĠOr": 2087,
      "ĠCould": 2088,
      "Pete": 2089,
      "Ġtill": 2090,
      "Ġquestion": 2091,
      "Ġimportant": 2092,
      "med": 2093,
      "sw": 2094,
      "ĠWed": 2095,
      "Wendy": 2096,
      "Ġcha": 2097,
      "Ġdet": 2098,
      "inema": 2099,
      "Ġweather": 2100,
      "rab": 2101,
      "Samantha": 2102,
      "Ġfinally": 2103,
      "Ryan": 2104,
      "ĠAt": 2105,
      "als": 2106,
      "Ġret": 2107,
      "Ġatt": 2108,
      "Ġann": 2109,
      "ately": 2110,
      "rist": 2111,
      "Ġflat": 2112,
      "Ġinform": 2113,
      "Donna": 2114,
      "Jerry": 2115,
      "Nic": 2116,
      "ced": 2117,
      "ĠAlex": 2118,
      "olog": 2119,
      "ored": 2120,
      "Ġteam": 2121,
      "ci": 2122,
      "aron": 2123,
      "Ġeither": 2124,
      "amie": 2125,
      "Ġext": 2126,
      "Ġcoll": 2127,
      "Abigail": 2128,
      "Natalie": 2129,
      "lotte": 2130,
      "range": 2131,
      "oes": 2132,
      "Ġve": 2133,
      "reen": 2134,
      "ved": 2135,
      "ĠYep": 2136,
      "Ġhasn": 2137,
      "ĠðŁĺĤ": 2138,
      "Amelia": 2139,
      "ele": 2140,
      "Ġborrow": 2141,
      "ors": 2142,
      "ett": 2143,
      "its": 2144,
      "Ġins": 2145,
      "ĠSara": 2146,
      "ular": 2147,
      "ĠJul": 2148,
      "nesday": 2149,
      "Jill": 2150,
      "Ġcard": 2151,
      "resa": 2152,
      "Julie": 2153,
      "Maya": 2154,
      "Ġavailable": 2155,
      "Jennifer": 2156,
      "Ġ'": 2157,
      "ĠAm": 2158,
      "Ġoutside": 2159,
      "Tracy": 2160,
      "Ġdecided": 2161,
      "Ġsumm": 2162,
      "unk": 2163,
      "Ġglad": 2164,
      "Ava": 2165,
      "ouch": 2166,
      "Ġmate": 2167,
      "ern": 2168,
      "Ġones": 2169,
      "Ruth": 2170,
      "uri": 2171,
      "Ġdiscuss": 2172,
      "Ġsim": 2173,
      "Ġgave": 2174,
      "ence": 2175,
      "ĠBen": 2176,
      "Ġsub": 2177,
      "Ġworries": 2178,
      "ĠGr": 2179,
      "Ġspecial": 2180,
      "Ethan": 2181,
      "ans": 2182,
      "Ġsomewhere": 2183,
      "Ġmoment": 2184,
      "view": 2185,
      "Ġmusic": 2186,
      "gn": 2187,
      "pid": 2188,
      "oring": 2189,
      "Ġcol": 2190,
      "Ġdear": 2191,
      "Ġhu": 2192,
      "ention": 2193,
      "Ġproblems": 2194,
      "work": 2195,
      "reet": 2196,
      "Ver": 2197,
      "ings": 2198,
      "Ġcinema": 2199,
      "ooo": 2200,
      "tend": 2201,
      "Ġtalked": 2202,
      "ĠThursday": 2203,
      "ĠAnna": 2204,
      "Nathan": 2205,
      "Ġpossible": 2206,
      "cel": 2207,
      "min": 2208,
      "leas": 2209,
      "Ġnear": 2210,
      "Ġseason": 2211,
      "mag": 2212,
      "Oliver": 2213,
      "eas": 2214,
      "Ġopt": 2215,
      "amn": 2216,
      "Michelle": 2217,
      "Ġthats": 2218,
      "Dorothy": 2219,
      "Don": 2220,
      "ayla": 2221,
      "ĠKe": 2222,
      "Ġstupid": 2223,
      "HA": 2224,
      "lish": 2225,
      "Ġrep": 2226,
      "Ġfront": 2227,
      "uesday": 2228,
      "Ġpack": 2229,
      "ared": 2230,
      "ife": 2231,
      "Ġlovely": 2232,
      "ĠWednesday": 2233,
      "Logan": 2234,
      "ially": 2235,
      "yd": 2236,
      "Ġansw": 2237,
      "ĠBl": 2238,
      "elle": 2239,
      "ðŁĺĤ": 2240,
      "Ġhotel": 2241,
      "ĠHope": 2242,
      "ĠMic": 2243,
      "ĠEng": 2244,
      "vious": 2245,
      "ĠIm": 2246,
      "Ġoffer": 2247,
      "Ġprefer": 2248,
      "ages": 2249,
      "aure": 2250,
      "Ġcute": 2251,
      "Ġinc": 2252,
      "ush": 2253,
      "Ġworld": 2254,
      "Ġart": 2255,
      "ĠAr": 2256,
      "Ella": 2257,
      "ience": 2258,
      "Margaret": 2259,
      "Beth": 2260,
      "ka": 2261,
      "ming": 2262,
      "Ġwom": 2263,
      "Ġuni": 2264,
      "Ġinstead": 2265,
      "Lilly": 2266,
      "Ġbooks": 2267,
      "ense": 2268,
      "Ġknows": 2269,
      "bert": 2270,
      "Ġphot": 2271,
      "Ġgrand": 2272,
      "uce": 2273,
      "Ġpop": 2274,
      "Ġpark": 2275,
      "Ġstation": 2276,
      "ĠThen": 2277,
      "Richard": 2278,
      "Kyle": 2279,
      "ĠTo": 2280,
      "ira": 2281,
      "uby": 2282,
      "Andre": 2283,
      "Angela": 2284,
      "Maggie": 2285,
      "Jud": 2286,
      "Ġbo": 2287,
      "ĠHmm": 2288,
      "ĠPol": 2289,
      "Ġ11": 2290,
      "ĠShould": 2291,
      "ised": 2292,
      "Ġagre": 2293,
      "Ġclose": 2294,
      "ĠWhich": 2295,
      "Ġsing": 2296,
      "Ġmakes": 2297,
      "Ġkill": 2298,
      "ecky": 2299,
      "yler": 2300,
      "Ġcause": 2301,
      "ĠTuesday": 2302,
      "Ġrather": 2303,
      "eremy": 2304,
      "Ġstand": 2305,
      "ĠPer": 2306,
      "Ġspeak": 2307,
      "Ġrecently": 2308,
      "Ġphotos": 2309,
      "asha": 2310,
      "ĠWould": 2311,
      "ters": 2312,
      "lier": 2313,
      "Ġvideo": 2314,
      "Ġaccount": 2315,
      "Ġapartment": 2316,
      "Molly": 2317,
      "Ġstr": 2318,
      "ĠBye": 2319,
      "Ġgets": 2320,
      "ĠEvery": 2321,
      "ode": 2322,
      "Ġchoose": 2323,
      "Ġfinished": 2324,
      "Ġill": 2325,
      "Ġdude": 2326,
      "uu": 2327,
      "llie": 2328,
      "aylor": 2329,
      "Marie": 2330,
      "Ġwater": 2331,
      "Ġdead": 2332,
      "aught": 2333,
      "ĠZ": 2334,
      "Ġmid": 2335,
      "ically": 2336,
      "Ġcheap": 2337,
      "Ġtotally": 2338,
      "Ġsummer": 2339,
      "ga": 2340,
      "Ġsort": 2341,
      "go": 2342,
      "Ġsal": 2343,
      "Ġimag": 2344,
      "Ġgames": 2345,
      "icult": 2346,
      "Ġreason": 2347,
      "Ġbuying": 2348,
      "ww": 2349,
      "Ġmo": 2350,
      "Ġweird": 2351,
      "Ġworried": 2352,
      "Ġxd": 2353,
      "Ros": 2354,
      "Suz": 2355,
      "Ġexpl": 2356,
      "ĠðŁĻ": 2357,
      "Ġteacher": 2358,
      "Daisy": 2359,
      "Larry": 2360,
      "cis": 2361,
      "ices": 2362,
      "Ġhun": 2363,
      "Jackie": 2364,
      "Ġhonest": 2365,
      "ied": 2366,
      "Ġâ": 2367,
      "Ġbar": 2368,
      "athan": 2369,
      "Charlotte": 2370,
      "Ġinvited": 2371,
      "Ġdetails": 2372,
      "DD": 2373,
      "lling": 2374,
      "Ġshort": 2375,
      "inds": 2376,
      "Caron": 2377,
      "Ġideas": 2378,
      "ressed": 2379,
      "Jimmy": 2380,
      "renda": 2381,
      "fu": 2382,
      "rect": 2383,
      "erv": 2384,
      "Ġhosp": 2385,
      "Ġexper": 2386,
      "Ġcomm": 2387,
      "Ġblack": 2388,
      "Ġearlier": 2389,
      "Ġfix": 2390,
      "room": 2391,
      "Ġsaying": 2392,
      "She": 2393,
      "gr": 2394,
      "Ġdifficult": 2395,
      "Ġstore": 2396,
      "Ġalright": 2397,
      "Ġgotta": 2398,
      "Ġlonger": 2399,
      "ylan": 2400,
      "ighb": 2401,
      "book": 2402,
      "amp": 2403,
      "Ġdrunk": 2404,
      "Ġcatch": 2405,
      "Ġwel": 2406,
      "Ġrequ": 2407,
      "ĠJan": 2408,
      "ĠLook": 2409,
      "Ġclub": 2410,
      "Ġpictures": 2411,
      "int": 2412,
      "Ġgym": 2413,
      "Ġmanag": 2414,
      "less": 2415,
      "Ġneighb": 2416,
      "Marc": 2417,
      "apt": 2418,
      "irt": 2419,
      "ĠRight": 2420,
      "Ġwatched": 2421,
      "atherine": 2422,
      "Ellie": 2423,
      "iot": 2424,
      "ĠChar": 2425,
      "Joanna": 2426,
      "ĠðŁ¤": 2427,
      "net": 2428,
      "revor": 2429,
      "Ġgen": 2430,
      "omin": 2431,
      "Ġbusiness": 2432,
      "Ġhospital": 2433,
      "Aaron": 2434,
      "Ken": 2435,
      "iff": 2436,
      "itche": 2437,
      "Ġclot": 2438,
      "ween": 2439,
      "Jas": 2440,
      "Ġet": 2441,
      "anc": 2442,
      "Ġhoney": 2443,
      "ĠUn": 2444,
      "Ġresp": 2445,
      "Ġsuggests": 2446,
      "Ġfavour": 2447,
      "ĠNice": 2448,
      "ĠPro": 2449,
      "Patty": 2450,
      "ondon": 2451,
      "ĠEnglish": 2452,
      "video": 2453,
      "Ġhang": 2454,
      "Ġrece": 2455,
      "ĠExactly": 2456,
      "Ġanswer": 2457,
      "ner": 2458,
      "Ġsad": 2459,
      "Ġtop": 2460,
      "Ġfact": 2461,
      "itch": 2462,
      "Ġgoes": 2463,
      "Ġboyfriend": 2464,
      "Jeremy": 2465,
      "Ġes": 2466,
      "ĠOli": 2467,
      "Ġsafe": 2468,
      "ebec": 2469,
      "Ġexcited": 2470,
      "Jean": 2471,
      "mber": 2472,
      "uro": 2473,
      "ĠLe": 2474,
      "ĠLondon": 2475,
      "oby": 2476,
      "astic": 2477,
      "Ġprof": 2478,
      "Ġcele": 2479,
      "erek": 2480,
      "Ġlau": 2481,
      "Ruby": 2482,
      "cott": 2483,
      "ori": 2484,
      "Ġpast": 2485,
      "Ġthree": 2486,
      "ĠMatt": 2487,
      "udrey": 2488,
      "airs": 2489,
      "Ġholiday": 2490,
      "Ġlearn": 2491,
      "Ġwelcome": 2492,
      "iet": 2493,
      "Ġmain": 2494,
      "ĠTim": 2495,
      "iles": 2496,
      "ĠJim": 2497,
      "Ġcomes": 2498,
      "lix": 2499,
      "Ġsometimes": 2500,
      "Ġstaying": 2501,
      "Ġgirlfriend": 2502,
      "Ġmissed": 2503,
      "ika": 2504,
      "Ġangry": 2505,
      "pec": 2506,
      "ss": 2507,
      "ĠQ": 2508,
      "Ġthx": 2509,
      "ĠWanna": 2510,
      "alph": 2511,
      "ĠChe": 2512,
      "ĠLove": 2513,
      "erence": 2514,
      "Ġdecide": 2515,
      "Bart": 2516,
      "Jamie": 2517,
      "Ġhmm": 2518,
      "Ġchance": 2519,
      "Annie": 2520,
      "Ġseries": 2521,
      "Ġchildren": 2522,
      "Dam": 2523,
      "Gary": 2524,
      "onia": 2525,
      "Ġfly": 2526,
      "Ġcant": 2527,
      "ĠNope": 2528,
      "ppy": 2529,
      "ĠGod": 2530,
      "Ġusual": 2531,
      "Ġetc": 2532,
      "Ġcelebr": 2533,
      "ball": 2534,
      "jam": 2535,
      "ule": 2536,
      "rent": 2537,
      "Ġland": 2538,
      "Ġforward": 2539,
      "ĠJane": 2540,
      "Ġbetween": 2541,
      "ĠðŁĳ": 2542,
      "Ġinvit": 2543,
      "Ġxxx": 2544,
      "ĠFrank": 2545,
      "oud": 2546,
      "Ġsign": 2547,
      "Ġknew": 2548,
      "ĠGot": 2549,
      "Ġseeing": 2550,
      "Ġfeels": 2551,
      "Ġprice": 2552,
      "Melissa": 2553,
      "Ġcomplete": 2554,
      "pecially": 2555,
      "Cha": 2556,
      "Ġcop": 2557,
      "aris": 2558,
      "Ġrent": 2559,
      "Ġdoor": 2560,
      "ĠMr": 2561,
      "Syl": 2562,
      "sy": 2563,
      "ï¼": 2564,
      "ower": 2565,
      "Ġref": 2566,
      "Ġrel": 2567,
      "ĠDavid": 2568,
      "Becky": 2569,
      "Ġty": 2570,
      "Ġep": 2571,
      "ĠJess": 2572,
      "olute": 2573,
      "ĠAnyway": 2574,
      "Ġbott": 2575,
      "Holly": 2576,
      "Ġsound": 2577,
      "ĠCome": 2578,
      "Ġmessage": 2579,
      "Ġconsider": 2580,
      "lic": 2581,
      "yy": 2582,
      "Ġele": 2583,
      "ĠJames": 2584,
      "Ġmanage": 2585,
      "ĠðŁĺĬ": 2586,
      "ĠHahaha": 2587,
      "Vicky": 2588,
      "men": 2589,
      "erg": 2590,
      "Ġdrinks": 2591,
      "Ġseriously": 2592,
      "Nicole": 2593,
      "uation": 2594,
      "ze": 2595,
      "Ġboring": 2596,
      "Ġcent": 2597,
      "idays": 2598,
      "roy": 2599,
      "Ġabs": 2600,
      "Ġquick": 2601,
      "Ġinvite": 2602,
      "ointment": 2603,
      "Ġpaid": 2604,
      "ugh": 2605,
      "Ġbored": 2606,
      "Ġcake": 2607,
      "ities": 2608,
      "aces": 2609,
      "alth": 2610,
      "ffic": 2611,
      "Ġimagine": 2612,
      "Ġhop": 2613,
      "acebook": 2614,
      "Ġshare": 2615,
      "duct": 2616,
      "ship": 2617,
      "Brenda": 2618,
      "Taylor": 2619,
      "aly": 2620,
      "ï¸": 2621,
      "Ġcur": 2622,
      "Ġevent": 2623,
      "Ġreading": 2624,
      "Veronica": 2625,
      "Val": 2626,
      "ones": 2627,
      "Ġpleas": 2628,
      "Ġnotes": 2629,
      "Ġworth": 2630,
      "fully": 2631,
      "Dad": 2632,
      "flix": 2633,
      "Ġaff": 2634,
      "ĠAf": 2635,
      "Ġwhatever": 2636,
      "ĠAnn": 2637,
      "Ġrunning": 2638,
      "Ġclothes": 2639,
      "ebecca": 2640,
      "Cindy": 2641,
      "Ġtouch": 2642,
      "etflix": 2643,
      "Ġworse": 2644,
      "Amber": 2645,
      "Ġkidding": 2646,
      "Deb": 2647,
      "Lee": 2648,
      "idge": 2649,
      "iranda": 2650,
      "Ġ;-)": 2651,
      "Ġchick": 2652,
      "Ġappointment": 2653,
      "Owen": 2654,
      "Ġmad": 2655,
      "Ġdou": 2656,
      "ĠDad": 2657,
      "essa": 2658,
      "ebast": 2659,
      "Ġaccident": 2660,
      "Ġmarried": 2661,
      "led": 2662,
      "ĠAb": 2663,
      "ĠYour": 2664,
      "ĠMom": 2665,
      "ilda": 2666,
      "com": 2667,
      "ya": 2668,
      "Ġob": 2669,
      "Matthew": 2670,
      "Ġblue": 2671,
      "Ġadvice": 2672,
      "ï¸ı": 2673,
      "Ġom": 2674,
      "Ġyep": 2675,
      "Ġfull": 2676,
      "ĠNothing": 2677,
      "cle": 2678,
      "Ġpoor": 2679,
      "Ġlink": 2680,
      "ĠSome": 2681,
      "wards": 2682,
      "Ġdriving": 2683,
      "Bl": 2684,
      "Ġtable": 2685,
      "ĠLol": 2686,
      "haron": 2687,
      "Danny": 2688,
      "ĠTrue": 2689,
      "Che": 2690,
      "Ra": 2691,
      "lla": 2692,
      "Ġyoung": 2693,
      "illa": 2694,
      "ĠAg": 2695,
      "ecture": 2696,
      "aken": 2697,
      "Ġothers": 2698,
      "Ġbooked": 2699,
      "Ġrecommends": 2700,
      "Ġcomplain": 2701,
      "ĠPerfect": 2702,
      "June": 2703,
      "Ġside": 2704,
      "ham": 2705,
      "anie": 2706,
      "ĠDe": 2707,
      "ches": 2708,
      "Ġsurprise": 2709,
      "Ray": 2710,
      "Ġgrab": 2711,
      "Ġint": 2712,
      "Step": 2713,
      "Sophia": 2714,
      "Andrea": 2715,
      "ii": 2716,
      "zabeth": 2717,
      "Ġpri": 2718,
      "ĠTV": 2719,
      "Ġasks": 2720,
      "ĠPh": 2721,
      "Ġusually": 2722,
      "Ġrid": 2723,
      "Ġfucking": 2724,
      "Ġcountry": 2725,
      "Ġchanged": 2726,
      "Ġexplain": 2727,
      "ebastian": 2728,
      "Ana": 2729,
      "Dylan": 2730,
      "gar": 2731,
      "Ġwife": 2732,
      "Ġmention": 2733,
      "Ġdrop": 2734,
      "Ġgone": 2735,
      "Ġiss": 2736,
      "ĠTell": 2737,
      "Tommy": 2738,
      "Ġchoice": 2739,
      "Kimber": 2740,
      "Ġmovies": 2741,
      "Ġconfir": 2742,
      "olutely": 2743,
      "Audrey": 2744,
      "Ġfather": 2745,
      "Ġloc": 2746,
      "Ġstuck": 2747,
      "ĠMor": 2748,
      "Ġsends": 2749,
      "Fel": 2750,
      "gin": 2751,
      "vis": 2752,
      "Ġbag": 2753,
      "ĠHarry": 2754,
      "ĠMel": 2755,
      "ĠJosh": 2756,
      "rown": 2757,
      "Ġlooked": 2758,
      "ĠVery": 2759,
      "oves": 2760,
      "Ġholidays": 2761,
      "Ġrain": 2762,
      "ĠAdam": 2763,
      "itchen": 2764,
      "Kris": 2765,
      "Ralph": 2766,
      "bie": 2767,
      "da": 2768,
      "ract": 2769,
      "aster": 2770,
      "Ġairport": 2771,
      "gle": 2772,
      "uly": 2773,
      "vy": 2774,
      "Ġshoes": 2775,
      "thony": 2776,
      "unately": 2777,
      "Ġappre": 2778,
      "........": 2779,
      "Ġdra": 2780,
      "udia": 2781,
      "Ġreceive": 2782,
      "ru": 2783,
      "Ġson": 2784,
      "ĠAct": 2785,
      "Ġkinda": 2786,
      "Ġattend": 2787,
      "ĠOne": 2788,
      "iane": 2789,
      "eorg": 2790,
      "Ġmoved": 2791,
      "Ġepis": 2792,
      "Ġcut": 2793,
      "Ġpie": 2794,
      "Ġkitchen": 2795,
      "Ġgod": 2796,
      "obody": 2797,
      "ĠEve": 2798,
      "ments": 2799,
      "Ġblood": 2800,
      "OO": 2801,
      "Trevor": 2802,
      "mith": 2803,
      "Ġlapt": 2804,
      "ises": 2805,
      "ĠTake": 2806,
      "alm": 2807,
      "ĠGo": 2808,
      "Ġleg": 2809,
      "Ġomg": 2810,
      "Ġlaptop": 2811,
      "Evan": 2812,
      "riel": 2813,
      "Ġloves": 2814,
      "ander": 2815,
      "ĠDoes": 2816,
      "Ġwriting": 2817,
      "Ġhorrible": 2818,
      "Ġsnow": 2819,
      "Bella": 2820,
      "fast": 2821,
      "ja": 2822,
      "mine": 2823,
      "time": 2824,
      "ril": 2825,
      "Ġ50": 2826,
      "isapp": 2827,
      "oger": 2828,
      "Clara": 2829,
      "Ġreturn": 2830,
      "Ġextra": 2831,
      "auren": 2832,
      "Ġrequest": 2833,
      "Ġappreci": 2834,
      ":)": 2835,
      "Justin": 2836,
      "ness": 2837,
      "rene": 2838,
      "Ġcli": 2839,
      "Ġdue": 2840,
      "Ġlo": 2841,
      "Ġnorm": 2842,
      "ilia": 2843,
      "Ġword": 2844,
      "uba": 2845,
      "Ġtraffic": 2846,
      "Ġmatter": 2847,
      "Ġmatch": 2848,
      "Mr": 2849,
      "Ne": 2850,
      "Ġfore": 2851,
      "arling": 2852,
      "ĠJake": 2853,
      "ĠEmma": 2854,
      "Ġterrible": 2855,
      "jamin": 2856,
      "Sylvia": 2857,
      "ua": 2858,
      "Ġca": 2859,
      "ille": 2860,
      "Ġreport": 2861,
      "acey": 2862,
      "eeee": 2863,
      "Bobby": 2864,
      "Louise": 2865,
      "Ġmoving": 2866,
      "Mandy": 2867,
      "Rebecca": 2868,
      "iol": 2869,
      "Ġsched": 2870,
      "Ġdisapp": 2871,
      "Ġpos": 2872,
      "Ġhealth": 2873,
      "Ġsex": 2874,
      "Ġwhite": 2875,
      "pped": 2876,
      "Ġbye": 2877,
      "Ġchecked": 2878,
      "Ġfavourite": 2879,
      "ES": 2880,
      "Ġfast": 2881,
      "icia": 2882,
      "ills": 2883,
      "ĠGer": 2884,
      "Ġwondering": 2885,
      "Ġwinter": 2886,
      "ĠSarah": 2887,
      "Scott": 2888,
      "Ġlit": 2889,
      "ads": 2890,
      "eline": 2891,
      "Ġaren": 2892,
      "Ġalong": 2893,
      "ĠPM": 2894,
      "Ġseem": 2895,
      "Ġminute": 2896,
      "Ġticket": 2897,
      "Ġcollect": 2898,
      "Derek": 2899,
      "Lena": 2900,
      "OU": 2901,
      "Wal": 2902,
      "Ġmil": 2903,
      "Ġstory": 2904,
      "Isabella": 2905,
      "cri": 2906,
      "Ġtaken": 2907,
      "Ġmark": 2908,
      "arch": 2909,
      "ĠYear": 2910,
      "Ġyours": 2911,
      "Ġvac": 2912,
      "Samuel": 2913,
      "Ġ100": 2914,
      "Steven": 2915,
      "arently": 2916,
      "Ġconference": 2917,
      "Ġaddress": 2918,
      "ydia": 2919,
      "ĠActually": 2920,
      "Ġlots": 2921,
      "Adrian": 2922,
      "Ġrecip": 2923,
      "ĠStill": 2924,
      "ordan": 2925,
      "Ġsupport": 2926,
      "Ġopin": 2927,
      "Ġquestions": 2928,
      "Ġsituation": 2929,
      "Ġhuge": 2930,
      "py": 2931,
      "Ġwall": 2932,
      "Ġwebs": 2933,
      "ĠWas": 2934,
      "Ellen": 2935,
      "ults": 2936,
      "Katie": 2937,
      "loria": 2938,
      "Ġpaper": 2939,
      "Ġpresentation": 2940,
      "Stanley": 2941,
      "Kimberly": 2942,
      "ata": 2943,
      "ĠMan": 2944,
      "ĠBec": 2945,
      "Ġshouldn": 2946,
      "Ġhomework": 2947,
      "ĠJoe": 2948,
      "Lola": 2949,
      "Toby": 2950,
      "inc": 2951,
      "ĠJeff": 2952,
      "urry": 2953,
      "ĠAndy": 2954,
      "avier": 2955,
      "Elizabeth": 2956,
      "Ġfilm": 2957,
      "Ġaccept": 2958,
      "Ġprofess": 2959,
      "Miranda": 2960,
      "Ġcor": 2961,
      "Ġchat": 2962,
      "alian": 2963,
      "Ġcanc": 2964,
      "Ġplaces": 2965,
      "ends": 2966,
      "Blake": 2967,
      "**": 2968,
      "Ari": 2969,
      "Leah": 2970,
      "Ġbath": 2971,
      "orge": 2972,
      "ĠWait": 2973,
      "Janet": 2974,
      "ollow": 2975,
      "Hugh": 2976,
      "Mason": 2977,
      "bt": 2978,
      "ls": 2979,
      "ooke": 2980,
      "ĠSha": 2981,
      "Ġsuit": 2982,
      "ĠDec": 2983,
      "thur": 2984,
      "ume": 2985,
      "que": 2986,
      "load": 2987,
      "Ġtrave": 2988,
      "Ġlately": 2989,
      "Ġinterview": 2990,
      "ther": 2991,
      "Ġfoot": 2992,
      "Ġdream": 2993,
      "uter": 2994,
      "els": 2995,
      "Ġproper": 2996,
      "Ġmeans": 2997,
      "versity": 2998,
      "ĠPoland": 2999,
      "Ali": 3000,
      "Lia": 3001,
      "Mum": 3002,
      "Shan": 3003,
      "wise": 3004,
      "Ġfan": 3005,
      "Ġlecture": 3006,
      "Ġspent": 3007,
      "Ġbabe": 3008,
      "Ġcross": 3009,
      "Ġbreakfast": 3010,
      "Fl": 3011,
      "IN": 3012,
      "Rory": 3013,
      "form": 3014,
      "ned": 3015,
      "omi": 3016,
      "stairs": 3017,
      "Ġups": 3018,
      "ific": 3019,
      "Ġhahah": 3020,
      "Ġsending": 3021,
      "Ġcooking": 3022,
      "Domin": 3023,
      "Ol": 3024,
      "Ola": 3025,
      "Sid": 3026,
      "ken": 3027,
      "tw": 3028,
      "ying": 3029,
      "Ġtreat": 3030,
      "ĠMonica": 3031,
      "antastic": 3032,
      "ĠHere": 3033,
      "ĠFred": 3034,
      "ĠEd": 3035,
      "ĠKim": 3036,
      "Ġpract": 3037,
      "lock": 3038,
      "Gabrie": 3039,
      "Ġhello": 3040,
      "fortunately": 3041,
      "Be": 3042,
      "Bry": 3043,
      "Finn": 3044,
      "ler": 3045,
      "nor": 3046,
      "Ġsense": 3047,
      "haps": 3048,
      "Ġbud": 3049,
      "ots": 3050,
      "Ġsun": 3051,
      "ĠJenny": 3052,
      "Pauline": 3053,
      "Jessie": 3054,
      "Ġbuild": 3055,
      "Ġgener": 3056,
      "Ġtast": 3057,
      "Ġhit": 3058,
      "Ġlibr": 3059,
      "Ġneeded": 3060,
      "lax": 3061,
      "Ġcomputer": 3062,
      "rench": 3063,
      "ĠLucy": 3064,
      "ĠAfter": 3065,
      "Rod": 3066,
      "Ġtakes": 3067,
      "Ġwind": 3068,
      "ories": 3069,
      "Ġfight": 3070,
      "owe": 3071,
      "used": 3072,
      "Ġthrow": 3073,
      "ĠWith": 3074,
      "ĠWars": 3075,
      "Ġrelax": 3076,
      "ĠAw": 3077,
      "ĠYea": 3078,
      "Ġconvin": 3079,
      "Isla": 3080,
      "rett": 3081,
      "Ġkeys": 3082,
      "alia": 3083,
      "Ġdoc": 3084,
      "ĠBill": 3085,
      "ĠJac": 3086,
      "unno": 3087,
      "ĠFine": 3088,
      "Ġusing": 3089,
      "Theo": 3090,
      "Ġswim": 3091,
      "Ġstudying": 3092,
      "indsay": 3093,
      "Sebastian": 3094,
      "rid": 3095,
      "Ġbank": 3096,
      "ĠSomet": 3097,
      "ĠNetflix": 3098,
      "Ġtrust": 3099,
      "Ġsurprised": 3100,
      "ratul": 3101,
      "Donald": 3102,
      "Sh": 3103,
      "Ġdarling": 3104,
      "Ġbeha": 3105,
      "Ġform": 3106,
      "ides": 3107,
      "ĠHer": 3108,
      "ĠNat": 3109,
      "ula": 3110,
      "Anthony": 3111,
      "emma": 3112,
      "Ġpartic": 3113,
      "ording": 3114,
      "nold": 3115,
      "Edward": 3116,
      "Ġarrived": 3117,
      "Nora": 3118,
      "ald": 3119,
      "ugg": 3120,
      "Ġmod": 3121,
      "Ġfollow": 3122,
      "Ġpics": 3123,
      "ĠMum": 3124,
      "Ġcong": 3125,
      "ips": 3126,
      "Ġhappens": 3127,
      "Ġwebsite": 3128,
      "Ġlibrary": 3129,
      "Aid": 3130,
      "Diane": 3131,
      "Ger": 3132,
      "Ġsy": 3133,
      "Ġmist": 3134,
      "Ġfre": 3135,
      "ĠAmy": 3136,
      "Ġneither": 3137,
      "ĠGeorge": 3138,
      "Ġarg": 3139,
      "Ġstarts": 3140,
      "Ġremind": 3141,
      "Ġneighbour": 3142,
      "Mor": 3143,
      "Mona": 3144,
      "Ross": 3145,
      "rad": 3146,
      "Ġhist": 3147,
      "Carrie": 3148,
      "Julian": 3149,
      "\".": 3150,
      "eal": 3151,
      "over": 3152,
      "ped": 3153,
      "Ġoften": 3154,
      "ists": 3155,
      "ertain": 3156,
      "Francis": 3157,
      "Ġtravel": 3158,
      "Ġpromise": 3159,
      "Dean": 3160,
      "Gloria": 3161,
      "Sha": 3162,
      "Tyler": 3163,
      "Ġflo": 3164,
      "ĠHis": 3165,
      "Ġstra": 3166,
      "ĠGreg": 3167,
      "Joy": 3168,
      "Ġfinds": 3169,
      "Benjamin": 3170,
      "ĠMartha": 3171,
      "Heather": 3172,
      "Ġmilk": 3173,
      "athy": 3174,
      "ĠGuy": 3175,
      "ĠParis": 3176,
      "Ġdrinking": 3177,
      "Ġdeli": 3178,
      "Ġcompletely": 3179,
      "ĠBecause": 3180,
      "Lauren": 3181,
      "Polly": 3182,
      "Roger": 3183,
      "Sandy": 3184,
      "Te": 3185,
      "pril": 3186,
      "ĠInd": 3187,
      "Ġpar": 3188,
      "Ġinside": 3189,
      "Ġinde": 3190,
      "ĠAh": 3191,
      "hanie": 3192,
      "ĠCl": 3193,
      "ĠGl": 3194,
      "Robin": 3195,
      "Leon": 3196,
      "dered": 3197,
      "Ġannoy": 3198,
      "Ġespecially": 3199,
      "Ġchicken": 3200,
      "Barry": 3201,
      "De": 3202,
      "ron": 3203,
      "Ġfig": 3204,
      "Ġdamn": 3205,
      "Ġpot": 3206,
      "ĠSoph": 3207,
      "Ġstreet": 3208,
      "ilar": 3209,
      "andon": 3210,
      "Ġproduct": 3211,
      "Ġ19": 3212,
      "Arthur": 3213,
      "Ġwoman": 3214,
      "Ġboard": 3215,
      "Ġelect": 3216,
      "Ġnormal": 3217,
      "Walter": 3218,
      "Zack": 3219,
      "Ġpat": 3220,
      "Ġla": 3221,
      "ants": 3222,
      "Ġserv": 3223,
      "Ġlucky": 3224,
      "Ġappreciate": 3225,
      "Ġindeed": 3226,
      "Den": 3227,
      "Tam": 3228,
      "Ġtea": 3229,
      "aring": 3230,
      "asia": 3231,
      "idi": 3232,
      "unt": 3233,
      "ĠItaly": 3234,
      "Ġsave": 3235,
      "Ġloved": 3236,
      "Ġmins": 3237,
      "ĠDaniel": 3238,
      "ennis": 3239,
      "Ġpolit": 3240,
      "Ġafford": 3241,
      "Georg": 3242,
      "Ġwis": 3243,
      "Ġband": 3244,
      "ann": 3245,
      "Ġfit": 3246,
      "Ġface": 3247,
      "ĠMax": 3248,
      "ĠFacebook": 3249,
      "rance": 3250,
      "ĠMaria": 3251,
      "oebe": 3252,
      "Erin": 3253,
      "ĠWarsaw": 3254,
      "Irene": 3255,
      "There": 3256,
      "ki": 3257,
      "pect": 3258,
      "uc": 3259,
      "Ã©": 3260,
      "ĠâĢ": 3261,
      "ĠMad": 3262,
      "ĠCong": 3263,
      "olas": 3264,
      "Ġtelling": 3265,
      "Ġdied": 3266,
      "Isa": 3267,
      "Ġinternet": 3268,
      "Judy": 3269,
      "Dora": 3270,
      "EA": 3271,
      "Lydia": 3272,
      "Rita": 3273,
      "ats": 3274,
      "Ġhurt": 3275,
      "ĠSim": 3276,
      "rik": 3277,
      "ĠLisa": 3278,
      "ĠPl": 3279,
      "Ġprop": 3280,
      "Ġstarting": 3281,
      "Ġwarm": 3282,
      "Ġcolour": 3283,
      "Ġmen": 3284,
      "vey": 3285,
      "Ġlight": 3286,
      "ĠPe": 3287,
      "Ġ25": 3288,
      "ĠAlice": 3289,
      "ĠCarol": 3290,
      "Gabriel": 3291,
      "aleb": 3292,
      "ĠMichael": 3293,
      "All": 3294,
      "ailey": 3295,
      "ient": 3296,
      "vi": 3297,
      "isabeth": 3298,
      "ĠHm": 3299,
      "ĠLaura": 3300,
      "Ġplane": 3301,
      "Ġoffers": 3302,
      "Ġclos": 3303,
      "Freddie": 3304,
      "carl": 3305,
      "Louis": 3306,
      "Pamela": 3307,
      "Ġopinion": 3308,
      "45": 3309,
      "bo": 3310,
      "mit": 3311,
      "ines": 3312,
      "Ġgreen": 3313,
      "oogle": 3314,
      "Ġstrange": 3315,
      "elled": 3316,
      "arden": 3317,
      "Danie": 3318,
      "ĠUS": 3319,
      "Ġvisiting": 3320,
      "Ġfavor": 3321,
      "ĠJulia": 3322,
      "Ġoption": 3323,
      "Ġupset": 3324,
      "ER": 3325,
      "Sharon": 3326,
      "ror": 3327,
      "Ġcream": 3328,
      "Ġhum": 3329,
      "Ġliving": 3330,
      "ĠKelly": 3331,
      "ĠVictor": 3332,
      "ĠLuke": 3333,
      "Philip": 3334,
      "ĠEmily": 3335,
      "oking": 3336,
      "Ġdeadline": 3337,
      "Suzie": 3338,
      "15": 3339,
      "How": 3340,
      "Ġopp": 3341,
      "ĠNO": 3342,
      "ĠGet": 3343,
      "Ġhimself": 3344,
      "Ġconvers": 3345,
      "ĠðŁĺī": 3346,
      "Ġdecis": 3347,
      "Ġbroken": 3348,
      "Ġposted": 3349,
      "Jonathan": 3350,
      "Lea": 3351,
      "Nate": 3352,
      "Ronald": 3353,
      "aper": 3354,
      "bably": 3355,
      "dle": 3356,
      "Ġtem": 3357,
      "oth": 3358,
      "Ġbeach": 3359,
      "Ġwhats": 3360,
      "????": 3361,
      "ĠNext": 3362,
      "Lenny": 3363,
      "oug": 3364,
      "Ġlend": 3365,
      "Ġsucks": 3366,
      "oppy": 3367,
      "ĠLinda": 3368,
      "Ġanybody": 3369,
      "Ġ:))": 3370,
      "ational": 3371,
      "Alf": 3372,
      "Alison": 3373,
      "ĠSteve": 3374,
      "Ġuniversity": 3375,
      "cial": 3376,
      "ered": 3377,
      "nect": 3378,
      "wis": 3379,
      "Ġfair": 3380,
      "Ġpic": 3381,
      "Ġey": 3382,
      "ada": 3383,
      "Ġsell": 3384,
      "ument": 3385,
      "Ġwrote": 3386,
      "rence": 3387,
      "Ġsleeping": 3388,
      "Ġentrance": 3389,
      "ĠProbably": 3390,
      "Les": 3391,
      "mon": 3392,
      "Ġfall": 3393,
      "Ġlaw": 3394,
      "Ġhus": 3395,
      "Ġtho": 3396,
      "ĠSame": 3397,
      "ĠHelen": 3398,
      "raph": 3399,
      "ianne": 3400,
      "avin": 3401,
      "Ġpregn": 3402,
      "Ġflow": 3403,
      "Melanie": 3404,
      "Stacy": 3405,
      "Madison": 3406,
      "Ġepisode": 3407,
      "Olga": 3408,
      "It": 3409,
      "band": 3410,
      "ias": 3411,
      "rina": 3412,
      "Ġtour": 3413,
      "Ġmall": 3414,
      "Ġeverybody": 3415,
      "Theresa": 3416,
      "Ġcopy": 3417,
      "Kit": 3418,
      "sha": 3419,
      "onnie": 3420,
      "Ġbur": 3421,
      "Ġyup": 3422,
      "ature": 3423,
      "ĠSmith": 3424,
      "ĠCla": 3425,
      "ĠEuro": 3426,
      "umb": 3427,
      "Carmen": 3428,
      "Brooke": 3429,
      "Ġeating": 3430,
      "Ġtraining": 3431,
      "Ġsitting": 3432,
      "Jasmine": 3433,
      "Ġlaugh": 3434,
      "Ġcentre": 3435,
      "Lindsay": 3436,
      "Na": 3437,
      "Sus": 3438,
      "Ġsize": 3439,
      "Ġice": 3440,
      "Ġfancy": 3441,
      "Ġdist": 3442,
      "Ġpur": 3443,
      "ama": 3444,
      "Ġdoll": 3445,
      "ryl": 3446,
      "Ġjack": 3447,
      "ĠNick": 3448,
      "ĠItalian": 3449,
      "Ġround": 3450,
      "ĠHappy": 3451,
      "Ġturned": 3452,
      "rats": 3453,
      "ĠRobert": 3454,
      "Ġexperience": 3455,
      "Ġbottle": 3456,
      "Ġabsolutely": 3457,
      "Ġreceived": 3458,
      "Ġfigure": 3459,
      "ged": 3460,
      "Ġheart": 3461,
      "ĠTina": 3462,
      "ĠAndrew": 3463,
      "Ġplayed": 3464,
      "Ġcontro": 3465,
      "Ġcurrent": 3466,
      "Ġpriv": 3467,
      "Ġfloor": 3468,
      "tt": 3469,
      "ãĥ": 3470,
      "Ġed": 3471,
      "ania": 3472,
      "anne": 3473,
      "Ġyea": 3474,
      "Ġcre": 3475,
      "Ġbegin": 3476,
      "Ġcalling": 3477,
      "Ġroad": 3478,
      "Ġsuppose": 3479,
      "Phoebe": 3480,
      "Ġeasier": 3481,
      "Evelyn": 3482,
      "Ġpolice": 3483,
      "Heidi": 3484,
      "Ġhungry": 3485,
      "Ġflying": 3486,
      "Ġcelebrate": 3487,
      "Ġdoubt": 3488,
      "Hank": 3489,
      "Jose": 3490,
      "ius": 3491,
      "night": 3492,
      "Ġbother": 3493,
      "Ġbox": 3494,
      "Ġcamp": 3495,
      "Ġfell": 3496,
      "ative": 3497,
      "Ġmem": 3498,
      "ĠYup": 3499,
      "thia": 3500,
      "sey": 3501,
      "odd": 3502,
      "Ġchill": 3503,
      "ggy": 3504,
      "Ġresults": 3505,
      "Ġ:-(": 3506,
      "Arnold": 3507,
      "aaaa": 3508,
      "Ġhusband": 3509,
      "Viv": 3510,
      "ylie": 3511,
      "Ġ$": 3512,
      "Ġfish": 3513,
      "Ġfail": 3514,
      "atha": 3515,
      "isha": 3516,
      "ield": 3517,
      "elt": 3518,
      "Ġsol": 3519,
      "ĠBer": 3520,
      "ĠFrench": 3521,
      "Ġarri": 3522,
      "ized": 3523,
      "Ġeng": 3524,
      "Ġtrou": 3525,
      "Ġscared": 3526,
      "Joshua": 3527,
      "Ġassign": 3528,
      "Ġhistory": 3529,
      "ĠGuys": 3530,
      "Cec": 3531,
      "Sonia": 3532,
      "cess": 3533,
      "ted": 3534,
      "zie": 3535,
      "Ŀ¤": 3536,
      "oun": 3537,
      "Ġbra": 3538,
      "Ġmath": 3539,
      "Ġnobody": 3540,
      "ism": 3541,
      "ayden": 3542,
      "outh": 3543,
      "Ġherself": 3544,
      "uno": 3545,
      "ðŁ¤": 3546,
      "useum": 3547,
      "Ġteach": 3548,
      "Bruce": 3549,
      "Ġappro": 3550,
      "Lewis": 3551,
      "llege": 3552,
      "Connor": 3553,
      "urious": 3554,
      "aughter": 3555,
      "iolet": 3556,
      "Austin": 3557,
      "Ġdest": 3558,
      "Ġnope": 3559,
      "Ġrese": 3560,
      "ĠApp": 3561,
      "ĠDave": 3562,
      "Ġchoc": 3563,
      "Ġguest": 3564,
      "ĠThomas": 3565,
      "ĠAnything": 3566,
      "Angel": 3567,
      "Ġslow": 3568,
      "Ġconfirm": 3569,
      "Ġschedule": 3570,
      "aith": 3571,
      "inny": 3572,
      "Ġmood": 3573,
      "Ġfut": 3574,
      "Ġhurry": 3575,
      "Ġlives": 3576,
      "ĠBob": 3577,
      "ĠJason": 3578,
      "Albert": 3579,
      "Paulina": 3580,
      "Gemma": 3581,
      "Pe": 3582,
      "Seth": 3583,
      "of": 3584,
      "Ġsat": 3585,
      "Ġfile": 3586,
      "ĠMag": 3587,
      "ĠNah": 3588,
      "ulous": 3589,
      "though": 3590,
      "ĠEn": 3591,
      "ĠKat": 3592,
      "Stella": 3593,
      "Ġglass": 3594,
      "Ġgiving": 3595,
      "Ġrecipe": 3596,
      "ĠJacob": 3597,
      "carlett": 3598,
      "Jude": 3599,
      "rr": 3600,
      "reta": 3601,
      "itive": 3602,
      "Ġstressed": 3603,
      "ilip": 3604,
      "Ġwont": 3605,
      "Ġ40": 3606,
      "Elisabeth": 3607,
      "ynn": 3608,
      "Ġartic": 3609,
      "Ġconsidering": 3610,
      "Stephanie": 3611,
      "Ġwindow": 3612,
      "Ġstraight": 3613,
      "Catherine": 3614,
      "Jordan": 3615,
      "Ma": 3616,
      "^^": 3617,
      "mar": 3618,
      "Ġri": 3619,
      "iny": 3620,
      "icious": 3621,
      "Ġev": 3622,
      "ĠYOU": 3623,
      "Ġworst": 3624,
      "ĠGu": 3625,
      "Anita": 3626,
      "Ġshower": 3627,
      "Ġagreed": 3628,
      "Damian": 3629,
      "Ġinvites": 3630,
      "Ġtravelling": 3631,
      "Ġservice": 3632,
      "Ġfuture": 3633,
      "Ġ&": 3634,
      "Ġess": 3635,
      "Ġdem": 3636,
      "roc": 3637,
      "ility": 3638,
      "ĠEthan": 3639,
      "eez": 3640,
      "Ġspace": 3641,
      "Ġtwice": 3642,
      "Ġmissing": 3643,
      "Ġinfo": 3644,
      "ology": 3645,
      "gina": 3646,
      "ino": 3647,
      "ĠId": 3648,
      "Ġcreat": 3649,
      "elie": 3650,
      "ĠMia": 3651,
      "ĠGive": 3652,
      "Ġproud": 3653,
      "Ġdownstairs": 3654,
      "Ġdelay": 3655,
      "ĠSpain": 3656,
      "Ġgrandma": 3657,
      "Ġliter": 3658,
      "Caleb": 3659,
      "Lara": 3660,
      "Ġcash": 3661,
      "acks": 3662,
      "ĠSusan": 3663,
      "ĠHenry": 3664,
      "ĠBarb": 3665,
      "kson": 3666,
      "stem": 3667,
      "ĠFuck": 3668,
      "ĠKaren": 3669,
      "Ġcheaper": 3670,
      "Ġagainst": 3671,
      "Ġgrad": 3672,
      "Ġenjoyed": 3673,
      "Ġlesson": 3674,
      "Ġprepared": 3675,
      "gram": 3676,
      "Ġmanaged": 3677,
      "Ġcorrect": 3678,
      "Penny": 3679,
      "the": 3680,
      "zo": 3681,
      "Ġfantastic": 3682,
      "Ġfelt": 3683,
      "Ġlose": 3684,
      "ask": 3685,
      "Ġanim": 3686,
      "opher": 3687,
      "Ġconnect": 3688,
      "Ġafterwards": 3689,
      "ĠNever": 3690,
      "Nicky": 3691,
      "Ġpassed": 3692,
      "angu": 3693,
      "Ġinformation": 3694,
      "ĠQu": 3695,
      "ratulations": 3696,
      "Ġconversation": 3697,
      "Ġpregnant": 3698,
      "ek": 3699,
      "mond": 3700,
      "Ġ*": 3701,
      "head": 3702,
      "anessa": 3703,
      "Ġpan": 3704,
      "Ġind": 3705,
      "amil": 3706,
      "ĠAmer": 3707,
      "ional": 3708,
      "ĠDamn": 3709,
      "Ġcover": 3710,
      "Harper": 3711,
      "Ġwomen": 3712,
      "Ġpleasure": 3713,
      "ĠDecember": 3714,
      "Beat": 3715,
      "ĠAwesome": 3716,
      "ĠEurope": 3717,
      "Roy": 3718,
      "hind": 3719,
      "Ġbtw": 3720,
      "ingers": 3721,
      "Ġhold": 3722,
      "ĠSue": 3723,
      "ĠBre": 3724,
      "Carter": 3725,
      "Marta": 3726,
      "ggie": 3727,
      "Ġbread": 3728,
      "Ġdepends": 3729,
      "ĠKevin": 3730,
      "Ġsystem": 3731,
      "Naomi": 3732,
      "Ġchocol": 3733,
      "Es": 3734,
      "Riley": 3735,
      "uary": 3736,
      "Ġcertain": 3737,
      "Ġdro": 3738,
      "Ġdaughter": 3739,
      "iced": 3740,
      "ĠPete": 3741,
      "Ġplanned": 3742,
      "Ġsmart": 3743,
      "Ġ201": 3744,
      "Ġvegan": 3745,
      "ĠðŁĻĤ": 3746,
      "Ġbeginning": 3747,
      "Cle": 3748,
      "Kai": 3749,
      "cha": 3750,
      "king": 3751,
      "Ġage": 3752,
      "Ġbehind": 3753,
      "ĠCam": 3754,
      "ston": 3755,
      "Ġdidnt": 3756,
      "ards": 3757,
      "ĠðŁĺį": 3758,
      "Ġdiet": 3759,
      "Alexis": 3760,
      "Alexander": 3761,
      "ĠAnne": 3762,
      "Ronnie": 3763,
      "Ġtransl": 3764,
      "ĠPatrick": 3765,
      "Ġincl": 3766,
      "ĠOlivia": 3767,
      "Ġobvious": 3768,
      "Ġbathroom": 3769,
      "Ġdecision": 3770,
      "Ġeyes": 3771,
      "tney": 3772,
      "Ġdark": 3773,
      "Ġmeat": 3774,
      "Ġstar": 3775,
      "ustr": 3776,
      "ourtney": 3777,
      "Ġupd": 3778,
      "Ġworked": 3779,
      "ault": 3780,
      "Ġenter": 3781,
      "Ġdiscount": 3782,
      "rsula": 3783,
      "ĠðŁĳį": 3784,
      "Ġfootball": 3785,
      "Aly": 3786,
      "Randy": 3787,
      "Ġz": 3788,
      "Ġris": 3789,
      "Ġtv": 3790,
      "ency": 3791,
      "oof": 3792,
      "ĠToo": 3793,
      "ĠSer": 3794,
      "tern": 3795,
      "ĠJune": 3796,
      "ðŁĺį": 3797,
      "Ġring": 3798,
      "Ġcheese": 3799,
      "Ġpref": 3800,
      "Ġwonderful": 3801,
      "Isabel": 3802,
      "Ġswimming": 3803,
      "how": 3804,
      "iri": 3805,
      "iant": 3806,
      "Ġtough": 3807,
      "Ġtax": 3808,
      "Ġgarden": 3809,
      "Ġlangu": 3810,
      "illie": 3811,
      "Ġegg": 3812,
      "ĠHar": 3813,
      "ality": 3814,
      "Ġprogram": 3815,
      "Ġages": 3816,
      "Caro": 3817,
      "Dana": 3818,
      "Ġstudents": 3819,
      "Ġwearing": 3820,
      "Ġhands": 3821,
      "Ġmarket": 3822,
      "Ġwishes": 3823,
      "Ġtrouble": 3824,
      "20": 3825,
      "Ren": 3826,
      "_-": 3827,
      "gent": 3828,
      "oid": 3829,
      "anish": 3830,
      "Ġpress": 3831,
      "ising": 3832,
      "ĠTha": 3833,
      "Ġmeant": 3834,
      "ĠYork": 3835,
      "ĠLou": 3836,
      "ĠEric": 3837,
      "Ġ18": 3838,
      "Ġflu": 3839,
      "Angie": 3840,
      "ĠLuc": 3841,
      "Ġtransfer": 3842,
      "ðŁĺĤðŁĺĤ": 3843,
      "Col": 3844,
      "Doug": 3845,
      "Tara": 3846,
      "aff": 3847,
      "rice": 3848,
      "xx": 3849,
      "ĠTH": 3850,
      "elf": 3851,
      "ĠBy": 3852,
      "unter": 3853,
      "ĠFl": 3854,
      "ĠRachel": 3855,
      "Ġcond": 3856,
      "ĠðŁĺĺ": 3857,
      "Frances": 3858,
      "Ġunfortunately": 3859,
      "Ġperform": 3860,
      "Clark": 3861,
      "Ġski": 3862,
      "Christine": 3863,
      "ĠBlack": 3864,
      "ĠSophie": 3865,
      "Greta": 3866,
      "Lynn": 3867,
      "Nor": 3868,
      "Violet": 3869,
      "Xavier": 3870,
      "oj": 3871,
      "win": 3872,
      "Ġ,": 3873,
      "Ġdent": 3874,
      "Ġline": 3875,
      "iew": 3876,
      "Ġeff": 3877,
      "ĠBrian": 3878,
      "ĠLiz": 3879,
      "Ġplus": 3880,
      "abrina": 3881,
      "ĠRem": 3882,
      "udy": 3883,
      "Ġcats": 3884,
      "Ġclear": 3885,
      "Ġissues": 3886,
      "Dominic": 3887,
      "Ġbuilding": 3888,
      "Howard": 3889,
      "Kayla": 3890,
      "eed": 3891,
      "eron": 3892,
      "Ġcry": 3893,
      "Ġpiss": 3894,
      "Ġlady": 3895,
      "enty": 3896,
      "orence": 3897,
      "ĠGab": 3898,
      "ĠIts": 3899,
      "Ġordered": 3900,
      "ĠFirst": 3901,
      "ains": 3902,
      "Ġvote": 3903,
      "Ġprint": 3904,
      "Ġdirect": 3905,
      "Ġdesign": 3906,
      "Ġsett": 3907,
      "Carlos": 3908,
      "Gwen": 3909,
      "Poppy": 3910,
      "Scarlett": 3911,
      "Wil": 3912,
      "xic": 3913,
      "Ġign": 3914,
      "Ġmach": 3915,
      "erve": 3916,
      "Ġcam": 3917,
      "Ġfire": 3918,
      "uses": 3919,
      "idget": 3920,
      "ĠHA": 3921,
      "Ġstress": 3922,
      "ĠCon": 3923,
      "ĠLast": 3924,
      "Ġshut": 3925,
      "Ġshirt": 3926,
      "ores": 3927,
      "ĠPre": 3928,
      "Ġspot": 3929,
      "Ġsport": 3930,
      "Ġcollege": 3931,
      "selves": 3932,
      "ĠAlso": 3933,
      "?!?!": 3934,
      "Ġkeeps": 3935,
      "Ġexample": 3936,
      "orgeous": 3937,
      "Ġpractice": 3938,
      "Ġfavorite": 3939,
      "Ġflowers": 3940,
      "Ġarticle": 3941,
      "Bert": 3942,
      "ral": 3943,
      "Ġtur": 3944,
      "Ġfault": 3945,
      "Ġlat": 3946,
      "illiant": 3947,
      "chie": 3948,
      "Ġfridge": 3949,
      "Ġanywhere": 3950,
      "ĠTomorrow": 3951,
      "ĠMartin": 3952,
      "Ġsingle": 3953,
      "ĠEverything": 3954,
      "Ġtype": 3955,
      "Danielle": 3956,
      "ĠĠčĊ": 3957,
      "Ġboo": 3958,
      "Ġcous": 3959,
      "Ġfour": 3960,
      "ayne": 3961,
      "Ġarea": 3962,
      "Ġasap": 3963,
      "ĠRose": 3964,
      "Ġcomfort": 3965,
      "Ġfeed": 3966,
      "Ġride": 3967,
      "Stef": 3968,
      "ĠðŁĴ": 3969,
      "Ġstopped": 3970,
      "ugo": 3971,
      "Ġcookies": 3972,
      "ĠOnly": 3973,
      "ĠCharlie": 3974,
      "Ġbloody": 3975,
      "Billy": 3976,
      "Ivy": 3977,
      "con": 3978,
      "ging": 3979,
      "uan": 3980,
      "ube": 3981,
      "oul": 3982,
      "Ġcla": 3983,
      "Ġfb": 3984,
      "Ġpool": 3985,
      "Ġhost": 3986,
      "iego": 3987,
      "Ġasleep": 3988,
      "pping": 3989,
      "Anton": 3990,
      "ardo": 3991,
      "Ġprevious": 3992,
      "Ġquit": 3993,
      "Ġdev": 3994,
      "Ġ-_-": 3995,
      "Ġhappening": 3996,
      "Ġshame": 3997,
      "Ġcancelled": 3998,
      "ING": 3999
    },
    "merges": [
      "Ġ t",
      "č Ċ",
      "Ġ a",
      "h e",
      "i n",
      "Ġ w",
      "o u",
      "r e",
      "Ġ s",
      "h a",
      "o n",
      "Ġ i",
      "Ġ I",
      "Ġ b",
      "Ġt he",
      "l l",
      "a n",
      "Ġ y",
      "Ġ m",
      "Ġt o",
      "e r",
      "o r",
      "in g",
      "Ġ c",
      "Ġ f",
      "Ġy ou",
      "n d",
      "Ġ d",
      "a r",
      "Ġ g",
      "e s",
      "Ġ p",
      "Ġ l",
      "Ġ n",
      "e n",
      "o m",
      "a t",
      "i s",
      "e t",
      "i t",
      "a y",
      "o t",
      "v e",
      "Ġi t",
      "ha t",
      "o w",
      "e d",
      "i c",
      "Ġa nd",
      "Ġ o",
      "Ġ ha",
      "a s",
      "l e",
      "' s",
      "Ġ h",
      "Ġ he",
      "Ġ in",
      "u s",
      "i ll",
      "k e",
      "Ġb e",
      "o o",
      "Ġi s",
      "Ġf or",
      "Ġt h",
      "Ġw e",
      "Ġ on",
      "Ġ T",
      "u t",
      "a c",
      "Ġ S",
      "i d",
      "' t",
      "i e",
      ". .",
      "Ġ e",
      "Ġo f",
      "Ġm e",
      "i m",
      "Ġ W",
      "Ġ H",
      "l d",
      "a m",
      "Ġ re",
      "g h",
      "Ġt hat",
      "om e",
      "Ġ A",
      "l y",
      "a l",
      "Ġw ill",
      "ou t",
      "Ġd o",
      "Ġ :",
      "a d",
      "Ġ k",
      "Ġn e",
      "e l",
      "Ġs t",
      "Ġs o",
      "a ll",
      "Ġha ve",
      "o s",
      "Ġ Y",
      "Ġa t",
      "Ġ u",
      "Ġ M",
      "it h",
      "gh t",
      "v er",
      "Ġg o",
      "Ġa re",
      "r y",
      "r i",
      "Ġw ith",
      "Ġa n",
      "Ġb ut",
      "ou ld",
      "Ġ j",
      "Ġs e",
      "Ġc an",
      "i a",
      "Ġn ot",
      "Ġ čĊ",
      "us t",
      "i r",
      "r o",
      "Ġk n",
      "ha n",
      "t er",
      "e a",
      "c h",
      "Ġ O",
      "Ġl i",
      "Ġkn ow",
      "en t",
      "Ġ B",
      "an t",
      "Ġ C",
      "' m",
      "i on",
      "Ġw as",
      "Ġm y",
      "Ġa b",
      "he r",
      "Ġs u",
      "o p",
      "Ġ N",
      "Ġ D",
      "Ġa s",
      "k s",
      "all y",
      "Ġd on",
      "i l",
      "Ġab out",
      "u l",
      "Ġw hat",
      "ar t",
      "' ll",
      "e ll",
      "Ġ J",
      "Ġ L",
      "Ġhe r",
      "â Ģ",
      "r a",
      "Ġs h",
      "in k",
      "oo d",
      "Ġw or",
      "n a",
      "d ay",
      "Ġth is",
      "a ke",
      "o l",
      "at e",
      "t h",
      "Ġf r",
      "ic k",
      ".. .",
      "Ġj ust",
      "Ġs ome",
      "Ġs he",
      "Ġli ke",
      "s t",
      "in e",
      "e c",
      "ac k",
      "Ġthe re",
      "Ġw ant",
      "Ġyou r",
      "an d",
      "Ġa l",
      "es s",
      "! !",
      "Ġw h",
      "ou r",
      "p p",
      "âĢ Ļ",
      "o re",
      "ĠT he",
      "Ġ G",
      "Ġp l",
      "i le",
      "Ġ P",
      "u r",
      "Ġg et",
      "a b",
      "Ġth ink",
      "i ght",
      "ic e",
      "o b",
      "in d",
      "im e",
      "M ar",
      "Ġse e",
      "Ġu p",
      "c e",
      "Ġthe y",
      "u n",
      "s e",
      "Ġ <",
      "Ġgo ing",
      "Ġan y",
      "oo k",
      "g e",
      "Ġt ime",
      "ĠI t",
      "Ġd id",
      "on e",
      "ea h",
      "ð Ł",
      "as t",
      "ver y",
      "Ġw he",
      "Ġto o",
      "Ġne ed",
      "ĠH e",
      "a re",
      "Ġo k",
      "c k",
      "Ġon e",
      "ĠY ou",
      "f f",
      "Ġn o",
      "Ġ: )",
      "r is",
      "es t",
      "A n",
      "Ġha s",
      "Ġ or",
      "Ġa ll",
      "Ġ F",
      "J o",
      "Ġfr om",
      "Ġp ro",
      "Ġg ood",
      "Ġ out",
      "' re",
      "t e",
      "f ile",
      "u y",
      "ot her",
      "Ġi f",
      "Ġe x",
      "Ġ R",
      "r ow",
      "Ġwor k",
      "Ġ E",
      "n t",
      "h ing",
      "Ġh im",
      "Ġc om",
      "ĠW hat",
      "u m",
      "ou nd",
      "v en",
      "Ġre ally",
      "Ġh is",
      "m a",
      "Ġ 1",
      "u re",
      "e p",
      "Ġn ow",
      "n y",
      "Ġw ould",
      "Ġt han",
      "Ġwe e",
      "Ġ us",
      "ay s",
      "Ġme et",
      "l i",
      "Ġc ome",
      "Ġthe m",
      "ac e",
      "a in",
      "Ġh ow",
      "Ġne w",
      "at ion",
      "or row",
      "b er",
      "re at",
      "ar d",
      "ar a",
      "Ġg ot",
      "o ve",
      "Ġc on",
      "b e",
      "i ve",
      "e ar",
      "e e",
      "Ġsu re",
      "q u",
      "re s",
      "it e",
      "in a",
      "i an",
      "r an",
      "ðŁ ĺ",
      "Ġ v",
      "i f",
      "ri ght",
      "Ġ 2",
      "Ġthe n",
      "u d",
      "Ġsh ould",
      "Ġwhe n",
      "Ġa g",
      "b le",
      "al k",
      "i g",
      "Ġf e",
      "ec t",
      "c t",
      "Ġto m",
      "Ġs p",
      "x t",
      "om et",
      "a k",
      "Ġy es",
      "h n",
      "Ġ r",
      "' ve",
      "Ġa f",
      "Ġ K",
      "us e",
      "Ġtom orrow",
      "ĠA nd",
      "on g",
      "os t",
      "ĠN o",
      "am e",
      "Ġb ack",
      "h ris",
      "er s",
      "u ch",
      "p h",
      "ĠW e",
      "re d",
      "Ġs omet",
      "c a",
      "Ġ right",
      "Ġh ome",
      "e m",
      "or t",
      "Ġm uch",
      "Ġa r",
      "l a",
      "th ing",
      "u e",
      "ay be",
      "oo l",
      "n e",
      "Ġ ;",
      "o d",
      "Ġa m",
      "ĠS he",
      "T om",
      "ĠT han",
      "ha r",
      "Ġdo es",
      "a ul",
      "ĠB ut",
      "Ġof f",
      "ou s",
      "Ġl ook",
      "ĠO k",
      "Ġl et",
      "Ġbe en",
      "Ġha d",
      "a it",
      "ĠY es",
      "Ġc ould",
      "Ġaf ter",
      "Ġt ake",
      "Ġto day",
      "ĠY eah",
      "ĠH a",
      "Ġwe ll",
      "i ke",
      "Ġsomet hing",
      "ot o",
      "Ġs a",
      "ou gh",
      "ad y",
      "Ġt alk",
      "Ġe very",
      "Ġm ore",
      "i ly",
      "t y",
      "Ġha pp",
      "an na",
      "Ġc l",
      "L u",
      "ĠH ow",
      "Ġc he",
      "Ġm an",
      "Ġp art",
      "e nd",
      "Ġb y",
      "ĠS o",
      "ic a",
      "C ar",
      "a v",
      "ĠT hat",
      "or ry",
      "os e",
      "as s",
      "Ġg reat",
      "Ġy eah",
      "? ?",
      "Ġw ait",
      "v ing",
      "Ġp re",
      "Ġw on",
      "Ġl ove",
      "a g",
      "ĠThe y",
      "Ġas k",
      "ĠO h",
      "A l",
      "Ġb r",
      "Ġne xt",
      "Jo hn",
      "Ġl ast",
      "et er",
      "Ġc all",
      "is t",
      "n ing",
      "Ġe ven",
      "Ġ qu",
      "ou ght",
      "Ġb et",
      "Ġb uy",
      "Ġst ill",
      "as e",
      "Ġm ake",
      "m y",
      "ac t",
      "Ġwh y",
      "ie nd",
      "Ġhe l",
      "ĠH i",
      "Ġdid n",
      "Ġ very",
      "Ġhel p",
      "ph oto",
      "Ġw at",
      "is h",
      "h y",
      "i es",
      "id e",
      "p er",
      "u ck",
      "ca use",
      "Ġwh o",
      "Ġc h",
      "c y",
      "ar y",
      "Ġbe cause",
      "i z",
      "Ġi d",
      "op e",
      "Ġg uy",
      "Ġhe re",
      "Ġwee k",
      "o in",
      "E m",
      "P aul",
      "Ġth ing",
      "Ġ; )",
      "le x",
      "D an",
      "Ġc o",
      "Ġha ha",
      "Ġl e",
      "Ġpl ace",
      "an e",
      "o y",
      "Ġy ear",
      "Ġthan ks",
      "is s",
      "Ġp e",
      "Ġ ðŁĺ",
      "Ġt ry",
      "Ġt ell",
      "Ġ 3",
      "re e",
      "K ate",
      "Ġo ver",
      "Ġ x",
      "S am",
      "Ġwe re",
      "ic t",
      "Ġ other",
      "Ġfe el",
      "ow n",
      "op le",
      "Ġw ay",
      "res s",
      "e re",
      "Ġd e",
      "l ie",
      "Ġs ay",
      "Ġd ay",
      "Ġwant s",
      "t ing",
      "Ġ our",
      "Ġp r",
      "w ay",
      "g et",
      "Ġdoes n",
      "er t",
      "Ġn ice",
      "ĠHe y",
      "Ġpe ople",
      "Ġ en",
      "u b",
      "Ġm aybe",
      "a il",
      "ar ry",
      "Ġt e",
      "ble m",
      "w ays",
      "Ġs orry",
      "m ent",
      "A nd",
      "ic h",
      "Ġon ly",
      "s o",
      "Ġf ind",
      "Ġpro blem",
      "ĠThan ks",
      "Ġt on",
      "Ġm in",
      "Ġ 5",
      "ĠW ell",
      "it y",
      "i p",
      "Ġcom ing",
      "Ġbet ter",
      "g an",
      "ĠD o",
      "Ġl ot",
      "M art",
      "Ġa d",
      "re ady",
      "Ġd i",
      "os s",
      "Mar y",
      "C hris",
      "J en",
      "P eter",
      "he re",
      "P at",
      "Ġme an",
      "a p",
      "Ġal ready",
      "A d",
      "a u",
      "Ġg u",
      "Ġwhe re",
      "Ġse nd",
      "Ġag ain",
      "at t",
      "A lex",
      "Ġre c",
      "Ġpart y",
      "Ġton ight",
      "Ġpl an",
      "An na",
      "at er",
      "Ġfr iend",
      "l o",
      "Ġst art",
      "R ob",
      "Ġb it",
      "J ack",
      "m m",
      "ir st",
      "am es",
      "Ġre m",
      "Ġp h",
      "Ġn ight",
      "as on",
      "le ase",
      "ĠT h",
      "M ike",
      "ac h",
      "ir l",
      "Ġany thing",
      "Ġcom p",
      "Ġ U",
      "F ran",
      "ar k",
      "Ġal ways",
      "Ġb us",
      "Ġwat ch",
      "on na",
      "Ġc ar",
      "' d",
      "S ara",
      "Ġid ea",
      "ll y",
      "at her",
      "Ġg ive",
      "Ġt r",
      "Ġl ong",
      "ĠC an",
      "ĠN ot",
      "f ore",
      "is e",
      "J ul",
      "ĠS ure",
      "Ġ -",
      "a ge",
      "Ġthe ir",
      "a h",
      "Ġche ck",
      "Ġd r",
      "Ġal so",
      "Ġguy s",
      "in n",
      "i ous",
      "B r",
      "Ġt w",
      "Ġ ke",
      "Ġhapp en",
      "Ġpl ay",
      "g g",
      "Ġw r",
      "ie l",
      "Ġbe fore",
      "Ġf un",
      "Ġg r",
      "it t",
      "!! !",
      "is a",
      "u ally",
      "Ġf ine",
      "Ġc our",
      "Ġo h",
      "le y",
      "c he",
      "Ġa pp",
      "Ġ1 0",
      "J os",
      "Ġl ea",
      "Ġst ay",
      "Ġi m",
      "Ġh our",
      "Ġar ound",
      "Ġu n",
      "Ġbr ing",
      "Ġso on",
      "r ic",
      "Ġg irl",
      "Ġt ra",
      "s el",
      "Ġ V",
      "Ġf irst",
      "Ġ 4",
      "Ġth ought",
      "em ber",
      "ĠA re",
      "Ġc han",
      "A m",
      "Ġy et",
      "Ġex p",
      "ab le",
      "Ġl ate",
      "Mar k",
      "one y",
      "Ġf in",
      "Ġcour se",
      "ĠI s",
      "o v",
      "ound s",
      "c c",
      "Ġp er",
      "An n",
      "on ica",
      "Ġb ad",
      "Ġmeet ing",
      "a x",
      "id ay",
      "ke nd",
      "Ġgu ess",
      "Ġm on",
      "ĠJ o",
      "Ġwee kend",
      "s h",
      "Ġ ro",
      "p t",
      "Ġf l",
      "Ġl ater",
      "S te",
      "J ane",
      "Ġa ct",
      "v ia",
      "ĠJ ust",
      "Ġdo ing",
      "Ġp ick",
      "O li",
      "Ġl ol",
      "Ġ: (",
      "l es",
      "Ġj ob",
      "ĠC hris",
      "d er",
      "er ry",
      "B en",
      "T im",
      "e or",
      "v in",
      "Ġ \"",
      "Ġ 7",
      "Ġs er",
      "ind a",
      "ĠHa ve",
      "oo ks",
      "Ġmin ut",
      "e an",
      "Ġt ri",
      "Ġh ope",
      "ou p",
      "ou nt",
      "Ġst u",
      "Ġb ook",
      "J im",
      "f t",
      "sel f",
      "M att",
      "ĠG ood",
      "C har",
      "Ġd ec",
      "Ġ 6",
      "Ġb l",
      "Ġp lease",
      "v a",
      "ĠA n",
      "ĠW hy",
      "et h",
      "Ġ Ċ",
      "M ic",
      "Ġne ver",
      "Ġtw o",
      "N at",
      "Ġb est",
      "J ess",
      "on d",
      "Ġ ðŁ",
      "Ġv is",
      "ĠS t",
      "Ġmon th",
      "Ġin v",
      "Ġse en",
      "a ve",
      "re w",
      "re g",
      "f e",
      "w e",
      "or d",
      "Ġrem ember",
      "L e",
      "re st",
      "Ġto ld",
      "Ġd own",
      "o g",
      "ĠF r",
      "ĠO K",
      "Ġc are",
      "and a",
      "ak ing",
      "av id",
      "Ġk id",
      "ad e",
      "Ġj oin",
      "Ġvis it",
      "Ġc ool",
      "ch ool",
      "i am",
      "Ġs c",
      "Ġm ight",
      "or y",
      "y l",
      "Ġ 8",
      "Ġd ays",
      "Ġm or",
      "ab ly",
      "Ġcl ass",
      "Ġg onna",
      "Ġd is",
      "ĠM aybe",
      "Ġlook ing",
      "ĠA l",
      "Ġh i",
      "g if",
      "on a",
      "ĠThan k",
      "Ġevery thing",
      "i ld",
      "Ad am",
      "od y",
      "e b",
      "Ġre ad",
      "ll e",
      "Ġsh ow",
      "Ġs ame",
      "Ġs chool",
      "on y",
      "at ur",
      "Ġw ent",
      "itt le",
      "m as",
      "ter day",
      "nd er",
      "Ġwh ich",
      "get her",
      "Ġhapp y",
      "t o",
      "ict or",
      "Ġdi ff",
      "i re",
      "Ġpro b",
      "eor ge",
      "ha el",
      "Ġsa id",
      "or m",
      "Ġb ir",
      "ĠD id",
      "Ġminut es",
      "ou se",
      "et s",
      "ĠD on",
      "Ġsh op",
      "n g",
      "Ġo ld",
      "Ġin te",
      "Ġl ittle",
      "he n",
      "Ġth ough",
      "Ġre s",
      "Ġmor ning",
      "Ġhe y",
      "Ġto gether",
      "Sara h",
      "ion s",
      "Ġ X",
      "are nt",
      "au ra",
      "Ġfe w",
      "Ġm iss",
      "ĠA ny",
      "ĠM ar",
      "op h",
      "inn er",
      "Ġyes terday",
      "E ll",
      "p ort",
      "W ill",
      "Ġthing s",
      "T he",
      "Ġ: -",
      "Ġneed s",
      "o lly",
      "ell y",
      "Ġe at",
      "Ġb ot",
      "ar b",
      "i al",
      "Ġa cc",
      "ĠT om",
      "Ġwant ed",
      "f ect",
      "Jos h",
      ".. ..",
      "Ġu nder",
      "Ġsu pp",
      "Ġm oney",
      "ĠFr iday",
      "ac he",
      "Ġinte rest",
      "I s",
      "ĠI f",
      "atur day",
      "en s",
      "Ġle ft",
      "0 0",
      "Ġbir th",
      "Ġf ree",
      "ell a",
      "v es",
      "Ġb ig",
      "Ġwait ing",
      "? !",
      "Ġget ting",
      "G reg",
      "Ġm om",
      "Fran k",
      "J ames",
      "Ġs m",
      "Ġke ep",
      "re n",
      "Ġit s",
      "ĠThe re",
      "ĠChris t",
      "ĠM e",
      "oin t",
      "Ġb ro",
      "n es",
      "ri an",
      "J ake",
      "ĠS ee",
      "Ġdon e",
      "J ac",
      "Ġd inner",
      "Em ma",
      "ĠN e",
      "el en",
      "e ff",
      "ur n",
      "Ġbirth day",
      "Ġhe ard",
      "Ġe ar",
      "ĠM y",
      "Ġqu ite",
      "f ul",
      "ĠI n",
      "M el",
      "K im",
      "ĠHa ha",
      "an y",
      "Ġthink ing",
      "K e",
      "z y",
      "Ġwork ing",
      "Ġm ov",
      "Ġli k",
      "w ard",
      "om m",
      "n o",
      "Ġact ually",
      "m s",
      "act ly",
      "Ġstu ff",
      "b y",
      "le ep",
      "Ġhappen ed",
      "Ġh ouse",
      "Ġman y",
      "u p",
      "Ġe nd",
      "g ot",
      "Ġs ounds",
      "i er",
      "ri ve",
      "ac y",
      "Ġe l",
      "Ġre st",
      "Ġprob ably",
      "3 0",
      "or a",
      "an cy",
      "M onica",
      "V ictor",
      "Ġt ick",
      "D avid",
      "en ry",
      "Ġha ven",
      "ĠS aturday",
      "ĠW h",
      "Car ol",
      "S t",
      "t ty",
      "Ġha r",
      "Ġnot hing",
      "Al ice",
      "Ġst ud",
      "G eorge",
      "Ġs ha",
      "et e",
      "M e",
      "Ġcon t",
      "Mart ha",
      "Ġp ay",
      "âĢ ¦",
      "Em ily",
      "N ick",
      "Ġa w",
      "Jo e",
      "Dan iel",
      "Ġf ound",
      "us an",
      "ul t",
      "Ġb re",
      "Ġf ood",
      "L aura",
      "ĠW here",
      "Ġlea ve",
      "ian a",
      "ĠW hen",
      "n ie",
      "o e",
      "Ġf am",
      "Ġhe ar",
      "Ġel se",
      "Ġfriend s",
      "Ġc at",
      "Jen ny",
      "o c",
      "ĠL et",
      "anna h",
      "Ġbus y",
      "A r",
      "r ick",
      "z a",
      "ĠW ill",
      "Ġsu r",
      "at h",
      "ill y",
      "M ia",
      "H arry",
      "un ch",
      "Ġm ay",
      "And y",
      "ĠJo hn",
      "M ax",
      "in ks",
      "F red",
      "c ar",
      "Ġk ind",
      "a ir",
      "im es",
      "Mar ia",
      "Ġoff ice",
      "ĠChrist mas",
      "Ġwor ry",
      "are n",
      "i k",
      "i o",
      "ud e",
      "Oli via",
      "L inda",
      "at ed",
      "P h",
      "Ġf uck",
      "Ġbe lie",
      "S oph",
      "a w",
      "Ġsome one",
      "Ġhaha ha",
      "Ġpre tty",
      "Ġsu ch",
      "Lu cy",
      "Ġst op",
      "B ob",
      "Ġp res",
      "Ġo p",
      "Ġfor got",
      "Ġph one",
      "j ect",
      "and y",
      "L isa",
      "Ġb ab",
      "Ġb ought",
      "arent s",
      "Ġp m",
      "and ra",
      "s on",
      "Ġha ving",
      "Ġthan k",
      "Ġw anna",
      "Ġan other",
      "d ing",
      "Ġl ooks",
      "Ġeven ing",
      "in ce",
      "ĠL O",
      "ĠG reat",
      "Ġok ay",
      "H elen",
      "a a",
      "Ġm ind",
      "Ġ (",
      "ĠS u",
      "ma z",
      "l ine",
      "Lu ke",
      "i x",
      "um ber",
      "Ġ hat",
      "Ġ: /",
      "Rob ert",
      "Ġdiff ere",
      "t a",
      "Ġyear s",
      "p e",
      "Ġp arents",
      "Ġ2 0",
      "Ġin to",
      "i en",
      "p ing",
      "el a",
      "ver s",
      "ache l",
      "H enry",
      "ig n",
      "Ġs leep",
      "Jul ia",
      "Mic hael",
      "d y",
      "i ble",
      "re y",
      "Ġrec omm",
      "Ġm ost",
      "Ġrecomm end",
      "Ġa way",
      "Ġex c",
      "j oy",
      "!! !!",
      "an ce",
      "ut e",
      "Ġro om",
      "Ġm ade",
      "Ġse c",
      "Ġdon t",
      "J eff",
      "ĠH ell",
      "Ġag o",
      "ĠS h",
      "ak es",
      "Ġus e",
      "Ġhar d",
      "che d",
      "f r",
      "Ġp ut",
      "Ġdr ink",
      "Jac ob",
      "Ġsa w",
      "Ġper fect",
      "g er",
      "Ġtri p",
      "p m",
      "Ġli fe",
      "ation s",
      "Ġl ist",
      "ĠB r",
      "Ġbot h",
      "Ġs ent",
      "S ue",
      "at ing",
      "Ġd el",
      "Ste ve",
      "it ed",
      "A b",
      "u g",
      "Ġl uck",
      "ĠTh is",
      "Ġc ook",
      "os ed",
      "Ġbelie ve",
      "G r",
      "S usan",
      "An g",
      "Ġtra in",
      "Ġunder st",
      "u es",
      "Ġth ose",
      "K elly",
      "ri ed",
      "Ġpre p",
      "Ġen ough",
      "ĠLO L",
      "Ġn umber",
      "Ġcon f",
      "ne y",
      "Ġg ame",
      "Ġte xt",
      "i v",
      "ĠS orry",
      "en ny",
      "Ġe as",
      "Ġkid s",
      "Ġg l",
      "Ġe ach",
      "Ġser ious",
      "Ġm ust",
      "Ġre ady",
      "ict ure",
      "Ġmov ie",
      "Ġfam ily",
      "it her",
      "ers on",
      "J an",
      "ĠOk ay",
      "Ġm ess",
      "ĠL u",
      "Ġthe se",
      "ĠHell o",
      "Lu c",
      "i b",
      "Ġp ass",
      "ĠC ar",
      "Ġle ast",
      "e ver",
      "Ġwh ile",
      "Ġdis c",
      "Ġs we",
      "maz ing",
      "k y",
      "And rew",
      "Ġhour s",
      "Ġ 9",
      "Ġd ress",
      "H annah",
      "he s",
      "Ġtick ets",
      "A my",
      "B arb",
      "et ty",
      "ent s",
      "Ġex am",
      "Ġm um",
      "G ab",
      "Ġp ost",
      "Ġx D",
      "ĠX D",
      "E l",
      "Ġf ar",
      "is on",
      "us s",
      "E d",
      "s ide",
      "Ġcomp l",
      "Ġunderst and",
      "Ġs ick",
      "C l",
      "Ġd ad",
      "en a",
      "ic s",
      "Ġ: *",
      "ff ee",
      "Ġevery one",
      "Ġdiffere nt",
      "Ġm ove",
      "ĠM on",
      "o le",
      "r ie",
      "w here",
      "Ġin st",
      "Ġsh it",
      "Ġad v",
      "i red",
      "K aren",
      "t on",
      "Ġl unch",
      "Ġex actly",
      "ĠR e",
      "Ġth r",
      "Ġchan ge",
      "Ġc r",
      "d ie",
      "Ġc le",
      "om as",
      "as h",
      "a use",
      "Ġany way",
      "C la",
      "or k",
      "A sh",
      "ide o",
      "b r",
      "Ġin f",
      "Ġwatch ing",
      "Ġen joy",
      "ric ia",
      "Ġwee ks",
      "Ġm at",
      "Ġd es",
      "Ke vin",
      "Ġin ter",
      "ut h",
      "ol a",
      "fr iend",
      "on s",
      "Ġb oy",
      "Ġbe ing",
      "Ġtr ue",
      "s car",
      "K at",
      "Ġd ate",
      "Z oe",
      "if t",
      "Ġqu est",
      "a ur",
      "Ġco ffee",
      "Mart in",
      "E li",
      "N o",
      "Jess ica",
      "A g",
      "n ce",
      "o ld",
      "u al",
      "Ġh ot",
      "ir d",
      "l ing",
      "Ġl ess",
      "b s",
      "h h",
      "Ġa mazing",
      "el ia",
      "an k",
      "ma il",
      "l or",
      "Ġp erson",
      "Ġ1 5",
      "gg est",
      "Ġ own",
      "ar s",
      "Ġsu ggest",
      "I an",
      "Ġp icture",
      "J ason",
      "ion a",
      "Ġwho le",
      "Am anda",
      "Ġn ame",
      "it ion",
      "Ġplan s",
      "f in",
      "Ġa p",
      "Ġc ra",
      "oo oo",
      "Ġs is",
      "Ġx x",
      "Ġshop ping",
      "ic al",
      "B ill",
      "R achel",
      "et te",
      "ick y",
      "Ġtalk ing",
      "w n",
      "es ome",
      "N ancy",
      "re t",
      "Ġbre ak",
      "m e",
      "T ina",
      "T h",
      "Ġis n",
      "f er",
      "Ġad d",
      "ĠS p",
      "Ġus ed",
      "Ġcon c",
      "Ġpro ject",
      "E va",
      "h lo",
      "m ost",
      "o ot",
      "il a",
      "p ris",
      "Ġc oup",
      "Ġsee ms",
      "M ay",
      "Ġre al",
      "Ġtoo k",
      "m er",
      "Ġm et",
      "Ġhe ad",
      "An ne",
      "iz za",
      "he d",
      "Ġgr oup",
      "L iz",
      "S im",
      "er y",
      "Ġr un",
      "Ġcall ed",
      "hlo e",
      "Ġst h",
      "Ġor der",
      "J ay",
      "y le",
      "Ġd ep",
      "H ar",
      "Ġs it",
      "Ġs ince",
      "nt il",
      "ot hy",
      "ri es",
      "T ony",
      "Ġnew s",
      "Ġpr om",
      "Ġ:- )",
      "E ve",
      "a le",
      "o x",
      "D ave",
      "Ġh ol",
      "Ġon ce",
      "ĠD an",
      "en n",
      "Ġw alk",
      "Ġp oint",
      "ĠT r",
      "Ġ ra",
      "nd ay",
      "Ġp a",
      "Ġa v",
      "ĠS am",
      "Ġsp end",
      "Pat rick",
      "Soph ie",
      "Ġop en",
      "Ġab le",
      "b ody",
      "l f",
      "Ġe ver",
      "Ġask ed",
      "Ġm ar",
      "ens ive",
      "Ph il",
      "Ġpres ent",
      "D iana",
      "Ġas s",
      "t en",
      "Ġc ount",
      "ep h",
      "Ġthr ough",
      "Ġs et",
      "Ġdo g",
      "Paul a",
      "Ġsur pris",
      "r s",
      "Ġhe ll",
      "?? ?",
      "Ġhat e",
      "Ġs w",
      "ly n",
      "Ġu ntil",
      "Ġtry ing",
      "Ġt est",
      "Ġwe ar",
      "ite ly",
      "Ġwas n",
      "Ġha nd",
      "Ġwith out",
      "G ina",
      "it a",
      "ĠO f",
      "Ġfeel ing",
      "Ġmonth s",
      "Ġcoup le",
      "t han",
      "ur s",
      "fin itely",
      "a ut",
      "c o",
      "u ll",
      "Ġal most",
      "ĠF ran",
      "ĠE m",
      "Ġwon der",
      "Victor ia",
      "Ġprep are",
      "S ally",
      "v ie",
      "y e",
      "M ag",
      "u el",
      "ve l",
      "o ll",
      "Ġf av",
      "Luc as",
      "d e",
      "an a",
      "Ġcon s",
      "Pat ricia",
      "o k",
      "Ġt er",
      "Ġsp ec",
      "ct or",
      "R ose",
      "Ġt aking",
      "he w",
      "ĠP aul",
      "c es",
      "Ġb ed",
      "Ġlik es",
      "Ġwor ks",
      "Ġany one",
      "Ġsupp osed",
      "p l",
      "Ġfl ight",
      "D or",
      "O scar",
      "g ie",
      "Ġt urn",
      "Ġbe aut",
      "m an",
      "n ot",
      "Ġp izza",
      "it ing",
      "he lle",
      "Ġexp ensive",
      "Ġwr ong",
      "T r",
      "Ġs k",
      "ĠC ool",
      "M om",
      "ot t",
      "Ġim p",
      "ĠSu nday",
      "re am",
      "ĠM ike",
      "Ġag ree",
      "Chris t",
      "r at",
      "Ġw ish",
      "Ġth inks",
      "Ġgirl s",
      "L iam",
      "o ck",
      "Ġs ays",
      "Ġor gan",
      "Ġbab y",
      "Ġli ve",
      "T erry",
      "Ġfun ny",
      "Nat al",
      "Is ab",
      "Ġp ol",
      "ri ble",
      "No ah",
      "ĠJ ack",
      "Ġc ity",
      "ĠP eter",
      "Ġwr ite",
      "S andra",
      "m ore",
      "w en",
      "y n",
      "Ġp oss",
      "Jo an",
      "Ġswe et",
      "ĠMon day",
      "L ou",
      "y an",
      "Ġw ine",
      "an g",
      "ur ing",
      "Ġstart ed",
      "i gh",
      "if er",
      "Ġlea ving",
      "Le o",
      "Ġinterest ing",
      "Ġre d",
      "B rian",
      "Ġsis ter",
      "p s",
      "ile y",
      "un e",
      "ran s",
      "F iona",
      "en e",
      "Ġ3 0",
      "ke y",
      "Ġsu per",
      "d en",
      "Ġu r",
      "ust in",
      "art ment",
      "har d",
      "Ġch ild",
      "Th omas",
      "B etty",
      "Ġw ed",
      "Ġc har",
      "ĠM ary",
      "c ome",
      "ce pt",
      "Char lie",
      "ona ld",
      "ĠA s",
      "Ġ1 2",
      "Ġar rive",
      "Ġplan ning",
      "Ġfin is",
      "Ġbe er",
      "ra id",
      "Ġexp ect",
      "Ġre g",
      "Ġmy self",
      "J on",
      "Ġto wn",
      "ant ha",
      "c ks",
      "Ġm us",
      "Ġha lf",
      "ĠA ll",
      "a is",
      "Ġt ired",
      "Ġg ift",
      "E ric",
      "u ct",
      "ĠK ate",
      "R ick",
      "on t",
      "Ġl ost",
      "ind y",
      "Gr ace",
      "Ġstud y",
      "g ry",
      "D ar",
      "l ot",
      "Ġy a",
      "ĠE x",
      "Ġde al",
      "Ġc ame",
      "ĠL ike",
      "Ġany more",
      "M ad",
      "R on",
      "l in",
      "Ġcan not",
      "Ġchan g",
      "Ash ley",
      "R e",
      "Ġh or",
      "ĠR ob",
      "u z",
      "Ġc ase",
      "Ġwould n",
      "Ġplay ing",
      "ĠNe w",
      "Ġe m",
      "are t",
      "Ġaf raid",
      "Ġear ly",
      "C on",
      "iz e",
      "C hloe",
      "ea k",
      "if ul",
      "Ġph oto",
      "Ġdec id",
      "C am",
      "a i",
      "Ġt rans",
      "ha ha",
      "Ġd uring",
      "Ġinterest ed",
      "v ent",
      "Ġw in",
      "R ic",
      "e w",
      "iss a",
      "Ġwed ding",
      "Ġaw esome",
      "aur ant",
      "Ġcould n",
      "ĠS te",
      "Ġe mail",
      "Ġcle an",
      "- )",
      "N ina",
      "Ġc ost",
      "at es",
      "Jos eph",
      "Ġt imes",
      "Ġon line",
      "ĠO n",
      "Jen n",
      "Ġw ar",
      "Ġtri ed",
      "Sim on",
      "id ent",
      "Ag nes",
      "Ġh on",
      "ĠM art",
      "Char les",
      "ab eth",
      "Ġafter no",
      "Al an",
      "Ġco ld",
      "ail s",
      "Ġcomp any",
      "Will iam",
      "ur t",
      "Ġask ing",
      "Ġeas y",
      "Ġ ?",
      "Ġd ri",
      "ĠS ounds",
      "ĠM ark",
      "K ar",
      "e ad",
      "Ġto t",
      "Br ad",
      "L ily",
      "ent ly",
      "ĠP at",
      "Ġrest aurant",
      "ais y",
      "o gan",
      "Ġd rive",
      "ot e",
      "Ġdo ctor",
      "ig ail",
      "it al",
      "Ġde finitely",
      "Me gan",
      "Barb ara",
      "o or",
      "or n",
      "Ġp ub",
      "os p",
      "Ġafterno on",
      "a z",
      "Ġm other",
      "id er",
      "T ed",
      "Ġs ong",
      "oo se",
      "v an",
      "Ġbeaut iful",
      "Cla ire",
      "urs day",
      "in s",
      "Ġw ow",
      "Ġm ed",
      "Ġg i",
      "ĠW ow",
      "Mar g",
      "Ġclass es",
      "Ġbro ke",
      "f ort",
      "Ġsm all",
      "ĠWh o",
      "Ġconc ert",
      "Ġyour self",
      "ĠP lease",
      "ĠF or",
      "Ġfor get",
      "um p",
      "W end",
      "l and",
      "Ġs n",
      "Carol ine",
      "P am",
      "Ġa ir",
      "Car l",
      "o ke",
      "re nd",
      "ĠA d",
      "os h",
      "ĠM ay",
      "Ġlik ed",
      "Me g",
      "H e",
      "p le",
      "v or",
      "Ġb as",
      "Ġha ir",
      "ĠB e",
      "Ġbr other",
      "Ġcont act",
      "ĠRe ally",
      "Ġ ent",
      "Ġb oss",
      "Ġm aking",
      "Ġf il",
      "Ġfin ish",
      "Ġlist en",
      "o ice",
      "Ġm ine",
      "Ġl ear",
      "ro p",
      "ĠO M",
      "ĠC h",
      "Ġke y",
      "Ġim port",
      "Ġsec ond",
      "E r",
      "Ġte ac",
      "Ġ ...",
      "Ġb u",
      "Ġp ain",
      "ĠN ow",
      "Ġal one",
      "y m",
      "Ġa c",
      "Ġs l",
      "es e",
      "ail able",
      "Ġcra zy",
      "M at",
      "S ean",
      "in ess",
      "Ġhi gh",
      "St an",
      "ĠOM G",
      "ĠO r",
      "ĠC ould",
      "P ete",
      "Ġt ill",
      "Ġquest ion",
      "Ġimport ant",
      "m ed",
      "s w",
      "ĠW ed",
      "Wend y",
      "Ġc ha",
      "Ġd et",
      "ine ma",
      "Ġwe ather",
      "ra b",
      "Sam antha",
      "Ġfin ally",
      "R yan",
      "ĠA t",
      "al s",
      "Ġre t",
      "Ġat t",
      "Ġan n",
      "ate ly",
      "ris t",
      "Ġfl at",
      "Ġinf orm",
      "D onna",
      "J erry",
      "N ic",
      "c ed",
      "ĠA lex",
      "ol og",
      "ore d",
      "Ġte am",
      "c i",
      "ar on",
      "Ġe ither",
      "am ie",
      "Ġex t",
      "Ġco ll",
      "Ab igail",
      "Natal ie",
      "lot te",
      "ran ge",
      "o es",
      "Ġ ve",
      "re en",
      "ve d",
      "ĠY ep",
      "Ġhas n",
      "ĠðŁĺ Ĥ",
      "Am elia",
      "e le",
      "Ġb orrow",
      "or s",
      "et t",
      "it s",
      "Ġin s",
      "ĠS ara",
      "ul ar",
      "ĠJ ul",
      "nes day",
      "J ill",
      "Ġc ard",
      "res a",
      "Jul ie",
      "May a",
      "Ġav ailable",
      "Jenn ifer",
      "Ġ '",
      "ĠA m",
      "Ġout side",
      "Tr acy",
      "Ġdecid ed",
      "Ġsu mm",
      "un k",
      "Ġgl ad",
      "A va",
      "ou ch",
      "Ġm ate",
      "er n",
      "Ġon es",
      "R uth",
      "u ri",
      "Ġdisc uss",
      "Ġs im",
      "Ġg ave",
      "en ce",
      "ĠB en",
      "Ġsu b",
      "Ġwor ries",
      "ĠG r",
      "Ġspec ial",
      "E than",
      "an s",
      "Ġsome where",
      "Ġmom ent",
      "vie w",
      "Ġmus ic",
      "g n",
      "p id",
      "or ing",
      "Ġc ol",
      "Ġd ear",
      "Ġh u",
      "ent ion",
      "Ġproblem s",
      "w ork",
      "re et",
      "V er",
      "ing s",
      "Ġc inema",
      "oo o",
      "te nd",
      "Ġtalk ed",
      "ĠTh ursday",
      "ĠAn na",
      "Nat han",
      "Ġposs ible",
      "c el",
      "m in",
      "le as",
      "Ġne ar",
      "Ġse ason",
      "ma g",
      "Oli ver",
      "e as",
      "Ġo pt",
      "am n",
      "Mic helle",
      "Ġthat s",
      "Dor othy",
      "D on",
      "ay la",
      "ĠK e",
      "Ġstu pid",
      "H A",
      "l ish",
      "Ġre p",
      "Ġfr ont",
      "ues day",
      "Ġp ack",
      "are d",
      "if e",
      "Ġlove ly",
      "ĠWed nesday",
      "L ogan",
      "i ally",
      "y d",
      "Ġan sw",
      "ĠB l",
      "ell e",
      "ðŁĺ Ĥ",
      "Ġhot el",
      "ĠH ope",
      "ĠM ic",
      "ĠE ng",
      "v ious",
      "ĠI m",
      "Ġoff er",
      "Ġpre fer",
      "ag es",
      "a ure",
      "Ġc ute",
      "Ġin c",
      "us h",
      "Ġwor ld",
      "Ġar t",
      "ĠA r",
      "Ell a",
      "ien ce",
      "Marg aret",
      "B eth",
      "k a",
      "m ing",
      "Ġw om",
      "Ġun i",
      "Ġinst ead",
      "L illy",
      "Ġb ooks",
      "en se",
      "Ġknow s",
      "ber t",
      "Ġph ot",
      "Ġgr and",
      "u ce",
      "Ġp op",
      "Ġp ark",
      "Ġst ation",
      "ĠThe n",
      "Ric hard",
      "K yle",
      "ĠT o",
      "ir a",
      "ub y",
      "And re",
      "Ang ela",
      "Mag gie",
      "J ud",
      "Ġb o",
      "ĠH mm",
      "ĠP ol",
      "Ġ1 1",
      "ĠSh ould",
      "is ed",
      "Ġag re",
      "Ġcl ose",
      "ĠWh ich",
      "Ġs ing",
      "Ġm akes",
      "Ġk ill",
      "ec ky",
      "yl er",
      "Ġc ause",
      "ĠT uesday",
      "Ġr ather",
      "ere my",
      "Ġst and",
      "ĠP er",
      "Ġsp eak",
      "Ġrec ently",
      "Ġphot os",
      "as ha",
      "ĠW ould",
      "ter s",
      "li er",
      "Ġv ideo",
      "Ġacc ount",
      "Ġap artment",
      "M olly",
      "Ġst r",
      "ĠB ye",
      "Ġget s",
      "ĠE very",
      "od e",
      "Ġch oose",
      "Ġfinis hed",
      "Ġi ll",
      "Ġd ude",
      "u u",
      "ll ie",
      "ay lor",
      "Mar ie",
      "Ġwat er",
      "Ġde ad",
      "au ght",
      "Ġ Z",
      "Ġm id",
      "ic ally",
      "Ġche ap",
      "Ġtot ally",
      "Ġsumm er",
      "g a",
      "Ġs ort",
      "g o",
      "Ġs al",
      "Ġi mag",
      "Ġg ames",
      "ic ult",
      "Ġre ason",
      "Ġbuy ing",
      "w w",
      "Ġm o",
      "Ġwe ird",
      "Ġwor ried",
      "Ġx d",
      "R os",
      "S uz",
      "Ġexp l",
      "ĠðŁ Ļ",
      "Ġteac her",
      "D aisy",
      "L arry",
      "c is",
      "ic es",
      "Ġh un",
      "Jack ie",
      "Ġhon est",
      "i ed",
      "Ġ â",
      "Ġb ar",
      "at han",
      "Char lotte",
      "Ġinv ited",
      "Ġdet ails",
      "D D",
      "ll ing",
      "Ġsh ort",
      "ind s",
      "Car on",
      "Ġid eas",
      "ress ed",
      "Jim my",
      "rend a",
      "f u",
      "re ct",
      "er v",
      "Ġh osp",
      "Ġex per",
      "Ġcom m",
      "Ġbl ack",
      "Ġear lier",
      "Ġf ix",
      "ro om",
      "Ġsay ing",
      "S he",
      "g r",
      "Ġdiff icult",
      "Ġst ore",
      "Ġal right",
      "Ġgot ta",
      "Ġlong er",
      "yl an",
      "igh b",
      "b ook",
      "am p",
      "Ġdr unk",
      "Ġcat ch",
      "Ġwe l",
      "Ġre qu",
      "ĠJ an",
      "ĠL ook",
      "Ġcl ub",
      "Ġpicture s",
      "in t",
      "Ġg ym",
      "Ġman ag",
      "l ess",
      "Ġne ighb",
      "Mar c",
      "ap t",
      "ir t",
      "ĠR ight",
      "Ġwat ched",
      "ather ine",
      "Ell ie",
      "i ot",
      "ĠC har",
      "Jo anna",
      "ĠðŁ ¤",
      "n et",
      "re vor",
      "Ġg en",
      "om in",
      "Ġbus iness",
      "Ġhosp ital",
      "A aron",
      "K en",
      "i ff",
      "it che",
      "Ġcl ot",
      "we en",
      "J as",
      "Ġ et",
      "an c",
      "Ġh oney",
      "ĠU n",
      "Ġres p",
      "Ġsuggest s",
      "Ġfav our",
      "ĠN ice",
      "ĠP ro",
      "Pat ty",
      "ond on",
      "ĠEng lish",
      "v ideo",
      "Ġha ng",
      "Ġre ce",
      "ĠEx actly",
      "Ġansw er",
      "n er",
      "Ġs ad",
      "Ġto p",
      "Ġf act",
      "it ch",
      "Ġgo es",
      "Ġboy friend",
      "J eremy",
      "Ġ es",
      "ĠO li",
      "Ġsa fe",
      "eb ec",
      "Ġexc ited",
      "J ean",
      "m ber",
      "u ro",
      "ĠL e",
      "ĠL ondon",
      "ob y",
      "ast ic",
      "Ġpro f",
      "Ġc ele",
      "ere k",
      "Ġl au",
      "R uby",
      "c ott",
      "or i",
      "Ġp ast",
      "Ġth ree",
      "ĠM att",
      "ud rey",
      "air s",
      "Ġhol iday",
      "Ġlear n",
      "Ġwel come",
      "i et",
      "Ġm ain",
      "ĠT im",
      "il es",
      "ĠJ im",
      "Ġcom es",
      "li x",
      "Ġsomet imes",
      "Ġstay ing",
      "Ġgirl friend",
      "Ġmiss ed",
      "ik a",
      "Ġan gry",
      "p ec",
      "s s",
      "Ġ Q",
      "Ġth x",
      "ĠW anna",
      "al ph",
      "ĠC he",
      "ĠL ove",
      "ere nce",
      "Ġdec ide",
      "B art",
      "J amie",
      "Ġh mm",
      "Ġchan ce",
      "Ann ie",
      "Ġser ies",
      "Ġchild ren",
      "D am",
      "G ary",
      "on ia",
      "Ġf ly",
      "Ġcan t",
      "ĠN ope",
      "pp y",
      "ĠG od",
      "Ġus ual",
      "Ġet c",
      "Ġcele br",
      "b all",
      "j am",
      "u le",
      "re nt",
      "Ġl and",
      "Ġfor ward",
      "ĠJ ane",
      "Ġbet ween",
      "ĠðŁ ĳ",
      "Ġinv it",
      "Ġxx x",
      "ĠFran k",
      "ou d",
      "Ġs ign",
      "Ġkn ew",
      "ĠG ot",
      "Ġsee ing",
      "Ġfeel s",
      "Ġpr ice",
      "Mel issa",
      "Ġcompl ete",
      "pec ially",
      "C ha",
      "Ġc op",
      "ar is",
      "Ġre nt",
      "Ġdo or",
      "ĠM r",
      "S yl",
      "s y",
      "ï ¼",
      "ow er",
      "Ġre f",
      "Ġre l",
      "ĠD avid",
      "B ecky",
      "Ġt y",
      "Ġe p",
      "ĠJ ess",
      "ol ute",
      "ĠAny way",
      "Ġbot t",
      "H olly",
      "Ġs ound",
      "ĠC ome",
      "Ġmess age",
      "Ġcons ider",
      "l ic",
      "y y",
      "Ġe le",
      "ĠJ ames",
      "Ġman age",
      "ĠðŁĺ Ĭ",
      "ĠHaha ha",
      "V icky",
      "m en",
      "er g",
      "Ġdr inks",
      "Ġserious ly",
      "Nic ole",
      "u ation",
      "z e",
      "Ġb oring",
      "Ġc ent",
      "id ays",
      "ro y",
      "Ġab s",
      "Ġqu ick",
      "Ġinv ite",
      "oint ment",
      "Ġpa id",
      "u gh",
      "Ġb ored",
      "Ġc ake",
      "it ies",
      "ac es",
      "al th",
      "ff ic",
      "Ġimag ine",
      "Ġh op",
      "ace book",
      "Ġsha re",
      "d uct",
      "sh ip",
      "B renda",
      "T aylor",
      "a ly",
      "ï ¸",
      "Ġc ur",
      "Ġe vent",
      "Ġread ing",
      "Ver onica",
      "V al",
      "on es",
      "Ġp leas",
      "Ġnot es",
      "Ġwor th",
      "fu lly",
      "D ad",
      "f lix",
      "Ġa ff",
      "ĠA f",
      "Ġwhat ever",
      "ĠAn n",
      "Ġrun ning",
      "Ġclot hes",
      "ebec ca",
      "C indy",
      "Ġt ouch",
      "et flix",
      "Ġwor se",
      "Am ber",
      "Ġkid ding",
      "D eb",
      "L ee",
      "id ge",
      "ir anda",
      "Ġ; -)",
      "Ġch ick",
      "Ġapp ointment",
      "O wen",
      "Ġm ad",
      "Ġd ou",
      "ĠD ad",
      "ess a",
      "eb ast",
      "Ġacc ident",
      "Ġmar ried",
      "l ed",
      "ĠA b",
      "ĠY our",
      "ĠM om",
      "ild a",
      "c om",
      "y a",
      "Ġo b",
      "Matt hew",
      "Ġbl ue",
      "Ġadv ice",
      "ï¸ ı",
      "Ġ om",
      "Ġy ep",
      "Ġf ull",
      "ĠNot hing",
      "c le",
      "Ġp oor",
      "Ġl ink",
      "ĠS ome",
      "ward s",
      "Ġdri ving",
      "B l",
      "Ġt able",
      "ĠL ol",
      "har on",
      "Dan ny",
      "ĠTr ue",
      "C he",
      "R a",
      "ll a",
      "Ġyou ng",
      "ill a",
      "ĠA g",
      "ect ure",
      "ak en",
      "Ġother s",
      "Ġbook ed",
      "Ġrecommend s",
      "Ġcompl ain",
      "ĠPer fect",
      "J une",
      "Ġs ide",
      "ha m",
      "an ie",
      "ĠD e",
      "che s",
      "Ġsurpris e",
      "R ay",
      "Ġg rab",
      "Ġin t",
      "Ste p",
      "Soph ia",
      "Andre a",
      "i i",
      "z abeth",
      "Ġp ri",
      "ĠT V",
      "Ġas ks",
      "ĠP h",
      "Ġus ually",
      "Ġr id",
      "Ġfuck ing",
      "Ġcount ry",
      "Ġchang ed",
      "Ġexpl ain",
      "ebast ian",
      "A na",
      "D ylan",
      "g ar",
      "Ġw ife",
      "Ġm ention",
      "Ġd rop",
      "Ġg one",
      "Ġis s",
      "ĠT ell",
      "Tom my",
      "Ġch oice",
      "Kim ber",
      "Ġmov ies",
      "Ġconf ir",
      "olute ly",
      "A udrey",
      "Ġf ather",
      "Ġl oc",
      "Ġst uck",
      "ĠM or",
      "Ġsend s",
      "F el",
      "g in",
      "v is",
      "Ġb ag",
      "ĠH arry",
      "ĠM el",
      "ĠJ osh",
      "row n",
      "Ġlook ed",
      "ĠV ery",
      "ov es",
      "Ġhol idays",
      "Ġra in",
      "ĠAd am",
      "itche n",
      "K ris",
      "R alph",
      "b ie",
      "d a",
      "r act",
      "as ter",
      "Ġair port",
      "g le",
      "u ly",
      "v y",
      "Ġsh oes",
      "th ony",
      "un ately",
      "Ġapp re",
      ".... ....",
      "Ġd ra",
      "ud ia",
      "Ġrece ive",
      "r u",
      "Ġs on",
      "ĠA ct",
      "Ġk inda",
      "Ġat tend",
      "ĠO ne",
      "ian e",
      "eor g",
      "Ġmove d",
      "Ġep is",
      "Ġc ut",
      "Ġp ie",
      "Ġk itchen",
      "Ġgo d",
      "ob ody",
      "ĠE ve",
      "ment s",
      "Ġbl ood",
      "O O",
      "T revor",
      "m ith",
      "Ġl apt",
      "is es",
      "ĠT ake",
      "al m",
      "ĠG o",
      "Ġle g",
      "Ġom g",
      "Ġlapt op",
      "E van",
      "r iel",
      "Ġl oves",
      "and er",
      "ĠDo es",
      "Ġwr iting",
      "Ġhor rible",
      "Ġsn ow",
      "B ella",
      "f ast",
      "j a",
      "m ine",
      "t ime",
      "ri l",
      "Ġ5 0",
      "isa pp",
      "og er",
      "Cl ara",
      "Ġret urn",
      "Ġext ra",
      "aure n",
      "Ġrequ est",
      "Ġappre ci",
      ": )",
      "J ustin",
      "n ess",
      "re ne",
      "Ġc li",
      "Ġd ue",
      "Ġl o",
      "Ġn orm",
      "il ia",
      "Ġwor d",
      "ub a",
      "Ġtra ffic",
      "Ġmat ter",
      "Ġmat ch",
      "M r",
      "N e",
      "Ġf ore",
      "ar ling",
      "ĠJ ake",
      "ĠEm ma",
      "Ġter rible",
      "jam in",
      "Syl via",
      "u a",
      "Ġc a",
      "ill e",
      "Ġre port",
      "ace y",
      "ee ee",
      "Bob by",
      "Lou ise",
      "Ġmo ving",
      "M andy",
      "R ebecca",
      "i ol",
      "Ġs ched",
      "Ġd isapp",
      "Ġp os",
      "Ġhe alth",
      "Ġse x",
      "Ġwh ite",
      "pp ed",
      "Ġby e",
      "Ġcheck ed",
      "Ġfavour ite",
      "E S",
      "Ġf ast",
      "ic ia",
      "ill s",
      "ĠG er",
      "Ġwonder ing",
      "Ġwin ter",
      "ĠSara h",
      "S cott",
      "Ġl it",
      "ad s",
      "el ine",
      "Ġare n",
      "Ġal ong",
      "ĠP M",
      "Ġsee m",
      "Ġminut e",
      "Ġtick et",
      "Ġcoll ect",
      "D erek",
      "L ena",
      "O U",
      "W al",
      "Ġm il",
      "Ġst ory",
      "Isab ella",
      "c ri",
      "Ġt aken",
      "Ġm ark",
      "ar ch",
      "ĠY ear",
      "Ġyour s",
      "Ġv ac",
      "Sam uel",
      "Ġ10 0",
      "Ste ven",
      "arent ly",
      "Ġconf erence",
      "Ġadd ress",
      "yd ia",
      "ĠAct ually",
      "Ġlot s",
      "Ad rian",
      "Ġrec ip",
      "ĠSt ill",
      "ord an",
      "Ġsupp ort",
      "Ġop in",
      "Ġquest ions",
      "Ġsit uation",
      "Ġhu ge",
      "p y",
      "Ġw all",
      "Ġwe bs",
      "ĠW as",
      "Ell en",
      "ult s",
      "Kat ie",
      "lor ia",
      "Ġpa per",
      "Ġpresent ation",
      "Stan ley",
      "Kimber ly",
      "at a",
      "ĠM an",
      "ĠB ec",
      "Ġshould n",
      "Ġhome work",
      "ĠJo e",
      "L ola",
      "T oby",
      "in c",
      "ĠJ eff",
      "ur ry",
      "ĠAnd y",
      "av ier",
      "Eli zabeth",
      "Ġfil m",
      "Ġac cept",
      "Ġprof ess",
      "M iranda",
      "Ġc or",
      "Ġc hat",
      "al ian",
      "Ġcan c",
      "Ġpl aces",
      "end s",
      "Bl ake",
      "* *",
      "A ri",
      "L eah",
      "Ġb ath",
      "or ge",
      "ĠW ait",
      "Jan et",
      "oll ow",
      "H ugh",
      "M ason",
      "b t",
      "l s",
      "oo ke",
      "ĠS ha",
      "Ġsu it",
      "ĠD ec",
      "th ur",
      "um e",
      "qu e",
      "lo ad",
      "Ġtra ve",
      "Ġlate ly",
      "Ġinter view",
      "t her",
      "Ġf oot",
      "Ġd ream",
      "ut er",
      "el s",
      "Ġpro per",
      "Ġmean s",
      "vers ity",
      "ĠPol and",
      "A li",
      "L ia",
      "M um",
      "S han",
      "w ise",
      "Ġf an",
      "Ġl ecture",
      "Ġsp ent",
      "Ġbab e",
      "Ġcr oss",
      "Ġbreak fast",
      "F l",
      "I N",
      "R ory",
      "f orm",
      "n ed",
      "om i",
      "st airs",
      "Ġup s",
      "if ic",
      "Ġhaha h",
      "Ġsend ing",
      "Ġcook ing",
      "D omin",
      "O l",
      "O la",
      "S id",
      "k en",
      "t w",
      "y ing",
      "Ġt reat",
      "ĠM onica",
      "ant astic",
      "ĠHe re",
      "ĠF red",
      "ĠE d",
      "ĠK im",
      "Ġpr act",
      "lo ck",
      "Gab rie",
      "Ġhell o",
      "fort unately",
      "B e",
      "B ry",
      "F inn",
      "l er",
      "n or",
      "Ġs ense",
      "ha ps",
      "Ġb ud",
      "ot s",
      "Ġsu n",
      "ĠJ enny",
      "Paul ine",
      "Jess ie",
      "Ġbu ild",
      "Ġgen er",
      "Ġt ast",
      "Ġh it",
      "Ġli br",
      "Ġneed ed",
      "la x",
      "Ġcomp uter",
      "ren ch",
      "ĠLu cy",
      "ĠAf ter",
      "R od",
      "Ġt akes",
      "Ġw ind",
      "or ies",
      "Ġf ight",
      "ow e",
      "us ed",
      "Ġth row",
      "ĠW ith",
      "ĠW ars",
      "Ġre lax",
      "ĠA w",
      "ĠY ea",
      "Ġcon vin",
      "Is la",
      "ret t",
      "Ġkey s",
      "al ia",
      "Ġdo c",
      "ĠB ill",
      "ĠJ ac",
      "un no",
      "ĠF ine",
      "Ġus ing",
      "The o",
      "Ġsw im",
      "Ġstudy ing",
      "inds ay",
      "S ebastian",
      "r id",
      "Ġb ank",
      "ĠS omet",
      "ĠN etflix",
      "Ġtr ust",
      "Ġsurpris ed",
      "rat ul",
      "D onald",
      "S h",
      "Ġd arling",
      "Ġbe ha",
      "Ġfor m",
      "id es",
      "ĠH er",
      "ĠN at",
      "ul a",
      "An thony",
      "em ma",
      "Ġpart ic",
      "ord ing",
      "no ld",
      "Ed ward",
      "Ġarrive d",
      "N ora",
      "a ld",
      "u gg",
      "Ġm od",
      "Ġf ollow",
      "Ġp ics",
      "ĠM um",
      "Ġcon g",
      "ip s",
      "Ġhappen s",
      "Ġwebs ite",
      "Ġlibr ary",
      "A id",
      "D iane",
      "G er",
      "Ġs y",
      "Ġm ist",
      "Ġf re",
      "ĠA my",
      "Ġne ither",
      "ĠG eorge",
      "Ġar g",
      "Ġstart s",
      "Ġrem ind",
      "Ġneighb our",
      "M or",
      "M ona",
      "R oss",
      "r ad",
      "Ġhis t",
      "Car rie",
      "Jul ian",
      "\" .",
      "e al",
      "o ver",
      "p ed",
      "Ġof ten",
      "ist s",
      "ert ain",
      "Fran cis",
      "Ġtra vel",
      "Ġprom ise",
      "D ean",
      "G loria",
      "S ha",
      "T yler",
      "Ġf lo",
      "ĠH is",
      "Ġst ra",
      "ĠG reg",
      "Jo y",
      "Ġfind s",
      "Ben jamin",
      "ĠMart ha",
      "He ather",
      "Ġmil k",
      "at hy",
      "ĠG uy",
      "ĠP aris",
      "Ġdrink ing",
      "Ġdel i",
      "Ġcomplete ly",
      "ĠBec ause",
      "L auren",
      "P olly",
      "R oger",
      "S andy",
      "T e",
      "p ril",
      "ĠI nd",
      "Ġp ar",
      "Ġin side",
      "Ġin de",
      "ĠA h",
      "han ie",
      "ĠC l",
      "ĠG l",
      "Rob in",
      "Le on",
      "de red",
      "Ġann oy",
      "Ġes pecially",
      "Ġchick en",
      "B arry",
      "D e",
      "r on",
      "Ġf ig",
      "Ġd amn",
      "Ġp ot",
      "ĠS oph",
      "Ġst reet",
      "il ar",
      "and on",
      "Ġpro duct",
      "Ġ1 9",
      "Ar thur",
      "Ġwom an",
      "Ġbo ard",
      "Ġele ct",
      "Ġnorm al",
      "Wal ter",
      "Z ack",
      "Ġp at",
      "Ġl a",
      "ant s",
      "Ġser v",
      "Ġluck y",
      "Ġappreci ate",
      "Ġinde ed",
      "D en",
      "T am",
      "Ġt ea",
      "ar ing",
      "as ia",
      "id i",
      "un t",
      "ĠIt aly",
      "Ġsa ve",
      "Ġlove d",
      "Ġmin s",
      "ĠDan iel",
      "enn is",
      "Ġpol it",
      "Ġaff ord",
      "G eorg",
      "Ġw is",
      "Ġb and",
      "an n",
      "Ġf it",
      "Ġf ace",
      "ĠM ax",
      "ĠF acebook",
      "ran ce",
      "ĠMar ia",
      "oe be",
      "Er in",
      "ĠWars aw",
      "I rene",
      "T here",
      "k i",
      "p ect",
      "u c",
      "Ã ©",
      "Ġ âĢ",
      "ĠM ad",
      "ĠC ong",
      "ol as",
      "Ġtell ing",
      "Ġdi ed",
      "Is a",
      "Ġinter net",
      "Jud y",
      "D ora",
      "E A",
      "L ydia",
      "R ita",
      "at s",
      "Ġh urt",
      "ĠS im",
      "ri k",
      "ĠL isa",
      "ĠP l",
      "Ġpro p",
      "Ġstart ing",
      "Ġwar m",
      "Ġcol our",
      "Ġm en",
      "ve y",
      "Ġli ght",
      "ĠP e",
      "Ġ2 5",
      "ĠAl ice",
      "ĠCar ol",
      "Gab riel",
      "ale b",
      "ĠMic hael",
      "A ll",
      "a iley",
      "i ent",
      "v i",
      "is abeth",
      "ĠH m",
      "ĠL aura",
      "Ġpl ane",
      "Ġoff ers",
      "Ġcl os",
      "Fred die",
      "car l",
      "Lou is",
      "Pam ela",
      "Ġopin ion",
      "4 5",
      "b o",
      "m it",
      "in es",
      "Ġg reen",
      "oo gle",
      "Ġst range",
      "ell ed",
      "ard en",
      "Dan ie",
      "ĠU S",
      "Ġvisit ing",
      "Ġfav or",
      "ĠJul ia",
      "Ġopt ion",
      "Ġups et",
      "E R",
      "S haron",
      "r or",
      "Ġc ream",
      "Ġh um",
      "Ġli ving",
      "ĠK elly",
      "ĠV ictor",
      "ĠLu ke",
      "Phil ip",
      "ĠEm ily",
      "ok ing",
      "Ġdead line",
      "Suz ie",
      "1 5",
      "H ow",
      "Ġo pp",
      "ĠN O",
      "ĠG et",
      "Ġhim self",
      "Ġcon vers",
      "ĠðŁĺ ī",
      "Ġdec is",
      "Ġbro ken",
      "Ġpost ed",
      "Jon athan",
      "L ea",
      "N ate",
      "R onald",
      "a per",
      "b ably",
      "d le",
      "Ġt em",
      "ot h",
      "Ġbe ach",
      "Ġwhat s",
      "?? ??",
      "ĠNe xt",
      "L enny",
      "ou g",
      "Ġl end",
      "Ġsu cks",
      "op py",
      "ĠL inda",
      "Ġany body",
      "Ġ:) )",
      "ation al",
      "Al f",
      "Al ison",
      "ĠSte ve",
      "Ġuni versity",
      "c ial",
      "e red",
      "n ect",
      "w is",
      "Ġf air",
      "Ġp ic",
      "Ġe y",
      "ad a",
      "Ġse ll",
      "um ent",
      "Ġwr ote",
      "ren ce",
      "Ġsleep ing",
      "Ġent rance",
      "ĠPro bably",
      "L es",
      "m on",
      "Ġf all",
      "Ġl aw",
      "Ġh us",
      "Ġth o",
      "ĠS ame",
      "ĠH elen",
      "ra ph",
      "ian ne",
      "av in",
      "Ġpre gn",
      "Ġfl ow",
      "Mel anie",
      "St acy",
      "Mad ison",
      "Ġepis ode",
      "Ol ga",
      "I t",
      "b and",
      "i as",
      "r ina",
      "Ġt our",
      "Ġm all",
      "Ġevery body",
      "The resa",
      "Ġcop y",
      "K it",
      "s ha",
      "on nie",
      "Ġb ur",
      "Ġy up",
      "at ure",
      "ĠS mith",
      "ĠC la",
      "ĠE uro",
      "um b",
      "Car men",
      "Br ooke",
      "Ġeat ing",
      "Ġtrain ing",
      "Ġsit ting",
      "Jas mine",
      "Ġlau gh",
      "Ġcent re",
      "L indsay",
      "N a",
      "S us",
      "Ġs ize",
      "Ġi ce",
      "Ġf ancy",
      "Ġd ist",
      "Ġp ur",
      "am a",
      "Ġdo ll",
      "ry l",
      "Ġj ack",
      "ĠN ick",
      "ĠIt alian",
      "Ġr ound",
      "ĠHa ppy",
      "Ġturn ed",
      "rat s",
      "ĠRob ert",
      "Ġexper ience",
      "Ġbott le",
      "Ġabs olutely",
      "Ġreceive d",
      "Ġfig ure",
      "g ed",
      "Ġhe art",
      "ĠT ina",
      "ĠAnd rew",
      "Ġplay ed",
      "Ġcont ro",
      "Ġcur rent",
      "Ġpri v",
      "Ġflo or",
      "t t",
      "ã ĥ",
      "Ġ ed",
      "an ia",
      "an ne",
      "Ġy ea",
      "Ġc re",
      "Ġbe gin",
      "Ġcall ing",
      "Ġro ad",
      "Ġsupp ose",
      "Ph oebe",
      "Ġeas ier",
      "Eve lyn",
      "Ġpol ice",
      "He idi",
      "Ġhun gry",
      "Ġfly ing",
      "Ġcelebr ate",
      "Ġdou bt",
      "H ank",
      "J ose",
      "i us",
      "n ight",
      "Ġb other",
      "Ġb ox",
      "Ġc amp",
      "Ġf ell",
      "at ive",
      "Ġme m",
      "ĠY up",
      "th ia",
      "se y",
      "od d",
      "Ġch ill",
      "gg y",
      "Ġres ults",
      "Ġ:- (",
      "Ar nold",
      "aa aa",
      "Ġhus band",
      "V iv",
      "y lie",
      "Ġ $",
      "Ġf ish",
      "Ġf ail",
      "at ha",
      "is ha",
      "ie ld",
      "el t",
      "Ġso l",
      "ĠB er",
      "ĠF rench",
      "Ġar ri",
      "iz ed",
      "Ġen g",
      "Ġtr ou",
      "Ġsc ared",
      "Josh ua",
      "Ġass ign",
      "Ġhist ory",
      "ĠGuy s",
      "C ec",
      "S onia",
      "c ess",
      "t ed",
      "z ie",
      "Ŀ ¤",
      "ou n",
      "Ġb ra",
      "Ġm ath",
      "Ġn obody",
      "is m",
      "ay den",
      "out h",
      "Ġher self",
      "un o",
      "ðŁ ¤",
      "use um",
      "Ġte ach",
      "Br uce",
      "Ġapp ro",
      "Le wis",
      "lle ge",
      "Con nor",
      "uri ous",
      "aught er",
      "iol et",
      "A ustin",
      "Ġd est",
      "Ġn ope",
      "Ġre se",
      "ĠA pp",
      "ĠD ave",
      "Ġch oc",
      "Ġgu est",
      "ĠTh omas",
      "ĠAny thing",
      "Ang el",
      "Ġsl ow",
      "Ġconfir m",
      "Ġsched ule",
      "a ith",
      "in ny",
      "Ġm ood",
      "Ġf ut",
      "Ġh urry",
      "Ġli ves",
      "ĠB ob",
      "ĠJ ason",
      "Al bert",
      "Paul ina",
      "G emma",
      "P e",
      "S eth",
      "o f",
      "Ġs at",
      "Ġf ile",
      "ĠM ag",
      "ĠN ah",
      "ul ous",
      "th ough",
      "ĠE n",
      "ĠK at",
      "St ella",
      "Ġgl ass",
      "Ġgi ving",
      "Ġrecip e",
      "ĠJac ob",
      "carl ett",
      "J ude",
      "r r",
      "re ta",
      "it ive",
      "Ġst ressed",
      "il ip",
      "Ġwon t",
      "Ġ4 0",
      "El isabeth",
      "yn n",
      "Ġart ic",
      "Ġconsider ing",
      "Step hanie",
      "Ġwind ow",
      "Ġstra ight",
      "C atherine",
      "J ordan",
      "M a",
      "^ ^",
      "m ar",
      "Ġ ri",
      "in y",
      "ic ious",
      "Ġe v",
      "ĠY OU",
      "Ġwor st",
      "ĠG u",
      "An ita",
      "Ġshow er",
      "Ġagre ed",
      "Dam ian",
      "Ġinvit es",
      "Ġtrave lling",
      "Ġserv ice",
      "Ġfut ure",
      "Ġ &",
      "Ġ ess",
      "Ġd em",
      "ro c",
      "il ity",
      "ĠE than",
      "ee z",
      "Ġsp ace",
      "Ġtw ice",
      "Ġmiss ing",
      "Ġinf o",
      "olog y",
      "g ina",
      "in o",
      "ĠI d",
      "Ġc reat",
      "el ie",
      "ĠM ia",
      "ĠG ive",
      "Ġpr oud",
      "Ġdown stairs",
      "Ġdel ay",
      "ĠSp ain",
      "Ġgrand ma",
      "Ġlit er",
      "C aleb",
      "L ara",
      "Ġc ash",
      "ac ks",
      "ĠS usan",
      "ĠH enry",
      "ĠB arb",
      "ks on",
      "st em",
      "ĠF uck",
      "ĠK aren",
      "Ġche aper",
      "Ġagain st",
      "Ġgr ad",
      "Ġenjoy ed",
      "Ġless on",
      "Ġprepare d",
      "gr am",
      "Ġmanag ed",
      "Ġcor rect",
      "P enny",
      "t he",
      "z o",
      "Ġf antastic",
      "Ġf elt",
      "Ġl ose",
      "as k",
      "Ġan im",
      "op her",
      "Ġcon nect",
      "Ġafter wards",
      "ĠNe ver",
      "Nick y",
      "Ġpass ed",
      "ang u",
      "Ġinform ation",
      "ĠQ u",
      "ratul ations",
      "Ġconvers ation",
      "Ġpregn ant",
      "e k",
      "m ond",
      "Ġ *",
      "he ad",
      "an essa",
      "Ġp an",
      "Ġin d",
      "am il",
      "ĠA mer",
      "ion al",
      "ĠD amn",
      "Ġco ver",
      "Har per",
      "Ġwom en",
      "Ġpleas ure",
      "ĠDec ember",
      "Be at",
      "ĠAw esome",
      "ĠEuro pe",
      "R oy",
      "h ind",
      "Ġb tw",
      "ing ers",
      "Ġh old",
      "ĠS ue",
      "ĠB re",
      "Car ter",
      "Mart a",
      "gg ie",
      "Ġbre ad",
      "Ġdep ends",
      "ĠKe vin",
      "Ġsy stem",
      "Na omi",
      "Ġchoc ol",
      "E s",
      "R iley",
      "u ary",
      "Ġc ertain",
      "Ġd ro",
      "Ġd aughter",
      "ic ed",
      "ĠP ete",
      "Ġplan ned",
      "Ġsm art",
      "Ġ20 1",
      "Ġve gan",
      "ĠðŁĻ Ĥ",
      "Ġbegin ning",
      "C le",
      "K ai",
      "c ha",
      "k ing",
      "Ġa ge",
      "Ġbe hind",
      "ĠC am",
      "st on",
      "Ġdid nt",
      "ard s",
      "ĠðŁĺ į",
      "Ġdi et",
      "Alex is",
      "Alex ander",
      "ĠAn ne",
      "Ron nie",
      "Ġtrans l",
      "ĠPat rick",
      "Ġinc l",
      "ĠOli via",
      "Ġob vious",
      "Ġbath room",
      "Ġdecis ion",
      "Ġey es",
      "t ney",
      "Ġd ark",
      "Ġme at",
      "Ġst ar",
      "ust r",
      "our tney",
      "Ġup d",
      "Ġwork ed",
      "aul t",
      "Ġen ter",
      "Ġdisc ount",
      "rs ula",
      "ĠðŁĳ į",
      "Ġfoot ball",
      "A ly",
      "R andy",
      "Ġ z",
      "Ġ ris",
      "Ġt v",
      "en cy",
      "oo f",
      "ĠT oo",
      "ĠS er",
      "ter n",
      "ĠJ une",
      "ðŁĺ į",
      "Ġr ing",
      "Ġche ese",
      "Ġpre f",
      "Ġwonder ful",
      "Isab el",
      "Ġswim ming",
      "h ow",
      "i ri",
      "i ant",
      "Ġt ough",
      "Ġt ax",
      "Ġg arden",
      "Ġl angu",
      "ill ie",
      "Ġe gg",
      "ĠH ar",
      "al ity",
      "Ġpro gram",
      "Ġag es",
      "Car o",
      "Dan a",
      "Ġstud ents",
      "Ġwear ing",
      "Ġhand s",
      "Ġmark et",
      "Ġwis hes",
      "Ġtrou ble",
      "2 0",
      "R en",
      "_ -",
      "g ent",
      "o id",
      "an ish",
      "Ġp ress",
      "is ing",
      "ĠT ha",
      "Ġme ant",
      "ĠY ork",
      "ĠL ou",
      "ĠE ric",
      "Ġ1 8",
      "Ġfl u",
      "Ang ie",
      "ĠLu c",
      "Ġtrans fer",
      "ðŁĺĤ ðŁĺĤ",
      "C ol",
      "D oug",
      "T ara",
      "a ff",
      "r ice",
      "x x",
      "ĠT H",
      "el f",
      "ĠB y",
      "un ter",
      "ĠF l",
      "ĠR achel",
      "Ġcon d",
      "ĠðŁĺ ĺ",
      "Fran ces",
      "Ġun fortunately",
      "Ġper form",
      "Cl ark",
      "Ġsk i",
      "Christ ine",
      "ĠBl ack",
      "ĠSoph ie",
      "G reta",
      "L ynn",
      "N or",
      "V iolet",
      "X avier",
      "o j",
      "w in",
      "Ġ ,",
      "Ġd ent",
      "Ġl ine",
      "ie w",
      "Ġe ff",
      "ĠB rian",
      "ĠL iz",
      "Ġpl us",
      "ab rina",
      "ĠR em",
      "ud y",
      "Ġcat s",
      "Ġcle ar",
      "Ġiss ues",
      "Domin ic",
      "Ġbuild ing",
      "How ard",
      "K ayla",
      "e ed",
      "er on",
      "Ġc ry",
      "Ġp iss",
      "Ġl ady",
      "ent y",
      "ore nce",
      "ĠG ab",
      "ĠIt s",
      "Ġor dered",
      "ĠF irst",
      "ain s",
      "Ġv ote",
      "Ġpr int",
      "Ġdi rect",
      "Ġdes ign",
      "Ġset t",
      "Carl os",
      "G wen",
      "P oppy",
      "S carlett",
      "W il",
      "x ic",
      "Ġi gn",
      "Ġm ach",
      "er ve",
      "Ġc am",
      "Ġf ire",
      "us es",
      "id get",
      "ĠH A",
      "Ġst ress",
      "ĠC on",
      "ĠL ast",
      "Ġsh ut",
      "Ġsh irt",
      "ore s",
      "ĠP re",
      "Ġsp ot",
      "Ġsp ort",
      "Ġco llege",
      "sel ves",
      "ĠAl so",
      "?! ?!",
      "Ġkeep s",
      "Ġexam ple",
      "orge ous",
      "Ġpract ice",
      "Ġfavor ite",
      "Ġflow ers",
      "Ġartic le",
      "B ert",
      "r al",
      "Ġt ur",
      "Ġf ault",
      "Ġl at",
      "ill iant",
      "ch ie",
      "Ġfr idge",
      "Ġany where",
      "ĠTom orrow",
      "ĠMart in",
      "Ġsing le",
      "ĠEvery thing",
      "Ġty pe",
      "Danie lle",
      "Ġ ĠčĊ",
      "Ġb oo",
      "Ġc ous",
      "Ġf our",
      "ay ne",
      "Ġare a",
      "Ġas ap",
      "ĠR ose",
      "Ġcom fort",
      "Ġfe ed",
      "Ġr ide",
      "Ste f",
      "ĠðŁ Ĵ",
      "Ġstop ped",
      "ug o",
      "Ġcook ies",
      "ĠOn ly",
      "ĠChar lie",
      "Ġblood y",
      "B illy",
      "I vy",
      "c on",
      "g ing",
      "u an",
      "u be",
      "ou l",
      "Ġc la",
      "Ġf b",
      "Ġp ool",
      "Ġh ost",
      "ie go",
      "Ġas leep",
      "pp ing",
      "An ton",
      "ard o",
      "Ġpre vious",
      "Ġqu it",
      "Ġde v",
      "Ġ- _-",
      "Ġhappen ing",
      "Ġsha me",
      "Ġcanc elled",
      "IN G"
    ]
  }
}